{
  "version": "1.0",
  "truncation": null,
  "padding": null,
  "added_tokens": [
    {
      "id": 0,
      "content": "<unk>",
      "single_word": false,
      "lstrip": false,
      "rstrip": false,
      "normalized": false,
      "special": true
    },
    {
      "id": 1,
      "content": "<pad>",
      "single_word": false,
      "lstrip": false,
      "rstrip": false,
      "normalized": false,
      "special": true
    },
    {
      "id": 2,
      "content": "<s>",
      "single_word": false,
      "lstrip": false,
      "rstrip": false,
      "normalized": false,
      "special": true
    },
    {
      "id": 3,
      "content": "</s>",
      "single_word": false,
      "lstrip": false,
      "rstrip": false,
      "normalized": false,
      "special": true
    },
    {
      "id": 4,
      "content": "<mask>",
      "single_word": false,
      "lstrip": false,
      "rstrip": false,
      "normalized": false,
      "special": true
    },
    {
      "id": 5,
      "content": "<DOC_START>",
      "single_word": false,
      "lstrip": false,
      "rstrip": false,
      "normalized": false,
      "special": true
    },
    {
      "id": 6,
      "content": "<EDITION_D>",
      "single_word": false,
      "lstrip": false,
      "rstrip": false,
      "normalized": false,
      "special": true
    },
    {
      "id": 7,
      "content": "<EDITION_H>",
      "single_word": false,
      "lstrip": false,
      "rstrip": false,
      "normalized": false,
      "special": true
    },
    {
      "id": 8,
      "content": "<EDITION_J>",
      "single_word": false,
      "lstrip": false,
      "rstrip": false,
      "normalized": false,
      "special": true
    },
    {
      "id": 9,
      "content": "<EDITION_N>",
      "single_word": false,
      "lstrip": false,
      "rstrip": false,
      "normalized": false,
      "special": true
    }
  ],
  "normalizer": null,
  "pre_tokenizer": {
    "type": "Sequence",
    "pretokenizers": [
      {
        "type": "WhitespaceSplit"
      },
      {
        "type": "Split",
        "pattern": {
          "Regex": "(?=[bcdghjklnprstyz']+[aiueo][bcdghjklnprstyz']*)(am|'ang|'i|'is|'o|'u)$"
        },
        "behavior": "Isolated",
        "invert": false
      }
    ]
  },
  "post_processor": null,
  "decoder": {
    "type": "ByteLevel",
    "add_prefix_space": true,
    "trim_offsets": true,
    "use_regex": true
  },
  "model": {
    "type": "BPE",
    "dropout": null,
    "unk_token": "<unk>",
    "continuing_subword_prefix": null,
    "end_of_word_suffix": null,
    "fuse_unk": false,
    "byte_fallback": false,
    "ignore_merges": false,
    "vocab": {
      "<unk>": 0,
      "<pad>": 1,
      "<s>": 2,
      "</s>": 3,
      "<mask>": 4,
      "<DOC_START>": 5,
      "<EDITION_D>": 6,
      "<EDITION_H>": 7,
      "<EDITION_J>": 8,
      "<EDITION_N>": 9,
      "!": 10,
      "#": 11,
      "$": 12,
      "&": 13,
      "'": 14,
      "(": 15,
      ")": 16,
      "*": 17,
      "+": 18,
      ",": 19,
      "-": 20,
      ".": 21,
      "/": 22,
      "0": 23,
      "1": 24,
      "2": 25,
      "3": 26,
      "4": 27,
      "5": 28,
      "6": 29,
      "7": 30,
      "8": 31,
      "9": 32,
      ":": 33,
      ";": 34,
      "<": 35,
      "=": 36,
      ">": 37,
      "?": 38,
      "@": 39,
      "A": 40,
      "C": 41,
      "D": 42,
      "E": 43,
      "F": 44,
      "H": 45,
      "I": 46,
      "J": 47,
      "M": 48,
      "N": 49,
      "O": 50,
      "R": 51,
      "S": 52,
      "T": 53,
      "U": 54,
      "W": 55,
      "X": 56,
      "Y": 57,
      "[": 58,
      "\\": 59,
      "]": 60,
      "_": 61,
      "`": 62,
      "a": 63,
      "b": 64,
      "c": 65,
      "d": 66,
      "e": 67,
      "f": 68,
      "g": 69,
      "h": 70,
      "i": 71,
      "j": 72,
      "k": 73,
      "l": 74,
      "m": 75,
      "n": 76,
      "o": 77,
      "p": 78,
      "q": 79,
      "r": 80,
      "s": 81,
      "t": 82,
      "u": 83,
      "v": 84,
      "w": 85,
      "x": 86,
      "y": 87,
      "z": 88,
      "{": 89,
      "|": 90,
      "}": 91,
      "~": 92,
      "­": 93,
      "µ": 94,
      "¼": 95,
      "¿": 96,
      "×": 97,
      "à": 98,
      "ã": 99,
      "ä": 100,
      "æ": 101,
      "í": 102,
      "î": 103,
      "ï": 104,
      "ð": 105,
      "ñ": 106,
      "ö": 107,
      "þ": 108,
      "ķ": 109,
      "в": 110,
      "ं": 111,
      "ऽ": 112,
      "।": 113,
      "‍": 114,
      "‘": 115,
      "’": 116,
      "■": 117,
      "。": 118,
      "一": 119,
      "五": 120,
      "件": 121,
      "品": 122,
      "夹": 123,
      "密": 124,
      "建": 125,
      "文": 126,
      "新": 127,
      "時": 128,
      "未": 129,
      "标": 130,
      "桌": 131,
      "档": 132,
      "秘": 133,
      "經": 134,
      "註": 135,
      "輪": 136,
      "部": 137,
      "面": 138,
      "题": 139,
      "黃": 140,
      "（": 141,
      "）": 142,
      "ng": 143,
      "pa": 144,
      "DI": 145,
      "TI": 146,
      "<E": 147,
      "N_": 148,
      "ON_": 149,
      "DITI": 150,
      "<EDITI": 151,
      "<EDITION_": 152,
      "ang": 153,
      "yi": 154,
      "ba": 155,
      "D>": 156,
      "na": 157,
      "'i": 158,
      "la": 159,
      "gs": 160,
      "ya": 161,
      "ha": 162,
      "he": 163,
      "dang": 164,
      "de": 165,
      "da": 166,
      "ms": 167,
      "par": 168,
      "ts": 169,
      "ho": 170,
      "du": 171,
      "hi": 172,
      "ye": 173,
      "ma": 174,
      "N>": 175,
      "bs": 176,
      "kyi": 177,
      "ra": 178,
      "H>": 179,
      "yu": 180,
      "ni": 181,
      "yang": 182,
      "bya": 183,
      "yo": 184,
      "ta": 185,
      "J>": 186,
      "te": 187,
      "ph": 188,
      "hes": 189,
      "rna": 190,
      "nyi": 191,
      "po": 192,
      "dag": 193,
      "hu": 194,
      "//": 195,
      "zhi": 196,
      "do": 197,
      "rg": 198,
      "nas": 199,
      "yin": 200,
      "mi": 201,
      "'o": 202,
      "ri": 203,
      "ro": 204,
      "ca": 205,
      "'d": 206,
      "to": 207,
      "gyi": 208,
      "rgya": 209,
      "me": 210,
      "tha": 211,
      "so": 212,
      "'g": 213,
      "bar": 214,
      "ru": 215,
      "nyid": 216,
      "yur": 217,
      "zhes": 218,
      "yed": 219,
      "se": 220,
      "su": 221,
      "ngs": 222,
      "sk": 223,
      "med": 224,
      "bzhi": 225,
      "tu": 226,
      "cho": 227,
      "ci": 228,
      "sems": 229,
      "gi": 230,
      "lta": 231,
      "las": 232,
      "kh": 233,
      "'di": 234,
      "bu": 235,
      "nga": 236,
      "rnams": 237,
      "che": 238,
      "gz": 239,
      "ngo": 240,
      "rnam": 241,
      "shes": 242,
      "bzhin": 243,
      "dg": 244,
      "lo": 245,
      "rj": 246,
      "pas": 247,
      "ste": 248,
      "phyi": 249,
      "han": 250,
      "byed": 251,
      "dz": 252,
      "dan": 253,
      "gang": 254,
      "cad": 255,
      "mo": 256,
      "'b": 257,
      "chu": 258,
      "ldan": 259,
      "'gyur": 260,
      "yod": 261,
      "tho": 262,
      "es": 263,
      "bc": 264,
      "thams": 265,
      "rang": 266,
      "sto": 267,
      "chos": 268,
      "am": 269,
      "phyir": 270,
      "go": 271,
      "chen": 272,
      "sp": 273,
      "od": 274,
      "ji": 275,
      "kha": 276,
      "kyis": 277,
      "dpa": 278,
      "gsu": 279,
      "rab": 280,
      "byang": 281,
      "gnas": 282,
      "ku": 283,
      "tan": 284,
      "kho": 285,
      "db": 286,
      "can": 287,
      "ka": 288,
      "ltar": 289,
      "tsho": 290,
      "'da": 291,
      "angs": 292,
      "lu": 293,
      "bdag": 294,
      "yung": 295,
      "kyang": 296,
      "nya": 297,
      "re": 298,
      "cig": 299,
      "bz": 300,
      "rts": 301,
      "shi": 302,
      "chub": 303,
      "gyis": 304,
      "sogs": 305,
      "'du": 306,
      "no": 307,
      "pha": 308,
      "'das": 309,
      "ad": 310,
      "bo": 311,
      "bco": 312,
      "gyur": 313,
      "don": 314,
      "al": 315,
      "rgyas": 316,
      "skye": 317,
      "rje": 318,
      "gnyi": 319,
      "cha": 320,
      "gnyis": 321,
      "'kho": 322,
      "kun": 323,
      "bcom": 324,
      "rol": 325,
      "lha": 326,
      "rub": 327,
      "sa": 328,
      "dpa'": 329,
      "'khor": 330,
      "stong": 331,
      "byas": 332,
      "sb": 333,
      "thu": 334,
      "sg": 335,
      "mts": 336,
      "gis": 337,
      "sangs": 338,
      "dge": 339,
      "sn": 340,
      "rdo": 341,
      "yongs": 342,
      "rdz": 343,
      "ngon": 344,
      "gzhan": 345,
      "rgyu": 346,
      "ras": 347,
      "rgyal": 348,
      "zi": 349,
      "mcho": 350,
      "nye": 351,
      "gsum": 352,
      "ten": 353,
      "dbang": 354,
      "br": 355,
      "yor": 356,
      "zin": 357,
      "zhing": 358,
      "bas": 359,
      "'ji": 360,
      "ga": 361,
      "bstan": 362,
      "yon": 363,
      "had": 364,
      "ti": 365,
      "spyod": 366,
      "gzu": 367,
      "tshe": 368,
      "gcig": 369,
      "gshe": 370,
      "ug": 371,
      "le": 372,
      "rto": 373,
      "ces": 374,
      "'do": 375,
      "'dzin": 376,
      "brgya": 377,
      "mtshan": 378,
      "snga": 379,
      "tshi": 380,
      "d+": 381,
      "gshegs": 382,
      "'j": 383,
      "cing": 384,
      "slo": 385,
      "rten": 386,
      "phyin": 387,
      "bde": 388,
      "mngon": 389,
      "mtho": 390,
      "rdzo": 391,
      "tshu": 392,
      "phya": 393,
      "a'": 394,
      "grub": 395,
      "'dod": 396,
      "phyag": 397,
      "tshogs": 398,
      "dam": 399,
      "lus": 400,
      "'byung": 401,
      "'jig": 402,
      "rdzogs": 403,
      "dus": 404,
      "ngos": 405,
      "mthong": 406,
      "zhe": 407,
      "'gro": 408,
      "rag": 409,
      "sm": 410,
      "mdz": 411,
      "byung": 412,
      "rig": 413,
      "shing": 414,
      "rigs": 415,
      "brj": 416,
      "nyam": 417,
      "za": 418,
      "mkha": 419,
      "dngos": 420,
      "rin": 421,
      "mtha": 422,
      "bsk": 423,
      "zhig": 424,
      "'am": 425,
      "lnga": 426,
      "sku": 427,
      "bcu": 428,
      "tshul": 429,
      "brjod": 430,
      "mchog": 431,
      "sha": 432,
      "nying": 433,
      "gsungs": 434,
      "snang": 435,
      "yid": 436,
      "gso": 437,
      "tshig": 438,
      "lam": 439,
      "gzugs": 440,
      "des": 441,
      "rta": 442,
      "skad": 443,
      "yogs": 444,
      "g.": 445,
      "rjes": 446,
      "yen": 447,
      "hA": 448,
      "snying": 449,
      "skyes": 450,
      "rtsa": 451,
      "khams": 452,
      "hal": 453,
      "ung": 454,
      "ral": 455,
      "ston": 456,
      "phyogs": 457,
      "dug": 458,
      "thob": 459,
      "er": 460,
      "'byor": 461,
      "hugs": 462,
      "bca": 463,
      "rul": 464,
      "sngags": 465,
      "bsam": 466,
      "dga'": 467,
      "bshad": 468,
      "nu": 469,
      "rung": 470,
      "chi": 471,
      "sbyin": 472,
      "lag": 473,
      "khya": 474,
      "slong": 475,
      "h+": 476,
      "chags": 477,
      "bdu": 478,
      "nam": 479,
      "nang": 480,
      "kyil": 481,
      "mar": 482,
      "sna": 483,
      "'jug": 484,
      "bcas": 485,
      "gsol": 486,
      "'dus": 487,
      "'ph": 488,
      "rug": 489,
      "dkyil": 490,
      "'od": 491,
      "ka'": 492,
      "rtog": 493,
      "b+": 494,
      "yul": 495,
      "dmi": 496,
      "sgo": 497,
      "dmigs": 498,
      "lags": 499,
      "'bras": 500,
      "reg": 501,
      "wa": 502,
      "dri": 503,
      "mtha'": 504,
      "yan": 505,
      "bsgo": 506,
      "mchod": 507,
      "hag": 508,
      "sbyor": 509,
      "lung": 510,
      "mdzad": 511,
      "nyan": 512,
      "yis": 513,
      "shin": 514,
      "drug": 515,
      "byar": 516,
      "ge": 517,
      "brgyad": 518,
      "dbu": 519,
      "smras": 520,
      "rk": 521,
      "byin": 522,
      "nges": 523,
      "bgyi": 524,
      "rtogs": 525,
      "ngan": 526,
      "dp": 527,
      "myi": 528,
      "bla": 529,
      "rtag": 530,
      "dad": 531,
      "gro": 532,
      "tsam": 533,
      "gsang": 534,
      "thos": 535,
      "the": 536,
      "dog": 537,
      "sgra": 538,
      "ting": 539,
      "sdug": 540,
      "pos": 541,
      "mthu": 542,
      "'u": 543,
      "bral": 544,
      "mkh": 545,
      "rgyud": 546,
      "mnyam": 547,
      "gsal": 548,
      "min": 549,
      "khyod": 550,
      "tshad": 551,
      "'ang": 552,
      "tsal": 553,
      "log": 554,
      "un": 555,
      "sri": 556,
      "mchi": 557,
      "gal": 558,
      "bka'": 559,
      "tshal": 560,
      "brts": 561,
      "smo": 562,
      "on": 563,
      "bsnga": 564,
      "tsa": 565,
      "bskyed": 566,
      "mkhyen": 567,
      "thugs": 568,
      "man": 569,
      "gts": 570,
      "khri": 571,
      "rangs": 572,
      "'pha": 573,
      "por": 574,
      "mkha'": 575,
      "hang": 576,
      "yas": 577,
      "srid": 578,
      "sngon": 579,
      "thabs": 580,
      "mongs": 581,
      "gto": 582,
      "'dra": 583,
      "sum": 584,
      "legs": 585,
      "dpal": 586,
      "nyon": 587,
      "yong": 588,
      "'phags": 589,
      "hU": 590,
      "mang": 591,
      "spa": 592,
      "ran": 593,
      "khro": 594,
      "mtsho": 595,
      "mig": 596,
      "chad": 597,
      "dgo": 598,
      "zhugs": 599,
      "zla": 600,
      "stsal": 601,
      "gu": 602,
      "snyam": 603,
      "bk": 604,
      "mya": 605,
      "sgrub": 606,
      "kar": 607,
      "~M": 608,
      "'dir": 609,
      "nge": 610,
      "mchis": 611,
      "bsngal": 612,
      "dbyi": 613,
      "nyen": 614,
      "zad": 615,
      "'kh": 616,
      "rim": 617,
      "blo": 618,
      "bzang": 619,
      "slob": 620,
      "rnal": 621,
      "stobs": 622,
      "bsgom": 623,
      "gtan": 624,
      "rog": 625,
      "gzhi": 626,
      "sbyar": 627,
      "myed": 628,
      "sla": 629,
      "nyes": 630,
      "ram": 631,
      "'tshal": 632,
      "bsku": 633,
      "khyad": 634,
      "li": 635,
      "mdo": 636,
      "pho": 637,
      "bdud": 638,
      "yug": 639,
      "gn": 640,
      "nyams": 641,
      "bsgrub": 642,
      "lan": 643,
      "bdun": 644,
      "rel": 645,
      "lang": 646,
      "lhag": 647,
      "bye": 648,
      "d+ha": 649,
      "di": 650,
      "badz": 651,
      "gnod": 652,
      "rus": 653,
      "der": 654,
      "ming": 655,
      "mu": 656,
      "song": 657,
      "oM": 658,
      "mthun": 659,
      "thi": 660,
      "dgra": 661,
      "tshor": 662,
      "nad": 663,
      "pad+": 664,
      "grangs": 665,
      "'jigs": 666,
      "nus": 667,
      "khyab": 668,
      "gos": 669,
      "rkyen": 670,
      "ring": 671,
      "ska": 672,
      "mkhas": 673,
      "phan": 674,
      "tog": 675,
      "khyi": 676,
      "'dun": 677,
      "smra": 678,
      "t+": 679,
      "zer": 680,
      "nor": 681,
      "tung": 682,
      "shig": 683,
      "dbyings": 684,
      "theg": 685,
      "rtsi": 686,
      "mgo": 687,
      "dran": 688,
      "brtson": 689,
      "sar": 690,
      "snyo": 691,
      "len": 692,
      "tags": 693,
      "bzhugs": 694,
      "rlung": 695,
      "'phrul": 696,
      "grol": 697,
      "blta": 698,
      "dbye": 699,
      "snyoms": 700,
      "'dug": 701,
      "gsung": 702,
      "phrag": 703,
      "phu": 704,
      "pad+ma": 705,
      "dza": 706,
      "bden": 707,
      "chung": 708,
      "nag": 709,
      "nams": 710,
      "langs": 711,
      "or": 712,
      "bts": 713,
      "sor": 714,
      "dkar": 715,
      "zag": 716,
      "khyim": 717,
      "bzlas": 718,
      "mthar": 719,
      "wA": 720,
      "ngag": 721,
      "tsha": 722,
      "ris": 723,
      "dbus": 724,
      "gzi": 725,
      "as": 726,
      "dpag": 727,
      "phung": 728,
      "'og": 729,
      "mtsha": 730,
      "dul": 731,
      "sde": 732,
      "srog": 733,
      "thar": 734,
      "shu": 735,
      "k+": 736,
      "rtse": 737,
      "yad": 738,
      "gda": 739,
      "bi": 740,
      "bsod": 741,
      "spangs": 742,
      "rags": 743,
      "mos": 744,
      "ltung": 745,
      "khrims": 746,
      "shA": 747,
      "gzhag": 748,
      "'ong": 749,
      "badzra": 750,
      "bum": 751,
      "og": 752,
      "khu": 753,
      "steng": 754,
      "gzung": 755,
      "rib": 756,
      "n+": 757,
      "g.yo": 758,
      "spo": 759,
      "spyan": 760,
      "bur": 761,
      "bsg": 762,
      "gar": 763,
      "'bar": 764,
      "dpo": 765,
      "khye": 766,
      "bzung": 767,
      "smin": 768,
      "lab": 769,
      "rn": 770,
      "tang": 771,
      "zhu": 772,
      "'brel": 773,
      "gzhu": 774,
      "bzod": 775,
      "bcad": 776,
      "ce": 777,
      "labs": 778,
      "tshigs": 779,
      "gzho": 780,
      "tsh": 781,
      "dmar": 782,
      "ched": 783,
      "phra": 784,
      "sam": 785,
      "dpon": 786,
      "reng": 787,
      "sprul": 788,
      "khrag": 789,
      "smos": 790,
      "shar": 791,
      "spro": 792,
      "'grub": 793,
      "dgu": 794,
      "spyi": 795,
      "'chi": 796,
      "smon": 797,
      "bzhag": 798,
      "bab": 799,
      "zha": 800,
      "rgyun": 801,
      "aa": 802,
      "khang": 803,
      "dgongs": 804,
      "skabs": 805,
      "snyed": 806,
      "rnyed": 807,
      "sdi": 808,
      "brten": 809,
      "bskur": 810,
      "rkang": 811,
      "g.yas": 812,
      "res": 813,
      "tshangs": 814,
      "'jam": 815,
      "zhal": 816,
      "-i": 817,
      "bsnyen": 818,
      "pa'am": 819,
      "bskor": 820,
      "brtan": 821,
      "lhu": 822,
      "bsdus": 823,
      "byangs": 824,
      "lhan": 825,
      "rgyan": 826,
      "ag": 827,
      "sman": 828,
      "'dul": 829,
      "mas": 830,
      "bgyid": 831,
      "phyug": 832,
      "dper": 833,
      "thogs": 834,
      "zas": 835,
      "hUM": 836,
      "'dis": 837,
      "b+ha": 838,
      "gc": 839,
      "bsa": 840,
      "sdig": 841,
      "char": 842,
      "mtshams": 843,
      "swA": 844,
      "g.yon": 845,
      "longs": 846,
      "dung": 847,
      "spyad": 848,
      "phe": 849,
      "dgos": 850,
      "slad": 851,
      "thog": 852,
      "ol": 853,
      "cag": 854,
      "ze": 855,
      "rdzas": 856,
      "ngu": 857,
      "r+": 858,
      "klu": 859,
      "brgyan": 860,
      "chang": 861,
      "bska": 862,
      "thun": 863,
      "'ongs": 864,
      "btsun": 865,
      "sdo": 866,
      "sgyu": 867,
      "sho": 868,
      "sngar": 869,
      "grong": 870,
      "hU~M": 871,
      "skyed": 872,
      "bag": 873,
      "blangs": 874,
      "nan": 875,
      "grags": 876,
      "ldog": 877,
      "ser": 878,
      "bud": 879,
      "drag": 880,
      "bslab": 881,
      "om": 882,
      "thal": 883,
      "cu": 884,
      "gser": 885,
      "bskal": 886,
      "phye": 887,
      "b+h+": 888,
      "thub": 889,
      "mnga": 890,
      "phreng": 891,
      "sbyong": 892,
      "'phe": 893,
      "thig": 894,
      "bram": 895,
      "yA": 896,
      "byams": 897,
      "r-i": 898,
      "dka'": 899,
      "thag": 900,
      "khyer": 901,
      "chud": 902,
      "gong": 903,
      "tag": 904,
      "dwa": 905,
      "pu": 906,
      "lce": 907,
      "rA": 908,
      "'grus": 909,
      "zab": 910,
      "gcod": 911,
      "nub": 912,
      "gtso": 913,
      "sarba": 914,
      "mtshu": 915,
      "dud": 916,
      "kye": 917,
      "en": 918,
      "btang": 919,
      "mtshungs": 920,
      "spong": 921,
      "phyed": 922,
      "rdul": 923,
      "mtshon": 924,
      "mdzes": 925,
      "gnyen": 926,
      "spang": 927,
      "srung": 928,
      "Sh+": 929,
      "lto": 930,
      "yig": 931,
      "brag": 932,
      "ling": 933,
      "phaT": 934,
      "sgrib": 935,
      "um": 936,
      "Sha": 937,
      "'tsho": 938,
      "skyon": 939,
      "dben": 940,
      "lugs": 941,
      "sgro": 942,
      "bku": 943,
      "myong": 944,
      "s+": 945,
      "gzhon": 946,
      "'khrul": 947,
      "sh": 948,
      "dk": 949,
      "rdzu": 950,
      "rlo": 951,
      "gzigs": 952,
      "bor": 953,
      "brtags": 954,
      "bri": 955,
      "tab": 956,
      "ngas": 957,
      "snod": 958,
      "sdang": 959,
      "si": 960,
      "'phel": 961,
      "gtor": 962,
      "long": 963,
      "gtogs": 964,
      "gzungs": 965,
      "mched": 966,
      "bci": 967,
      "bad": 968,
      "pra": 969,
      "sgom": 970,
      "btab": 971,
      "mdog": 972,
      "btags": 973,
      "rtags": 974,
      "'on": 975,
      "lca": 976,
      "tod": 977,
      "@#": 978,
      "bon": 979,
      "bcings": 980,
      "yum": 981,
      "skya": 982,
      "tshang": 983,
      "nA": 984,
      "bsgyur": 985,
      "sras": 986,
      "bstod": 987,
      "gdon": 988,
      "bkod": 989,
      "drang": 990,
      "'chang": 991,
      "gta": 992,
      "dun": 993,
      "Na": 994,
      "g+": 995,
      "dbyangs": 996,
      "ba'am": 997,
      "'phro": 998,
      "she": 999,
      "non": 1000,
      "lcags": 1001,
      "gtong": 1002,
      "dz+": 1003,
      "sprin": 1004,
      "ngang": 1005,
      "bsgoms": 1006,
      "ches": 1007,
      "zhen": 1008,
      "khong": 1009,
      "bsams": 1010,
      "bos": 1011,
      "srin": 1012,
      "myur": 1013,
      "bsrung": 1014,
      "slar": 1015,
      "zhabs": 1016,
      "bcos": 1017,
      "mad": 1018,
      "seng": 1019,
      "'gal": 1020,
      "sdom": 1021,
      "'bru": 1022,
      "khyed": 1023,
      "tA": 1024,
      "phun": 1025,
      "dong": 1026,
      "gtsug": 1027,
      "byad": 1028,
      "bsdu": 1029,
      "thug": 1030,
      "'dre": 1031,
      "'dres": 1032,
      "brlabs": 1033,
      "gtsang": 1034,
      "bus": 1035,
      "'ga'": 1036,
      "cher": 1037,
      "'jo": 1038,
      "nyin": 1039,
      "mdzod": 1040,
      "dpe": 1041,
      "mdun": 1042,
      "mA": 1043,
      "kA": 1044,
      "'chad": 1045,
      "'thob": 1046,
      "zhag": 1047,
      "gri": 1048,
      "sreg": 1049,
      "gros": 1050,
      "Ta": 1051,
      "khan": 1052,
      "'joms": 1053,
      "gshi": 1054,
      "lho": 1055,
      "bzlog": 1056,
      "yab": 1057,
      "phul": 1058,
      "thod": 1059,
      "dgod": 1060,
      "mkhan": 1061,
      "'gag": 1062,
      "lj": 1063,
      "spros": 1064,
      "bza'": 1065,
      "'dz": 1066,
      "tra": 1067,
      "mgon": 1068,
      "tshom": 1069,
      "bkur": 1070,
      "brtag": 1071,
      "gzhug": 1072,
      "glang": 1073,
      "dor": 1074,
      "nyer": 1075,
      "dmyi": 1076,
      "dmyigs": 1077,
      "mug": 1078,
      "mod": 1079,
      "'gog": 1080,
      "sel": 1081,
      "ki": 1082,
      "brtse": 1083,
      "gti": 1084,
      "gling": 1085,
      "'byin": 1086,
      "bcug": 1087,
      "thA": 1088,
      "d+hi": 1089,
      "rlom": 1090,
      "blang": 1091,
      "myal": 1092,
      "dmyal": 1093,
      "ngam": 1094,
      "red": 1095,
      "gshin": 1096,
      "mnga'": 1097,
      "y+": 1098,
      "tsi": 1099,
      "bskul": 1100,
      "phyung": 1101,
      "cung": 1102,
      "ltos": 1103,
      "'pho": 1104,
      "gam": 1105,
      "os": 1106,
      "pad": 1107,
      "gdab": 1108,
      "rga": 1109,
      "'bum": 1110,
      "'byed": 1111,
      "spos": 1112,
      "be": 1113,
      "snyan": 1114,
      "bgyis": 1115,
      "gdu": 1116,
      "ed": 1117,
      "dbul": 1118,
      "shog": 1119,
      "zhus": 1120,
      "'dab": 1121,
      "nyad": 1122,
      "'dren": 1123,
      "'da'": 1124,
      "ub": 1125,
      "yangs": 1126,
      "khrod": 1127,
      "rubs": 1128,
      "gzhal": 1129,
      "gdan": 1130,
      "'tha": 1131,
      "brtsa": 1132,
      "phur": 1133,
      "gtu": 1134,
      "rmi": 1135,
      "thung": 1136,
      "rI": 1137,
      "spu": 1138,
      "bsha": 1139,
      "tul": 1140,
      "gru": 1141,
      "gegs": 1142,
      "brtsams": 1143,
      "dar": 1144,
      "N+": 1145,
      "mun": 1146,
      "regs": 1147,
      "skyong": 1148,
      "hum": 1149,
      "lhun": 1150,
      "skal": 1151,
      "dur": 1152,
      "bam": 1153,
      "skyo": 1154,
      "mnyan": 1155,
      "brnyan": 1156,
      "dro": 1157,
      "lhung": 1158,
      "dra": 1159,
      "'khru": 1160,
      "gdung": 1161,
      "drung": 1162,
      "sred": 1163,
      "@#//": 1164,
      "bris": 1165,
      "gus": 1166,
      "h+a": 1167,
      "bsal": 1168,
      "gzhung": 1169,
      "dril": 1170,
      "bsngo": 1171,
      "kya": 1172,
      "stan": 1173,
      "khas": 1174,
      "snyad": 1175,
      "rlabs": 1176,
      "bltas": 1177,
      "bsgrubs": 1178,
      "'de": 1179,
      "bskyod": 1180,
      "gnang": 1181,
      "brda": 1182,
      "gnon": 1183,
      "sdud": 1184,
      "tshun": 1185,
      "+aa": 1186,
      "grogs": 1187,
      "dbugs": 1188,
      "skyabs": 1189,
      "sh+": 1190,
      "zho": 1191,
      "smad": 1192,
      "tshur": 1193,
      "ags": 1194,
      "phyis": 1195,
      "bgegs": 1196,
      "los": 1197,
      "b+hi": 1198,
      "sro": 1199,
      "gdags": 1200,
      "rmongs": 1201,
      "bA": 1202,
      "h+aum": 1203,
      "bsten": 1204,
      "sgrol": 1205,
      "lte": 1206,
      "rad": 1207,
      "'bab": 1208,
      "rims": 1209,
      "btsal": 1210,
      "byis": 1211,
      "yud": 1212,
      "byi": 1213,
      "mgu": 1214,
      "bkra": 1215,
      "yes": 1216,
      "shis": 1217,
      "gdug": 1218,
      "skur": 1219,
      "yos": 1220,
      "'jog": 1221,
      "ar": 1222,
      "grang": 1223,
      "pA": 1224,
      "cang": 1225,
      "Ni": 1226,
      "skra": 1227,
      "mdor": 1228,
      "dbyer": 1229,
      "'dogs": 1230,
      "phrin": 1231,
      "rdzob": 1232,
      "mong": 1233,
      "bsngags": 1234,
      "nar": 1235,
      "rungs": 1236,
      "gdul": 1237,
      "sbyangs": 1238,
      "pi": 1239,
      "'ba": 1240,
      "rtsal": 1241,
      "sgyur": 1242,
      "mnan": 1243,
      "'tshang": 1244,
      "dris": 1245,
      "sta": 1246,
      "srong": 1247,
      "mnyes": 1248,
      "ts+": 1249,
      "'debs": 1250,
      "bzhe": 1251,
      "bsnams": 1252,
      "yun": 1253,
      "rma": 1254,
      "dkon": 1255,
      "bshes": 1256,
      "'grel": 1257,
      "stegs": 1258,
      "dpung": 1259,
      "tshol": 1260,
      "ko": 1261,
      "ne": 1262,
      "+ra": 1263,
      "id": 1264,
      "h+aa": 1265,
      "bka": 1266,
      "b+h+yo": 1267,
      "rtsol": 1268,
      "klung": 1269,
      "brjid": 1270,
      "bal": 1271,
      "'gags": 1272,
      "nyal": 1273,
      "skar": 1274,
      "rtsod": 1275,
      "dgag": 1276,
      "zung": 1277,
      "'ba'": 1278,
      "shwa": 1279,
      "mtshar": 1280,
      "mg": 1281,
      "gnyer": 1282,
      "ke": 1283,
      "goms": 1284,
      "drangs": 1285,
      "zhags": 1286,
      "dgyes": 1287,
      "zil": 1288,
      "'os": 1289,
      "k+Sha": 1290,
      "dman": 1291,
      "swa": 1292,
      "deng": 1293,
      "sA": 1294,
      "'don": 1295,
      "gdong": 1296,
      "mda": 1297,
      "gA": 1298,
      "'char": 1299,
      "Da": 1300,
      "sbrul": 1301,
      "badz+ra": 1302,
      "logs": 1303,
      "gtam": 1304,
      "glu": 1305,
      "cir": 1306,
      "shAkya": 1307,
      "kau": 1308,
      "gdugs": 1309,
      "yugs": 1310,
      "mal": 1311,
      "mthi": 1312,
      "mor": 1313,
      "Sh+T": 1314,
      "bsags": 1315,
      "bod": 1316,
      "'khrugs": 1317,
      "brtul": 1318,
      "d+hA": 1319,
      "kro": 1320,
      "mj": 1321,
      "bzhir": 1322,
      "ugs": 1323,
      "'bu": 1324,
      "gsod": 1325,
      "ai": 1326,
      "sbyang": 1327,
      "sti": 1328,
      "brang": 1329,
      "ur": 1330,
      "gdams": 1331,
      "g+ha": 1332,
      "g.ye": 1333,
      "btsa": 1334,
      "bca'": 1335,
      "brkyang": 1336,
      "'dri": 1337,
      "t+ta": 1338,
      "dogs": 1339,
      "mthe": 1340,
      "bong": 1341,
      "'bad": 1342,
      "mda'": 1343,
      "nags": 1344,
      "dum": 1345,
      "ud": 1346,
      "gtad": 1347,
      "kyu": 1348,
      "tshod": 1349,
      "shas": 1350,
      "sgron": 1351,
      "brlab": 1352,
      "shugs": 1353,
      "bcing": 1354,
      "'khod": 1355,
      "gle": 1356,
      "zos": 1357,
      "ding": 1358,
      "rnga": 1359,
      "khrus": 1360,
      "ebs": 1361,
      "gte": 1362,
      "'cha": 1363,
      "'bring": 1364,
      "mdzub": 1365,
      "bdug": 1366,
      "bcud": 1367,
      "gter": 1368,
      "btu": 1369,
      "bzed": 1370,
      "dpas": 1371,
      "maH": 1372,
      "stag": 1373,
      "skrag": 1374,
      "dbyibs": 1375,
      "bshags": 1376,
      "tshon": 1377,
      "rabs": 1378,
      "bsad": 1379,
      "pan": 1380,
      "brgyud": 1381,
      "gdo": 1382,
      "'bul": 1383,
      "tshong": 1384,
      "phrad": 1385,
      "ljang": 1386,
      "chod": 1387,
      "yaH": 1388,
      "'tshe": 1389,
      "rbad": 1390,
      "man+": 1391,
      "lon": 1392,
      "klong": 1393,
      "phal": 1394,
      "'khrug": 1395,
      "dangs": 1396,
      "rgod": 1397,
      "'bebs": 1398,
      "phat": 1399,
      "yal": 1400,
      "byon": 1401,
      "nur": 1402,
      "dal": 1403,
      "sts": 1404,
      "'grib": 1405,
      "khe": 1406,
      "bgro": 1407,
      "khrig": 1408,
      "'thung": 1409,
      "~m": 1410,
      "gleng": 1411,
      "'phrog": 1412,
      "dbab": 1413,
      "thang": 1414,
      "nyung": 1415,
      "mgrin": 1416,
      "ril": 1417,
      "'thad": 1418,
      "btung": 1419,
      "dbyung": 1420,
      "y+tsa": 1421,
      "g.yos": 1422,
      "spobs": 1423,
      "yungs": 1424,
      "gas": 1425,
      "sbo": 1426,
      "r+ya": 1427,
      "byug": 1428,
      "glo": 1429,
      "khung": 1430,
      "an": 1431,
      "'brang": 1432,
      "tshim": 1433,
      "'phang": 1434,
      "sngo": 1435,
      "thim": 1436,
      "gtum": 1437,
      "brtsegs": 1438,
      "gshed": 1439,
      "TA": 1440,
      "pham": 1441,
      "tri": 1442,
      "rgyur": 1443,
      "khar": 1444,
      "sbrang": 1445,
      "rgyus": 1446,
      "blon": 1447,
      "sbom": 1448,
      "dgug": 1449,
      "'dzam": 1450,
      "k+S": 1451,
      "dpyad": 1452,
      "ldang": 1453,
      "'thun": 1454,
      "sgras": 1455,
      "lhags": 1456,
      "gnad": 1457,
      "bgrod": 1458,
      "'bral": 1459,
      "dma": 1460,
      "dz+n": 1461,
      "+b+": 1462,
      "dgon": 1463,
      "ster": 1464,
      "gcad": 1465,
      "dpyod": 1466,
      "rdzun": 1467,
      "blugs": 1468,
      "bkang": 1469,
      "rgyab": 1470,
      "rdzi": 1471,
      "dA": 1472,
      "ngul": 1473,
      "pags": 1474,
      "stsol": 1475,
      "ros": 1476,
      "'thab": 1477,
      "rjod": 1478,
      "sgrogs": 1479,
      "khros": 1480,
      "kan": 1481,
      "rtsom": 1482,
      "chog": 1483,
      "'ching": 1484,
      "rak+": 1485,
      "tsan+": 1486,
      "d+h+": 1487,
      "rmad": 1488,
      "dzi": 1489,
      "dwags": 1490,
      "phab": 1491,
      "bgos": 1492,
      "ton": 1493,
      "tshan": 1494,
      "chus": 1495,
      "rtsibs": 1496,
      "phag": 1497,
      "m+": 1498,
      "bsreg": 1499,
      "lde": 1500,
      "babs": 1501,
      "bran": 1502,
      "il": 1503,
      "zur": 1504,
      "blu": 1505,
      "bsgral": 1506,
      "'dor": 1507,
      "bsti": 1508,
      "tshes": 1509,
      "dngul": 1510,
      "tshar": 1511,
      "bkag": 1512,
      "lA": 1513,
      "bzhis": 1514,
      "bzhes": 1515,
      "rat+": 1516,
      "gtang": 1517,
      "mam": 1518,
      "lding": 1519,
      "d+d+ha": 1520,
      "dbyar": 1521,
      "gnyid": 1522,
      "sra": 1523,
      "ts+tsha": 1524,
      "tam": 1525,
      "rgal": 1526,
      "til": 1527,
      "hu~m": 1528,
      "nI": 1529,
      "tsit+ta": 1530,
      "zhim": 1531,
      "khru": 1532,
      "bzhed": 1533,
      "bsregs": 1534,
      "bkug": 1535,
      "ltas": 1536,
      "mngal": 1537,
      "zug": 1538,
      "bsgrags": 1539,
      "sar+b+": 1540,
      "b+hA": 1541,
      "rat+na": 1542,
      "b+h+yaH": 1543,
      "kra": 1544,
      "saM": 1545,
      "sat": 1546,
      "d+ya": 1547,
      "R+": 1548,
      "lci": 1549,
      "dgas": 1550,
      "rwa": 1551,
      "lngas": 1552,
      "shel": 1553,
      "u0": 1554,
      "\\u0": 1555,
      "\\u0f": 1556,
      "mthus": 1557,
      "mche": 1558,
      "chas": 1559,
      "rgan": 1560,
      "sar+b+ba": 1561,
      "'khyi": 1562,
      "dz+nyA": 1563,
      "skom": 1564,
      "bgrang": 1565,
      "rgol": 1566,
      "rdza": 1567,
      "klog": 1568,
      "bzad": 1569,
      "brnyes": 1570,
      "igs": 1571,
      "myos": 1572,
      "d+he": 1573,
      "gud": 1574,
      "shed": 1575,
      "lum": 1576,
      "'khyil": 1577,
      "dz+wa": 1578,
      "mjug": 1579,
      "gol": 1580,
      "skyob": 1581,
      "bsil": 1582,
      "<D": 1583,
      "C_": 1584,
      "OC_": 1585,
      "RT": 1586,
      "STA": 1587,
      "<DOC_": 1588,
      "RT>": 1589,
      "START>": 1590,
      "dbyug": 1591,
      "sgor": 1592,
      "khab": 1593,
      "nyis": 1594,
      "g.yogs": 1595,
      "phata": 1596,
      "gza'": 1597,
      "AH": 1598,
      "bu'am": 1599,
      "'tho": 1600,
      "gdod": 1601,
      "dregs": 1602,
      "gyen": 1603,
      "'gyed": 1604,
      "bai": 1605,
      "dams": 1606,
      "ut+": 1607,
      "mthing": 1608,
      "tor": 1609,
      "'phros": 1610,
      "bsdams": 1611,
      "ong": 1612,
      "rtsub": 1613,
      "sbas": 1614,
      "yog": 1615,
      "spyir": 1616,
      "kr-i": 1617,
      "yam": 1618,
      "gsad": 1619,
      "stod": 1620,
      "d+hu": 1621,
      "'god": 1622,
      "mdangs": 1623,
      "n+d+ha": 1624,
      "phran": 1625,
      "gung": 1626,
      "drod": 1627,
      "chag": 1628,
      "sad": 1629,
      "mkhar": 1630,
      "g.yog": 1631,
      "gzhol": 1632,
      "thab": 1633,
      "'phos": 1634,
      "rjed": 1635,
      "gau": 1636,
      "yol": 1637,
      "brdzun": 1638,
      "'dzum": 1639,
      "khyams": 1640,
      "sdong": 1641,
      "N+Da": 1642,
      "rtswa": 1643,
      "el": 1644,
      "zlum": 1645,
      "N+D": 1646,
      "bcur": 1647,
      "bzhengs": 1648,
      "sgrog": 1649,
      "'gyod": 1650,
      "gci": 1651,
      "myig": 1652,
      "srang": 1653,
      "'gram": 1654,
      "khrid": 1655,
      "ut+pa": 1656,
      "byugs": 1657,
      "tshugs": 1658,
      "zan": 1659,
      "rengs": 1660,
      "lngar": 1661,
      "sus": 1662,
      "skud": 1663,
      "NA": 1664,
      "kI": 1665,
      "kham": 1666,
      "dzA": 1667,
      "smod": 1668,
      "lad": 1669,
      "g.yeng": 1670,
      "rkun": 1671,
      "tig": 1672,
      "phug": 1673,
      "brtsam": 1674,
      "sring": 1675,
      "s+t+": 1676,
      "hri": 1677,
      "mkhris": 1678,
      "gan": 1679,
      "'khyud": 1680,
      "zhon": 1681,
      "tI": 1682,
      "hI": 1683,
      "haM": 1684,
      "o~M": 1685,
      "gting": 1686,
      "ribs": 1687,
      "s+ya": 1688,
      "mes": 1689,
      "zang": 1690,
      "eg": 1691,
      "b+hu": 1692,
      "cod": 1693,
      "'dud": 1694,
      "gsar": 1695,
      "dga": 1696,
      "hrI": 1697,
      "swAhA": 1698,
      "bro": 1699,
      "yar": 1700,
      "T+": 1701,
      "lhar": 1702,
      "khur": 1703,
      "zlog": 1704,
      "zangs": 1705,
      "bgo": 1706,
      "gur": 1707,
      "bsrungs": 1708,
      "mdza'": 1709,
      "mthil": 1710,
      "deg": 1711,
      "spel": 1712,
      "D+": 1713,
      "r+ai": 1714,
      "gcan": 1715,
      "sham": 1716,
      "gnag": 1717,
      "bskol": 1718,
      "sbu": 1719,
      "sun": 1720,
      "skyil": 1721,
      "'thu": 1722,
      "skor": 1723,
      "gzir": 1724,
      "g.yul": 1725,
      "lar": 1726,
      "zlos": 1727,
      "lhas": 1728,
      "bsgribs": 1729,
      "ljon": 1730,
      "ngur": 1731,
      "btsas": 1732,
      "thad": 1733,
      "pU": 1734,
      "ul": 1735,
      "tsan+dan": 1736,
      "pus": 1737,
      "snum": 1738,
      "gra": 1739,
      "gsan": 1740,
      "tsan": 1741,
      "skam": 1742,
      "dmag": 1743,
      "brjed": 1744,
      "'dzag": 1745,
      "ske": 1746,
      "snam": 1747,
      "btsugs": 1748,
      "ban": 1749,
      "dkris": 1750,
      "bshams": 1751,
      "sil": 1752,
      "bsres": 1753,
      "btud": 1754,
      "slu": 1755,
      "tad+ya": 1756,
      "glog": 1757,
      "mchu": 1758,
      "n+ya": 1759,
      "ongs": 1760,
      "gir": 1761,
      "dags": 1762,
      "p+": 1763,
      "rngu": 1764,
      "bslang": 1765,
      "'grogs": 1766,
      "bzla": 1767,
      "bkru": 1768,
      "phud": 1769,
      "l+": 1770,
      "bI": 1771,
      "krung": 1772,
      "dzah": 1773,
      "n+ta": 1774,
      "bskrad": 1775,
      "zhum": 1776,
      "btsan": 1777,
      "phog": 1778,
      "rlob": 1779,
      "gzer": 1780,
      "gyon": 1781,
      "ngal": 1782,
      "dzaH": 1783,
      "car": 1784,
      "rgyang": 1785,
      "ng+": 1786,
      "yaM": 1787,
      "rdzing": 1788,
      "'dam": 1789,
      "w+aa": 1790,
      "'phya": 1791,
      "sma": 1792,
      "man+ta": 1793,
      "\\u0f8": 1794,
      "myu": 1795,
      "bshang": 1796,
      "'chal": 1797,
      "snyi": 1798,
      "'phye": 1799,
      "shul": 1800,
      "bslabs": 1801,
      "hu~M": 1802,
      "khyud": 1803,
      "dw": 1804,
      "bud+d+ha": 1805,
      "rak+ta": 1806,
      "mdud": 1807,
      "khyu": 1808,
      "///": 1809,
      "pad+mo": 1810,
      "'gugs": 1811,
      "Sh+Tha": 1812,
      "Sh+Ta": 1813,
      "khongs": 1814,
      "gzhom": 1815,
      "zing": 1816,
      "dpral": 1817,
      "gtugs": 1818,
      "gnam": 1819,
      "phongs": 1820,
      "gang+": 1821,
      "kri": 1822,
      "lug": 1823,
      "nyas": 1824,
      "'phrin": 1825,
      "rno": 1826,
      "baM": 1827,
      "sos": 1828,
      "'phen": 1829,
      "raM": 1830,
      "bskang": 1831,
      "rtsis": 1832,
      "Shi": 1833,
      "g+h+": 1834,
      "chan": 1835,
      "sgeg": 1836,
      "mdung": 1837,
      "bton": 1838,
      "hrIH": 1839,
      "'thor": 1840,
      "rnon": 1841,
      "glegs": 1842,
      "au": 1843,
      "rings": 1844,
      "gzhir": 1845,
      "dgrol": 1846,
      "karma": 1847,
      "tsA": 1848,
      "b+han": 1849,
      "ogs": 1850,
      "smig": 1851,
      "ded": 1852,
      "zhib": 1853,
      "stu": 1854,
      "spras": 1855,
      "\\u0f85": 1856,
      "sbal": 1857,
      "bzangs": 1858,
      "byos": 1859,
      "shrI": 1860,
      "son": 1861,
      "sen": 1862,
      "ngar": 1863,
      "naM": 1864,
      "'ur": 1865,
      "sprad": 1866,
      "engs": 1867,
      "bsho": 1868,
      "gya": 1869,
      "gr-i": 1870,
      "satwA": 1871,
      "po'am": 1872,
      "pe": 1873,
      "bzho": 1874,
      "'thungs": 1875,
      "bra": 1876,
      "thur": 1877,
      "sba": 1878,
      "brlag": 1879,
      "'tsha": 1880,
      "mngar": 1881,
      "khor": 1882,
      "tsu": 1883,
      "btul": 1884,
      "cog": 1885,
      "bcang": 1886,
      "hud": 1887,
      "stabs": 1888,
      "'dong": 1889,
      "chab": 1890,
      "d+harma": 1891,
      "bcol": 1892,
      "byings": 1893,
      "blos": 1894,
      "tshwa": 1895,
      "bshi": 1896,
      "shos": 1897,
      "gang+gA": 1898,
      "myang": 1899,
      "nol": 1900,
      "bskus": 1901,
      "bzhad": 1902,
      "'gul": 1903,
      "srungs": 1904,
      "dbyig": 1905,
      "rugs": 1906,
      "gdungs": 1907,
      "rnying": 1908,
      "shan": 1909,
      "tse": 1910,
      "dengs": 1911,
      "gzar": 1912,
      "s+w+aa": 1913,
      "phas": 1914,
      "gcer": 1915,
      "brnyas": 1916,
      "bzo": 1917,
      "blud": 1918,
      "grib": 1919,
      "brdeg": 1920,
      "rngam": 1921,
      "snye": 1922,
      "tsher": 1923,
      "ljongs": 1924,
      "mgul": 1925,
      "gram": 1926,
      "sang": 1927,
      "rU": 1928,
      "bstim": 1929,
      "ger": 1930,
      "t+ma": 1931,
      "bang": 1932,
      "bsngos": 1933,
      "ning": 1934,
      "mnar": 1935,
      "g.yang": 1936,
      "Ti": 1937,
      "khA": 1938,
      "t+ya": 1939,
      "byol": 1940,
      "skul": 1941,
      "dpar": 1942,
      "chom": 1943,
      "hoH": 1944,
      "'khri": 1945,
      "kog": 1946,
      "nom": 1947,
      "bsgreng": 1948,
      "d+d+hi": 1949,
      "rum": 1950,
      "lkog": 1951,
      "'phangs": 1952,
      "dma'": 1953,
      "gsog": 1954,
      "bcus": 1955,
      "nAM": 1956,
      "mthon": 1957,
      "bshig": 1958,
      "mr-i": 1959,
      "bkrus": 1960,
      "dI": 1961,
      "skyi": 1962,
      "gsho": 1963,
      "sdod": 1964,
      "bzhon": 1965,
      "ban+d+ha": 1966,
      "'dze": 1967,
      "brgyar": 1968,
      "-I": 1969,
      "waM": 1970,
      "maud": 1971,
      "rnyog": 1972,
      "cis": 1973,
      "dzu": 1974,
      "b+hU": 1975,
      "drin": 1976,
      "shiny+tsa": 1977,
      "rjer": 1978,
      "gsos": 1979,
      "gdangs": 1980,
      "rku": 1981,
      "phro": 1982,
      "bshos": 1983,
      "bsnu": 1984,
      "'gyu": 1985,
      "rgyar": 1986,
      "gces": 1987,
      "gug": 1988,
      "spyang": 1989,
      "@##": 1990,
      "gul": 1991,
      "lpags": 1992,
      "tshil": 1993,
      "mjed": 1994,
      "dgang": 1995,
      "gtsigs": 1996,
      "wang": 1997,
      "'gror": 1998,
      "bsnun": 1999,
      "khra": 2000,
      "bkres": 2001,
      "shri": 2002,
      "bsnol": 2003,
      "'a": 2004,
      "lor": 2005,
      "rtsig": 2006,
      "mying": 2007,
      "brgyal": 2008,
      "bre": 2009,
      "'brug": 2010,
      "d+ra": 2011,
      "ar+": 2012,
      "bkram": 2013,
      "sprod": 2014,
      "gson": 2015,
      "shI": 2016,
      "tshabs": 2017,
      "Sh+ya": 2018,
      "pur": 2019,
      "klas": 2020,
      "gad": 2021,
      "gnyug": 2022,
      "grwa": 2023,
      "phor": 2024,
      "tangs": 2025,
      "sI": 2026,
      "ma'am": 2027,
      "rgyug": 2028,
      "mgur": 2029,
      "sbubs": 2030,
      "kaM": 2031,
      "brna": 2032,
      "men": 2033,
      "mtshor": 2034,
      "NI": 2035,
      "sran": 2036,
      "nod": 2037,
      "brgal": 2038,
      "mir": 2039,
      "sU": 2040,
      "gon": 2041,
      "'bri": 2042,
      "brta": 2043,
      "hoh": 2044,
      "dungs": 2045,
      "rgyags": 2046,
      "+ga": 2047,
      "stangs": 2048,
      "kaH": 2049,
      "mgyogs": 2050,
      "gding": 2051,
      "ham": 2052,
      "h+ya": 2053,
      "k+Shi": 2054,
      "mangs": 2055,
      "sdigs": 2056,
      "phebs": 2057,
      "stang": 2058,
      "brtsi": 2059,
      "satwa": 2060,
      "tiSh+Tha": 2061,
      "'phyang": 2062,
      "lham": 2063,
      "bting": 2064,
      "smre": 2065,
      "shal": 2066,
      "rak+sha": 2067,
      "'chos": 2068,
      "y+dza": 2069,
      "thum": 2070,
      "glags": 2071,
      "sbar": 2072,
      "phod": 2073,
      "mer": 2074,
      "bskyab": 2075,
      "bsnye": 2076,
      "trA": 2077,
      "mugs": 2078,
      "aM": 2079,
      "phar": 2080,
      "rgas": 2081,
      "'bod": 2082,
      "taM": 2083,
      "+b+ha": 2084,
      "mi'am": 2085,
      "kam": 2086,
      "ngoms": 2087,
      "phyugs": 2088,
      "'dzi": 2089,
      "seng+": 2090,
      "ungs": 2091,
      "wi": 2092,
      "gla": 2093,
      "grag": 2094,
      "dngas": 2095,
      "para": 2096,
      "mon": 2097,
      "tsakra": 2098,
      "gcin": 2099,
      "ShA": 2100,
      "sid+d+hi": 2101,
      "'chags": 2102,
      "twa": 2103,
      "'byams": 2104,
      "DA": 2105,
      "ther": 2106,
      "Ur+ya": 2107,
      "nos": 2108,
      "stug": 2109,
      "jo": 2110,
      "yengs": 2111,
      "t+ra": 2112,
      "'brum": 2113,
      "blun": 2114,
      "n+da": 2115,
      "bse": 2116,
      "brdungs": 2117,
      "'phral": 2118,
      "ut+pal": 2119,
      "'greng": 2120,
      "brdung": 2121,
      "gangs": 2122,
      "b+h+yA": 2123,
      "spun": 2124,
      "N+Di": 2125,
      "khengs": 2126,
      "gdol": 2127,
      "'tshong": 2128,
      "laM": 2129,
      "bying": 2130,
      "klad": 2131,
      "lhor": 2132,
      "Ar+ya": 2133,
      "m+aa": 2134,
      "bsu": 2135,
      "bcangs": 2136,
      "rton": 2137,
      "zhog": 2138,
      "k+sha": 2139,
      "bskos": 2140,
      "ltag": 2141,
      "shun": 2142,
      "khyung": 2143,
      "'dar": 2144,
      "rak+Sha": 2145,
      "gdengs": 2146,
      "gzhig": 2147,
      "seng+ge": 2148,
      "smyung": 2149,
      "'chag": 2150,
      "thul": 2151,
      "bder": 2152,
      "mdze": 2153,
      "we": 2154,
      "br-i": 2155,
      "chur": 2156,
      "gab": 2157,
      "gum": 2158,
      "raH": 2159,
      "g+hu": 2160,
      "ging": 2161,
      "T+wA": 2162,
      "dwangs": 2163,
      "dmu": 2164,
      "+d+ha": 2165,
      "rlon": 2166,
      "bcwa": 2167,
      "bsta": 2168,
      "snyigs": 2169,
      "run": 2170,
      "dral": 2171,
      "bsrel": 2172,
      "bsgos": 2173,
      "kas": 2174,
      "bskum": 2175,
      "tAM": 2176,
      "thebs": 2177,
      "wam": 2178,
      "gron": 2179,
      "skyur": 2180,
      "nyag": 2181,
      "gyad": 2182,
      "mna": 2183,
      "ljags": 2184,
      "bcabs": 2185,
      "'gengs": 2186,
      "rmugs": 2187,
      "bkrol": 2188,
      "leb": 2189,
      "sh+r+ai": 2190,
      "zor": 2191,
      "bskyang": 2192,
      "sten": 2193,
      "d+hU": 2194,
      "gzhes": 2195,
      "'khril": 2196,
      "dkrugs": 2197,
      "tshegs": 2198,
      "a+": 2199,
      "pany+tsa": 2200,
      "'gros": 2201,
      "smros": 2202,
      "lhur": 2203,
      "mgron": 2204,
      "rdal": 2205,
      "dzam": 2206,
      "thong": 2207,
      "sa~M": 2208,
      "ny+tsa": 2209,
      "b+he": 2210,
      "khebs": 2211,
      "srad": 2212,
      "lc": 2213,
      "gr-ih+": 2214,
      "taH": 2215,
      "dka": 2216,
      "'jal": 2217,
      "'dris": 2218,
      "dz+nya": 2219,
      "rtul": 2220,
      "tsom": 2221,
      "bud+": 2222,
      "maM": 2223,
      "con": 2224,
      "'phar": 2225,
      "d+har": 2226,
      "thon": 2227,
      "mahA": 2228,
      "+aah": 2229,
      "mchil": 2230,
      "btub": 2231,
      "yel": 2232,
      "byam": 2233,
      "sme": 2234,
      "thor": 2235,
      "dr-i": 2236,
      "som": 2237,
      "bte": 2238,
      "ngor": 2239,
      "bsang": 2240,
      "khi": 2241,
      "shang": 2242,
      "sol": 2243,
      "bsnyad": 2244,
      "y+aa": 2245,
      "ges": 2246,
      "+u": 2247,
      "At+ma": 2248,
      "zhun": 2249,
      "iT": 2250,
      "r+aa": 2251,
      "bslad": 2252,
      "aam": 2253,
      "rba": 2254,
      "brla": 2255,
      "lI": 2256,
      "'ju": 2257,
      "thigs": 2258,
      "'grol": 2259,
      "mur": 2260,
      "bslangs": 2261,
      "'byam": 2262,
      "bslus": 2263,
      "tshab": 2264,
      "gom": 2265,
      "g.yung": 2266,
      "thibs": 2267,
      "dgar": 2268,
      "man+da": 2269,
      "shag": 2270,
      "n+ti": 2271,
      "mnos": 2272,
      "'khyams": 2273,
      "spre": 2274,
      "sh+aa": 2275,
      "sod": 2276,
      "gzan": 2277,
      "'khya": 2278,
      "rer": 2279,
      "bsko": 2280,
      "rod": 2281,
      "smug": 2282,
      "dub": 2283,
      "dbyen": 2284,
      "brtsigs": 2285,
      "gnyan": 2286,
      "l-i": 2287,
      "gsher": 2288,
      "bkye": 2289,
      "bzhud": 2290,
      "mthol": 2291,
      "Tha": 2292,
      "sbed": 2293,
      "th+aa": 2294,
      "zhan": 2295,
      "shud": 2296,
      "bdar": 2297,
      "bltar": 2298,
      "'thon": 2299,
      "D+ha": 2300,
      "gshog": 2301,
      "aH": 2302,
      "khaM": 2303,
      "g.ya": 2304,
      "btsos": 2305,
      "gying": 2306,
      "gda'": 2307,
      "'brangs": 2308,
      "'ug": 2309,
      "pri": 2310,
      "rngo": 2311,
      "gsor": 2312,
      "+e": 2313,
      "dze": 2314,
      "chem": 2315,
      "g.yengs": 2316,
      "'dom": 2317,
      "ba~M": 2318,
      "'khrig": 2319,
      "khrel": 2320,
      "dpyid": 2321,
      "chibs": 2322,
      "ldeng": 2323,
      "rtsad": 2324,
      "stor": 2325,
      "dpes": 2326,
      "'drar": 2327,
      "bsnan": 2328,
      "bslu": 2329,
      "s+pha": 2330,
      "khram": 2331,
      "btso": 2332,
      "mchan": 2333,
      "kar+": 2334,
      "gtod": 2335,
      "mra": 2336,
      "phob": 2337,
      "maN+D": 2338,
      "Ne": 2339,
      "k+ai": 2340,
      "dmangs": 2341,
      "paM": 2342,
      "gzod": 2343,
      "brku": 2344,
      "nA~M": 2345,
      "zungs": 2346,
      "mI": 2347,
      "gzhog": 2348,
      "a+om": 2349,
      "sbra": 2350,
      "s+pho": 2351,
      "skyug": 2352,
      "snyems": 2353,
      "mis": 2354,
      "rdor": 2355,
      "ums": 2356,
      "maN+Dal": 2357,
      "phrogs": 2358,
      "bsdi": 2359,
      "rked": 2360,
      "'dzud": 2361,
      "grul": 2362,
      "bdog": 2363,
      "smyo": 2364,
      "'phrogs": 2365,
      "ngus": 2366,
      "gnan": 2367,
      "ko\\u0f85": 2368,
      "in+": 2369,
      "kh+aa": 2370,
      "shud+": 2371,
      "'khrungs": 2372,
      "daM": 2373,
      "dgun": 2374,
      "'gying": 2375,
      "twA": 2376,
      "shad": 2377,
      "'gran": 2378,
      "bkab": 2379,
      "bsham": 2380,
      "gror": 2381,
      "bregs": 2382,
      "skong": 2383,
      "eb": 2384,
      "spar": 2385,
      "ler": 2386,
      "mdos": 2387,
      "'cho": 2388,
      "g.yu": 2389,
      "T+wAM": 2390,
      "ha~M": 2391,
      "dgur": 2392,
      "hr-i": 2393,
      "bklag": 2394,
      "'bros": 2395,
      "bteg": 2396,
      "mngag": 2397,
      "mkho": 2398,
      "gtams": 2399,
      "tun": 2400,
      "k+she": 2401,
      "bstabs": 2402,
      "dpog": 2403,
      "bsdigs": 2404,
      "gdeng": 2405,
      "zheng": 2406,
      "mnyen": 2407,
      "k+Sh+": 2408,
      "shug": 2409,
      "k+aa": 2410,
      "trag": 2411,
      "bung": 2412,
      "khug": 2413,
      "+da": 2414,
      "je": 2415,
      "gzo": 2416,
      "zar": 2417,
      "r-I": 2418,
      "sder": 2419,
      "rtsir": 2420,
      "bklags": 2421,
      "brtsal": 2422,
      "phub": 2423,
      "khungs": 2424,
      "She": 2425,
      "d+h+ya": 2426,
      "shU": 2427,
      "lasa": 2428,
      "m+ma": 2429,
      "chun": 2430,
      "R+Y": 2431,
      "pa'i": 2432,
      "'tshams": 2433,
      "ir": 2434,
      "rkyal": 2435,
      "mU": 2436,
      "byA": 2437,
      "shigs": 2438,
      "Shu": 2439,
      "'phrod": 2440,
      "'tsham": 2441,
      "d+har+": 2442,
      "grog": 2443,
      "naH": 2444,
      "chug": 2445,
      "sa'am": 2446,
      "sog": 2447,
      "shor": 2448,
      "btus": 2449,
      "mri": 2450,
      "sgrar": 2451,
      "'ja'": 2452,
      "rkyang": 2453,
      "bug": 2454,
      "rdol": 2455,
      "smrig": 2456,
      "zhe'am": 2457,
      "lud": 2458,
      "lku": 2459,
      "nged": 2460,
      "gtun": 2461,
      "Sh+Ti": 2462,
      "bg": 2463,
      "tham": 2464,
      "stengs": 2465,
      "kor": 2466,
      "'phreng": 2467,
      "ts+tshi": 2468,
      "b+ho": 2469,
      "gdub": 2470,
      "Di": 2471,
      "btson": 2472,
      "b+han+d+ha": 2473,
      "bzhina": 2474,
      "tso": 2475,
      "dkrol": 2476,
      "dz+ha": 2477,
      "bsngor": 2478,
      "'jim": 2479,
      "mtshe": 2480,
      "zhar": 2481,
      "co": 2482,
      "'phyar": 2483,
      "stongs": 2484,
      "kang": 2485,
      "tsaN+Da": 2486,
      "'cha'": 2487,
      "skyid": 2488,
      "ban+": 2489,
      "bsdo": 2490,
      "rngub": 2491,
      "badzrA": 2492,
      "bres": 2493,
      "khom": 2494,
      "bcag": 2495,
      "tshos": 2496,
      "smyig": 2497,
      "keng": 2498,
      "bdugs": 2499,
      "maHsa": 2500,
      "skem": 2501,
      "'phrad": 2502,
      "kos": 2503,
      "k+Shu": 2504,
      "Sh+TA": 2505,
      "gr-ih+Na": 2506,
      "mau": 2507,
      "b+h+yAM": 2508,
      "sbrel": 2509,
      "prA": 2510,
      "'khu": 2511,
      "'brog": 2512,
      "maHsarba": 2513,
      "brkus": 2514,
      "ren": 2515,
      "tram": 2516,
      "nyungs": 2517,
      "tan+": 2518,
      "brgyas": 2519,
      "mo'am": 2520,
      "bud+d+hA": 2521,
      "spring": 2522,
      "skrod": 2523,
      "d+ho": 2524,
      "gzas": 2525,
      "gats+tsha": 2526,
      "many+": 2527,
      "pad+mar": 2528,
      "rtsed": 2529,
      "(]": 2530,
      "nyil": 2531,
      "'go": 2532,
      "dmod": 2533,
      "bros": 2534,
      "bsdam": 2535,
      "nongs": 2536,
      "spungs": 2537,
      "glen": 2538,
      "bsangs": 2539,
      "[)": 2540,
      "srab": 2541,
      "rgud": 2542,
      "ag+": 2543,
      "g+hA": 2544,
      "'gyel": 2545,
      "nir": 2546,
      "gor": 2547,
      "lhang": 2548,
      "dgung": 2549,
      "d+yA": 2550,
      "yak+Sha": 2551,
      "g.yem": 2552,
      "brdar": 2553,
      "lteng": 2554,
      "rtser": 2555,
      "Shiny+tsa": 2556,
      "tre": 2557,
      "dUr+ya": 2558,
      "phral": 2559,
      "bsdad": 2560,
      "them": 2561,
      "gtsor": 2562,
      "dngang": 2563,
      "khog": 2564,
      "'tshol": 2565,
      "pasa": 2566,
      "gzengs": 2567,
      "skus": 2568,
      "zong": 2569,
      "'khrigs": 2570,
      "yus": 2571,
      "btsir": 2572,
      "sh+ya": 2573,
      "dugs": 2574,
      "puSh+": 2575,
      "ling+ga": 2576,
      "'khar": 2577,
      "badga": 2578,
      "R+Sha": 2579,
      "rnag": 2580,
      "gnya": 2581,
      "'chab": 2582,
      "pang": 2583,
      "stir": 2584,
      "t+tA": 2585,
      "Te": 2586,
      "s+yA": 2587,
      "b+h+ya": 2588,
      "h+ma": 2589,
      "+bu": 2590,
      "dpang": 2591,
      "kyus": 2592,
      "gyings": 2593,
      "tshags": 2594,
      "ldem": 2595,
      "skas": 2596,
      "'gas": 2597,
      "s+t+waM": 2598,
      "'phur": 2599,
      "stsogs": 2600,
      "'bangs": 2601,
      "hom": 2602,
      "gardza": 2603,
      "lcug": 2604,
      "lcang": 2605,
      "skams": 2606,
      "smyon": 2607,
      "rdzus": 2608,
      "brda'": 2609,
      "gsob": 2610,
      "ny+": 2611,
      "many+dzu": 2612,
      "[)]": 2613,
      "glan": 2614,
      "rkan": 2615,
      "gre": 2616,
      "skyel": 2617,
      "basnga": 2618,
      "d+harmA": 2619,
      "sh+aakya": 2620,
      "k+ShA": 2621,
      ",]": 2622,
      "chig": 2623,
      "[,]": 2624,
      "dbal": 2625,
      "yak+sha": 2626,
      "Ms": 2627,
      "blag": 2628,
      "skyugs": 2629,
      "lcam": 2630,
      "brkos": 2631,
      "[(]": 2632,
      "khol": 2633,
      "gasa": 2634,
      "mjal": 2635,
      "meda": 2636,
      "in+d+ra": 2637,
      "dkrug": 2638,
      "ron": 2639,
      "k+She": 2640,
      "bru": 2641,
      "badzre": 2642,
      "shod": 2643,
      "ngangs": 2644,
      "h+r+ai": 2645,
      "srul": 2646,
      "tshems": 2647,
      "lkugs": 2648,
      "tr-i": 2649,
      "har": 2650,
      "'khob": 2651,
      "dru": 2652,
      "yanga": 2653,
      "gzhang": 2654,
      "R+ya": 2655,
      "'degs": 2656,
      "dgram": 2657,
      "gral": 2658,
      "dre": 2659,
      "bzhu": 2660,
      "Tu": 2661,
      "khwa": 2662,
      "s+t+wam": 2663,
      "spongs": 2664,
      "btsud": 2665,
      "khron": 2666,
      "Nu": 2667,
      "thags": 2668,
      "laT": 2669,
      "chings": 2670,
      "drA": 2671,
      "ra~M": 2672,
      "bsgyings": 2673,
      "brdal": 2674,
      "d+r+": 2675,
      "d+h+wa": 2676,
      "rde": 2677,
      "brnab": 2678,
      "sug": 2679,
      "san": 2680,
      "s+ho": 2681,
      "bsre": 2682,
      "big+h+": 2683,
      "ldeb": 2684,
      "l+r-i": 2685,
      "ldi": 2686,
      "'tshed": 2687,
      "mh": 2688,
      "lda": 2689,
      "।।": 2690,
      "mthas": 2691,
      "ngasu": 2692,
      "brkam": 2693,
      "nr-i": 2694,
      "mtshang": 2695,
      "dz+ny+aa": 2696,
      "in": 2697,
      "sid": 2698,
      "bgrad": 2699,
      "snyun": 2700,
      "tol": 2701,
      "'bigs": 2702,
      "mye": 2703,
      "aum": 2704,
      "tsog": 2705,
      "NAM": 2706,
      "radwa": 2707,
      "ganga": 2708,
      "'dril": 2709,
      "rdeg": 2710,
      "bskyal": 2711,
      "sgoms": 2712,
      "bskams": 2713,
      "sh+tsa": 2714,
      "p+ta": 2715,
      "sdes": 2716,
      "shra": 2717,
      "+ta": 2718,
      "o~m": 2719,
      "'tsher": 2720,
      "mAM": 2721,
      "d+hI": 2722,
      "snar": 2723,
      "dkyus": 2724,
      "yongasu": 2725,
      "tsan+da": 2726,
      "brnag": 2727,
      "phangs": 2728,
      "nem": 2729,
      "shangs": 2730,
      "pan+": 2731,
      "gseb": 2732,
      "t+yA": 2733,
      "DUr+ya": 2734,
      "sle": 2735,
      "ata": 2736,
      "dom": 2737,
      "DU": 2738,
      "rid": 2739,
      "shud+d+ha": 2740,
      "'ge": 2741,
      "phyar": 2742,
      "bar+": 2743,
      "mna'": 2744,
      "bstsal": 2745,
      "brlan": 2746,
      "bgrangs": 2747,
      "d+r+wa": 2748,
      "phru": 2749,
      "dzam+bu": 2750,
      "skyu": 2751,
      "smyin": 2752,
      "sing": 2753,
      "glud": 2754,
      "dU": 2755,
      "brtol": 2756,
      "gzhungs": 2757,
      "yai": 2758,
      "h+ye": 2759,
      "'bur": 2760,
      "ah": 2761,
      "tan+t+ra": 2762,
      "AHhUM": 2763,
      "gca": 2764,
      "bsnyems": 2765,
      "bzhi'am": 2766,
      "dron": 2767,
      "ar+g+ha": 2768,
      "les": 2769,
      "tish+": 2770,
      "k+ka": 2771,
      "'bog": 2772,
      "dmus": 2773,
      "rlangs": 2774,
      "yina": 2775,
      "khrol": 2776,
      "gzims": 2777,
      "rlan": 2778,
      "man+dal": 2779,
      "brab": 2780,
      "'khon": 2781,
      "gsus": 2782,
      "gtubs": 2783,
      "nim": 2784,
      "sau": 2785,
      "dring": 2786,
      "bskon": 2787,
      "bsgrag": 2788,
      "R+Ya": 2789,
      "+a": 2790,
      "rting": 2791,
      "gshibs": 2792,
      "p+aa": 2793,
      "ngad": 2794,
      "haH": 2795,
      "brtas": 2796,
      "pr-i": 2797,
      "rmis": 2798,
      "paN+Di": 2799,
      "phyur": 2800,
      "phrom": 2801,
      "kla": 2802,
      "gI": 2803,
      "yer": 2804,
      "dod": 2805,
      "stob": 2806,
      "gnya'": 2807,
      "rar": 2808,
      "spyon": 2809,
      "gzhogs": 2810,
      "dzo": 2811,
      "wo": 2812,
      "gzud": 2813,
      "man+dala": 2814,
      "bgyir": 2815,
      "ldeg": 2816,
      "rngon": 2817,
      "thaM": 2818,
      "'gron": 2819,
      "r+yA": 2820,
      "bsde": 2821,
      "maud+": 2822,
      "eng": 2823,
      "mid": 2824,
      "gtses": 2825,
      "'khyam": 2826,
      "maud+gal": 2827,
      "zo": 2828,
      "spyo": 2829,
      "gyo": 2830,
      "dku": 2831,
      "hur": 2832,
      "shud+d+he": 2833,
      "dgab": 2834,
      "'dzem": 2835,
      "hwa": 2836,
      "dpyangs": 2837,
      "bkol": 2838,
      "dbri": 2839,
      "ngogs": 2840,
      "'chol": 2841,
      "khyo": 2842,
      "rlobs": 2843,
      "T+Ta": 2844,
      "sgrom": 2845,
      "////": 2846,
      "m+b+ha": 2847,
      "brdz": 2848,
      "gris": 2849,
      "g.ya'": 2850,
      "+amo": 2851,
      "brde": 2852,
      "mai": 2853,
      "traM": 2854,
      "mnye": 2855,
      "'dru": 2856,
      "lhod": 2857,
      "Du": 2858,
      "sh+lo": 2859,
      "gan+": 2860,
      "ldong": 2861,
      "rlag": 2862,
      "das": 2863,
      "snyom": 2864,
      "nyo": 2865,
      "gzhong": 2866,
      "brel": 2867,
      "zam": 2868,
      "huM": 2869,
      "dros": 2870,
      "bstun": 2871,
      "mtshos": 2872,
      "gyes": 2873,
      "rgun": 2874,
      "rong": 2875,
      "basngagasa": 2876,
      "'che": 2877,
      "rlog": 2878,
      "NaM": 2879,
      "+ti": 2880,
      "dkri": 2881,
      "brtsig": 2882,
      "a~M": 2883,
      "pre": 2884,
      "snag": 2885,
      "&a": 2886,
      "grA": 2887,
      "liT": 2888,
      "dzaM": 2889,
      "spags": 2890,
      "bsgrims": 2891,
      "k+ta": 2892,
      "hrih": 2893,
      "daga": 2894,
      "'doms": 2895,
      "'byang": 2896,
      "slon": 2897,
      "'gre": 2898,
      "shaM": 2899,
      "'drir": 2900,
      "baH": 2901,
      "b+h+r+": 2902,
      "10": 2903,
      "h+r+aih": 2904,
      "yams": 2905,
      "N+DI": 2906,
      "'bogs": 2907,
      "tas": 2908,
      "duSh+Ta": 2909,
      "tish+tha": 2910,
      "ng+ha": 2911,
      "'thag": 2912,
      "s+t+wa": 2913,
      "bkri": 2914,
      "'dag": 2915,
      "slan": 2916,
      "klo": 2917,
      "tsags": 2918,
      "rUM": 2919,
      "bil": 2920,
      "snyim": 2921,
      "skyegs": 2922,
      "saH": 2923,
      "'dzegs": 2924,
      "rtsib": 2925,
      "ko\\u0f85haM": 2926,
      "nasa": 2927,
      "rtsar": 2928,
      "pradz+nyA": 2929,
      "Sh+Thi": 2930,
      "dz+wA": 2931,
      "brdabs": 2932,
      "gtub": 2933,
      "gan+d+ha": 2934,
      "dz+dza": 2935,
      "ranga": 2936,
      "yag": 2937,
      "bsrings": 2938,
      "gshis": 2939,
      "b+h+yaHphaT": 2940,
      "dkor": 2941,
      "le'ur": 2942,
      "d+har+m+ma": 2943,
      "rti": 2944,
      "skyer": 2945,
      "sngor": 2946,
      "dwi": 2947,
      "l-I": 2948,
      "la~M": 2949,
      "'dzeg": 2950,
      "rdung": 2951,
      "tuH": 2952,
      "b+h+ra": 2953,
      "tsan+d+ra": 2954,
      "le'u": 2955,
      "00": 2956,
      "srol": 2957,
      "zhang": 2958,
      "skyod": 2959,
      "snabs": 2960,
      "bkal": 2961,
      "bskrun": 2962,
      "lcag": 2963,
      "brdas": 2964,
      "'ad": 2965,
      "g+han": 2966,
      "'dzab": 2967,
      "dzaHhUM": 2968,
      "mchong": 2969,
      "rngams": 2970,
      "b+h+r-i": 2971,
      "dzI": 2972,
      "dgus": 2973,
      "dgye": 2974,
      "mog": 2975,
      "shong": 2976,
      "drongs": 2977,
      "zlas": 2978,
      "ma?": 2979,
      "ma~M": 2980,
      "tshud": 2981,
      "\\u0f00": 2982,
      "skran": 2983,
      "@#/": 2984,
      "bAn": 2985,
      "dbral": 2986,
      "breng": 2987,
      "srod": 2988,
      "khon": 2989,
      "bltams": 2990,
      "g.yer": 2991,
      "mah": 2992,
      "n+aa": 2993,
      "mchongs": 2994,
      "tsham": 2995,
      "sgyi": 2996,
      "blug": 2997,
      "kyal": 2998,
      "khrung": 2999,
      "shesa": 3000,
      "badzri": 3001,
      "t+ti": 3002,
      "ba'": 3003,
      "'dzums": 3004,
      "mtheb": 3005,
      "'phyo": 3006,
      "gag": 3007,
      "ya~M": 3008,
      "bshu": 3009,
      "d+h+r-i": 3010,
      "spogs": 3011,
      "b+h+r+aum": 3012,
      "c+": 3013,
      "gseg": 3014,
      "smyos": 3015,
      "s+ye": 3016,
      "sr-i": 3017,
      "s+thA": 3018,
      "g.yel": 3019,
      "'dzom": 3020,
      "skems": 3021,
      "sgong": 3022,
      "brdzi": 3023,
      "hril": 3024,
      "pI": 3025,
      "'gum": 3026,
      "b+hany+dza": 3027,
      "'phan": 3028,
      "gyu": 3029,
      "khyon": 3030,
      "bzha": 3031,
      "bems": 3032,
      "sgog": 3033,
      "bsdogs": 3034,
      "sgrubs": 3035,
      "ShI": 3036,
      "spra": 3037,
      "g.yab": 3038,
      "bid+yA": 3039,
      "NaH": 3040,
      "b+hiH": 3041,
      "g+ho": 3042,
      "bkas": 3043,
      "kum": 3044,
      "rgu": 3045,
      "thums": 3046,
      "gags": 3047,
      "brgyus": 3048,
      "sgang": 3049,
      "pog": 3050,
      "bkren": 3051,
      "samya": 3052,
      "dred": 3053,
      "semsa": 3054,
      "yir": 3055,
      "bac+": 3056,
      "'or": 3057,
      "lnga'am": 3058,
      "stam": 3059,
      "brdegs": 3060,
      "+ka": 3061,
      "shur": 3062,
      "dgras": 3063,
      "lhums": 3064,
      "gsham": 3065,
      "bstab": 3066,
      "sdeb": 3067,
      "brdzes": 3068,
      "bee": 3069,
      "mnod": 3070,
      "nai": 3071,
      "snas": 3072,
      "g.yag": 3073,
      "krol": 3074,
      "'grangs": 3075,
      "k+ki": 3076,
      "yAM": 3077,
      "gzig": 3078,
      "btsa'": 3079,
      "cus": 3080,
      "tsheg": 3081,
      "g.yar": 3082,
      "g+hi": 3083,
      "gso'": 3084,
      "myags": 3085,
      "kr-ita": 3086,
      "dngangs": 3087,
      "m-": 3088,
      "km-": 3089,
      "mgar": 3090,
      "skrangs": 3091,
      "sum+b+ha": 3092,
      "gsil": 3093,
      "push+": 3094,
      "'gegs": 3095,
      "thaMd": 3096,
      "gansa": 3097,
      "dgrar": 3098,
      "gaN+DI": 3099,
      "Sh+T+": 3100,
      "brah+ma": 3101,
      "nAn": 3102,
      "glengs": 3103,
      "gar+b+ha": 3104,
      "mchid": 3105,
      "'tshig": 3106,
      "+o": 3107,
      "h+na": 3108,
      "liM": 3109,
      "laH": 3110,
      "tug": 3111,
      "bun": 3112,
      "nyar": 3113,
      "tsh+": 3114,
      "bsung": 3115,
      "s+tha": 3116,
      "sgyid": 3117,
      "'dzer": 3118,
      "'thul": 3119,
      "tur": 3120,
      "'gong": 3121,
      "sul": 3122,
      "lhug": 3123,
      "bem": 3124,
      "n+tu": 3125,
      "'tshogs": 3126,
      "dzas": 3127,
      "gcugs": 3128,
      "choms": 3129,
      "'obs": 3130,
      "ad+": 3131,
      "Sh+Na": 3132,
      "sim": 3133,
      "dnga": 3134,
      "cur": 3135,
      "km-a": 3136,
      "'dzugs": 3137,
      "drags": 3138,
      "tut+tA": 3139,
      "N+ya": 3140,
      "gshol": 3141,
      "bsnyil": 3142,
      "bsdoms": 3143,
      "mgal": 3144,
      "spror": 3145,
      "t+ye": 3146,
      "gzon": 3147,
      "sga": 3148,
      "gzings": 3149,
      "klan": 3150,
      "rtsen": 3151,
      "'phra": 3152,
      "daH": 3153,
      "bsag": 3154,
      "shAn+ti": 3155,
      "aN": 3156,
      "+aahmh": 3157,
      "bgros": 3158,
      "lig": 3159,
      "\\u0f85haM": 3160,
      "khye'u": 3161,
      "gdang": 3162,
      "nyos": 3163,
      "lha'am": 3164,
      "skyobs": 3165,
      "klag": 3166,
      "sas": 3167,
      "Sh+ThA": 3168,
      "srun": 3169,
      "dama": 3170,
      "phrug": 3171,
      "gazha": 3172,
      "bkrag": 3173,
      "ts+tshin+da": 3174,
      "mkhregs": 3175,
      "N+Na": 3176,
      "khal": 3177,
      "trai": 3178,
      "mkhur": 3179,
      "raka": 3180,
      "t+wa": 3181,
      "r+Na": 3182,
      "dona": 3183,
      "bzhams": 3184,
      "yoH": 3185,
      "'bud": 3186,
      "rme": 3187,
      "spen": 3188,
      "slebs": 3189,
      "bso": 3190,
      "rdzong": 3191,
      "dkrung": 3192,
      "luT": 3193,
      "Sh+ma": 3194,
      "bid": 3195,
      "'gras": 3196,
      "tad": 3197,
      "khad": 3198,
      "gdal": 3199,
      "rgyangs": 3200,
      "bkan": 3201,
      "nangs": 3202,
      "rtas": 3203,
      "rko": 3204,
      "dba'": 3205,
      "t+aa": 3206,
      "ma'i": 3207,
      "mngags": 3208,
      "brdab": 3209,
      "tha~M": 3210,
      "kun+da": 3211,
      "kaR+Sha": 3212,
      "dbrog": 3213,
      "+ba": 3214,
      "phyags": 3215,
      "krI": 3216,
      "nyed": 3217,
      "khugs": 3218,
      "bsnyengs": 3219,
      "na~M": 3220,
      "th+": 3221,
      "mtshal": 3222,
      "'khrol": 3223,
      "gtar": 3224,
      "bsgul": 3225,
      "'bags": 3226,
      "lhab": 3227,
      "man+t+ra": 3228,
      "sngas": 3229,
      "bya'am": 3230,
      "spyos": 3231,
      "+thi": 3232,
      "sru": 3233,
      "rdog": 3234,
      "phuH": 3235,
      "bsha'": 3236,
      "maN+Da": 3237,
      "duSh+TA": 3238,
      "ldum": 3239,
      "rau": 3240,
      "sprugs": 3241,
      "mud": 3242,
      "smyug": 3243,
      "rdzab": 3244,
      "bstsags": 3245,
      "dgal": 3246,
      "bcwo": 3247,
      "mnam": 3248,
      "rnaMs": 3249,
      "an+ta": 3250,
      "lces": 3251,
      "sid+d+ha": 3252,
      "chungs": 3253,
      "par+": 3254,
      "phyes": 3255,
      "kong": 3256,
      "bsrang": 3257,
      "bskam": 3258,
      "dpangs": 3259,
      "ar+ha": 3260,
      "gazhana": 3261,
      "b+h+aa": 3262,
      "sdebs": 3263,
      "dzra": 3264,
      "kal": 3265,
      "brko": 3266,
      "lhub": 3267,
      "rtug": 3268,
      "mgor": 3269,
      "tshub": 3270,
      "r+Y": 3271,
      "NA~M": 3272,
      "brtsis": 3273,
      "rngul": 3274,
      "bdal": 3275,
      "sgur": 3276,
      "stA": 3277,
      "ts+aa": 3278,
      "s+thi": 3279,
      "k+saM": 3280,
      "yI": 3281,
      "mnabs": 3282,
      "rmed": 3283,
      "N+ye": 3284,
      "rgyam": 3285,
      "khaN+Da": 3286,
      "puk+ka": 3287,
      "pan+di": 3288,
      "ta~M": 3289,
      "chena": 3290,
      "trAM": 3291,
      "bshal": 3292,
      "gan+d+he": 3293,
      "'byar": 3294,
      "'the": 3295,
      "myangs": 3296,
      "bsro": 3297,
      "tsar": 3298,
      "b+h+rUM": 3299,
      "tshoms": 3300,
      "b+hI": 3301,
      "k+ti": 3302,
      "bcibs": 3303,
      "rmyi": 3304,
      "rmas": 3305,
      "loT": 3306,
      "cham": 3307,
      "tshing": 3308,
      "rmig": 3309,
      "sre": 3310,
      "kru": 3311,
      "&&": 3312,
      "sbur": 3313,
      "kwa": 3314,
      "duH": 3315,
      "ldo": 3316,
      "'khol": 3317,
      "g.yan": 3318,
      "bskyangs": 3319,
      "pad+mas": 3320,
      "d+h+ri": 3321,
      "nog": 3322,
      "kAr": 3323,
      "gel": 3324,
      "brgan": 3325,
      "sbangs": 3326,
      "phyal": 3327,
      "gtse": 3328,
      "tha~Md": 3329,
      "phugs": 3330,
      "bkar": 3331,
      "blags": 3332,
      "dush+": 3333,
      "yan+": 3334,
      "tsun": 3335,
      "bsdebs": 3336,
      "brgyab": 3337,
      "d+aa": 3338,
      "mdongs": 3339,
      "sid+": 3340,
      "khyogs": 3341,
      "sbran": 3342,
      "ltogs": 3343,
      "sleb": 3344,
      "pam": 3345,
      "gar+b+": 3346,
      "sbos": 3347,
      "ka~M": 3348,
      "'phong": 3349,
      "da~M": 3350,
      "gcal": 3351,
      "chongs": 3352,
      "chosa": 3353,
      "brjes": 3354,
      "rnyi": 3355,
      "bul": 3356,
      "t+te": 3357,
      "l+r-ing": 3358,
      "slongs": 3359,
      "bgyi'am": 3360,
      "bkum": 3361,
      "skrang": 3362,
      "gisa": 3363,
      "dbog": 3364,
      "'khyog": 3365,
      "gcong": 3366,
      "b+h+rum": 3367,
      "'dral": 3368,
      "phol": 3369,
      "zham": 3370,
      "t+ai": 3371,
      "dzaHhU~M": 3372,
      "kha~M": 3373,
      "'thibs": 3374,
      "\\u0f10": 3375,
      "rbab": 3376,
      "yats+tsha": 3377,
      "gno": 3378,
      "nri": 3379,
      "dat+ta": 3380,
      "mchin": 3381,
      "'khrur": 3382,
      "T+wA~M": 3383,
      "ऽऽ": 3384,
      "matha": 3385,
      "ts+tshe": 3386,
      "be+e": 3387,
      "lji": 3388,
      "n+te": 3389,
      "smi": 3390,
      "trum": 3391,
      "tsaN": 3392,
      "uta": 3393,
      "s+phu": 3394,
      "ae": 3395,
      "byu": 3396,
      "ber": 3397,
      "tres": 3398,
      "ar+tha": 3399,
      "ag+ni": 3400,
      "yU": 3401,
      "mdzangs": 3402,
      "Sh+NI": 3403,
      "R+sha": 3404,
      "sbags": 3405,
      "bdas": 3406,
      "sbrum": 3407,
      "sgos": 3408,
      "muH": 3409,
      "snad": 3410,
      "ngesa": 3411,
      "rjen": 3412,
      "btsags": 3413,
      "ngi": 3414,
      "ldag": 3415,
      "gaH": 3416,
      "zes": 3417,
      "bsgril": 3418,
      "'khogs": 3419,
      "gciga": 3420,
      "lhogs": 3421,
      "+aam": 3422,
      "rtsang": 3423,
      "gtsub": 3424,
      "puSh+pa": 3425,
      "bsrabs": 3426,
      "'brub": 3427,
      "trig": 3428,
      "spyugs": 3429,
      "gaM": 3430,
      "brtsad": 3431,
      "samyak+saM": 3432,
      "bsnyungs": 3433,
      "brlang": 3434,
      "kauN+Di": 3435,
      "bac+do": 3436,
      "Ata": 3437,
      "snom": 3438,
      "m+mA": 3439,
      "slas": 3440,
      "d+h+a": 3441,
      "smrar": 3442,
      "snyegs": 3443,
      "sa?": 3444,
      "ban+de": 3445,
      "brje": 3446,
      "brags": 3447,
      "nyul": 3448,
      "De": 3449,
      "swaha": 3450,
      "lcogs": 3451,
      "skos": 3452,
      "klubs": 3453,
      "nal": 3454,
      "zlar": 3455,
      "bstims": 3456,
      "bswe": 3457,
      "sarbA": 3458,
      "dUr": 3459,
      "'chor": 3460,
      "mel": 3461,
      "nyug": 3462,
      "'jungs": 3463,
      "kwi": 3464,
      "tiH": 3465,
      "g+he": 3466,
      "shud+d+ho": 3467,
      "brim": 3468,
      "ny+dza": 3469,
      "ja": 3470,
      "krA": 3471,
      "suM": 3472,
      "tshA": 3473,
      "than": 3474,
      "bza": 3475,
      "btsag": 3476,
      "spyin": 3477,
      "kai": 3478,
      "r+tha": 3479,
      "No": 3480,
      "ar+ya": 3481,
      "glad": 3482,
      "san+": 3483,
      "n+ai": 3484,
      "d+h+aa": 3485,
      "ar+g+ham": 3486,
      "AR+ya": 3487,
      "gza": 3488,
      "pad+me": 3489,
      "bltam": 3490,
      "ldongs": 3491,
      "khyor": 3492,
      "sheg": 3493,
      "mA~M": 3494,
      "gtibs": 3495,
      "bsdud": 3496,
      "rany+dza": 3497,
      "'drim": 3498,
      "zhesa": 3499,
      "lobs": 3500,
      "b+hai": 3501,
      "h+Na": 3502,
      "thamsa": 3503,
      "p+au": 3504,
      "'khyal": 3505,
      "gsha": 3506,
      "bsgrib": 3507,
      "l+r-iT": 3508,
      "spyil": 3509,
      "skyin": 3510,
      "dab": 3511,
      "'bus": 3512,
      "dreg": 3513,
      "sngangs": 3514,
      "tsang": 3515,
      "sprug": 3516,
      "zabs": 3517,
      "bsnyel": 3518,
      "byer": 3519,
      "t+tha": 3520,
      "spor": 3521,
      "dapa": 3522,
      "gasu": 3523,
      "btsums": 3524,
      "d+h+yA": 3525,
      "barjo": 3526,
      "skyems": 3527,
      "b+hin+da": 3528,
      "sbub": 3529,
      "makha": 3530,
      "brngu": 3531,
      "'phyas": 3532,
      "m+aan+ta": 3533,
      "'-i": 3534,
      "basa": 3535,
      "'bugs": 3536,
      "'dzings": 3537,
      "dzam+b+ha": 3538,
      "brgyu": 3539,
      "twaM": 3540,
      "gar+b+he": 3541,
      "at+ma": 3542,
      "gzhis": 3543,
      "atsa": 3544,
      "sgros": 3545,
      "sgal": 3546,
      "dwe": 3547,
      "'jom": 3548,
      "mum": 3549,
      "'phrang": 3550,
      "'dzub": 3551,
      "g+h+ri": 3552,
      "y-i": 3553,
      "sgreng": 3554,
      "Sh+yA": 3555,
      "dngo": 3556,
      "rka": 3557,
      "srub": 3558,
      "has": 3559,
      "rai": 3560,
      "t+wam": 3561,
      "+aahh+aum": 3562,
      "b+ae": 3563,
      "'khums": 3564,
      "pal": 3565,
      "du'am": 3566,
      "k+Sho": 3567,
      "m+ba": 3568,
      "pun": 3569,
      "pa~M": 3570,
      "khrom": 3571,
      "puSh+pe": 3572,
      "hor": 3573,
      "brtser": 3574,
      "lums": 3575,
      "khrir": 3576,
      "DUR+Ya": 3577,
      "gasnga": 3578,
      "kar+m+ma": 3579,
      "'byi": 3580,
      "bzar": 3581,
      "nan+ta": 3582,
      "sher": 3583,
      "sko": 3584,
      "zlo": 3585,
      "gze": 3586,
      "gzug": 3587,
      "a'am": 3588,
      "'dzina": 3589,
      "b+aee": 3590,
      "dras": 3591,
      "yata": 3592,
      "sogas": 3593,
      "sbram": 3594,
      "btsod": 3595,
      "bsgres": 3596,
      "mdag": 3597,
      "skongs": 3598,
      "bskyon": 3599,
      "gnu": 3600,
      "lU": 3601,
      "spur": 3602,
      "phrugs": 3603,
      "b+hak+Sha": 3604,
      "AHhU~M": 3605,
      "'jib": 3606,
      "dzahmh": 3607,
      "ltad": 3608,
      "ping": 3609,
      "'ag": 3610,
      "mkhal": 3611,
      "push+pe": 3612,
      "gnubs": 3613,
      "DUR+ya": 3614,
      "'dum": 3615,
      "stam+b+ha": 3616,
      "us": 3617,
      "bsnyams": 3618,
      "bskya": 3619,
      "skan": 3620,
      "'ding": 3621,
      "staM": 3622,
      "shwe": 3623,
      "rngubs": 3624,
      "muny+tsa": 3625,
      "d+h+r-ika": 3626,
      "shAn+tiM": 3627,
      "phA": 3628,
      "tru": 3629,
      "tsI": 3630,
      "'byongs": 3631,
      "brA": 3632,
      "'doda": 3633,
      "ng+ga": 3634,
      "gzhil": 3635,
      "bsgrengs": 3636,
      "gdam": 3637,
      "paH": 3638,
      "byan": 3639,
      "khris": 3640,
      "dgum": 3641,
      "skyar": 3642,
      "dngags": 3643,
      "byid": 3644,
      "'gebs": 3645,
      "'byon": 3646,
      "bsring": 3647,
      "smas": 3648,
      "dbug": 3649,
      "ng+hi": 3650,
      "rir": 3651,
      "dbyu": 3652,
      "lim": 3653,
      "t+sa": 3654,
      "phi": 3655,
      "rU~M": 3656,
      "rnyil": 3657,
      "bsrubs": 3658,
      "k+ShI": 3659,
      "ing": 3660,
      "brims": 3661,
      "tIts+tsha": 3662,
      "breg": 3663,
      "rdob": 3664,
      "'tshog": 3665,
      "bac+doMs": 3666,
      "R-i": 3667,
      "ror": 3668,
      "s+t+ri": 3669,
      "sIr": 3670,
      "barjoda": 3671,
      "dkur": 3672,
      "nyang": 3673,
      "phyungs": 3674,
      "zhir": 3675,
      "sin+": 3676,
      "gsong": 3677,
      "langa": 3678,
      "bdo": 3679,
      "wI": 3680,
      "h+tsa": 3681,
      "ko&a": 3682,
      "bsdeb": 3683,
      "+thii": 3684,
      "dzahh+aum": 3685,
      "kh+": 3686,
      "Ar+yA": 3687,
      "arga": 3688,
      "ba'i": 3689,
      "gsag": 3690,
      "sap+ta": 3691,
      "kem": 3692,
      "smai": 3693,
      "bskyil": 3694,
      "bo'am": 3695,
      "kre": 3696,
      "n+ri": 3697,
      "bskyabs": 3698,
      "ut+ta": 3699,
      "arka": 3700,
      "trI": 3701,
      "rgad": 3702,
      "sgril": 3703,
      "rdos": 3704,
      "ung+ga": 3705,
      "brid": 3706,
      "god": 3707,
      "skyen": 3708,
      "brgya'am": 3709,
      "s+aa": 3710,
      "'drid": 3711,
      "zhwa": 3712,
      "nger": 3713,
      "dkrigs": 3714,
      "rbud": 3715,
      "'ol": 3716,
      "'gres": 3717,
      "hrim": 3718,
      "bau": 3719,
      "'byer": 3720,
      "dza~M": 3721,
      "khrums": 3722,
      "g+h+ra": 3723,
      "'adsa": 3724,
      "phre": 3725,
      "b+h+ru": 3726,
      "'phongs": 3727,
      "l+ya": 3728,
      "tar": 3729,
      "semas": 3730,
      "chol": 3731,
      "ut+pala": 3732,
      "sgul": 3733,
      "hring": 3734,
      "bags": 3735,
      "yuH": 3736,
      "rgya'am": 3737,
      "'gar": 3738,
      "btod": 3739,
      "bskyar": 3740,
      "dpyas": 3741,
      "brdzis": 3742,
      "sdum": 3743,
      "phri": 3744,
      "rgyo": 3745,
      "mthonga": 3746,
      "t+r-i": 3747,
      "ltor": 3748,
      "tsh+wa": 3749,
      "btag": 3750,
      "ldon": 3751,
      "ShaH": 3752,
      "hriM": 3753,
      "soms": 3754,
      "mkhrang": 3755,
      "k+ShaH": 3756,
      "bshus": 3757,
      "skyongs": 3758,
      "lubs": 3759,
      "dbub": 3760,
      "lhog": 3761,
      "bstar": 3762,
      "ahhum": 3763,
      "bsogs": 3764,
      "grod": 3765,
      "mthur": 3766,
      "tsak+Shu": 3767,
      "byur": 3768,
      "ze'am": 3769,
      "Sh+Nu": 3770,
      "rmang": 3771,
      "niH": 3772,
      "gdos": 3773,
      "tsau": 3774,
      "trA~M": 3775,
      "hAM": 3776,
      "mdoms": 3777,
      "btsong": 3778,
      "'jus": 3779,
      "gnong": 3780,
      "sh+a": 3781,
      "n+na": 3782,
      "ShaM": 3783,
      "sgren": 3784,
      "lin": 3785,
      "smyan": 3786,
      "pheg": 3787,
      "em": 3788,
      "shaH": 3789,
      "khus": 3790,
      "dabnga": 3791,
      "sbrus": 3792,
      "AM": 3793,
      "sdu": 3794,
      "tro": 3795,
      "kyir": 3796,
      "dpags": 3797,
      "sha~M": 3798,
      "shom": 3799,
      "'tshob": 3800,
      "sangsa": 3801,
      "dpogs": 3802,
      "tsU": 3803,
      "dpya": 3804,
      "mching": 3805,
      "d+hiSh+Thi": 3806,
      "btegs": 3807,
      "ag+na": 3808,
      "rnyings": 3809,
      "raN+Da": 3810,
      "sprang": 3811,
      "hra": 3812,
      "kyo": 3813,
      "'thas": 3814,
      "bogs": 3815,
      "zags": 3816,
      "N+De": 3817,
      "bud+d+he": 3818,
      "'brim": 3819,
      "dbo": 3820,
      "pheM": 3821,
      "gcags": 3822,
      "shir": 3823,
      "chal": 3824,
      "t+yaM": 3825,
      "'khora": 3826,
      "g+hasma": 3827,
      "'khrid": 3828,
      "thaH": 3829,
      "sbrid": 3830,
      "na?": 3831,
      "kuN+Da": 3832,
      "hrIHSh+T+": 3833,
      "bagyi": 3834,
      "nau": 3835,
      "nab": 3836,
      "khre": 3837,
      "ce'am": 3838,
      "brus": 3839,
      "lots+tsha": 3840,
      "bsgyel": 3841,
      "Thi": 3842,
      "dan+": 3843,
      "snal": 3844,
      "m+aam": 3845,
      "hrIM": 3846,
      "smag": 3847,
      "mina": 3848,
      "sh+ri": 3849,
      "Sh+wa": 3850,
      "shwA": 3851,
      "bred": 3852,
      "'ged": 3853,
      "l+le": 3854,
      "khyA": 3855,
      "kr-iSh+Na": 3856,
      "bshan": 3857,
      "kU": 3858,
      "zom": 3859,
      "spug": 3860,
      "rmos": 3861,
      "d+har+m+mA": 3862,
      "chems": 3863,
      "phatah": 3864,
      "skegs": 3865,
      "ita": 3866,
      "gzeng": 3867,
      "rmo": 3868,
      "tir": 3869,
      "rgyob": 3870,
      "k+Sh+ya": 3871,
      "dngosa": 3872,
      "brdzus": 3873,
      "yoda": 3874,
      "skol": 3875,
      "'bye": 3876,
      "g.yob": 3877,
      "gcog": 3878,
      "Hsarba": 3879,
      "lbu": 3880,
      "ang+": 3881,
      "suH": 3882,
      "brtun": 3883,
      "blor": 3884,
      "R-I": 3885,
      "ubs": 3886,
      "tshan+": 3887,
      "bshol": 3888,
      "hoHzhes": 3889,
      "bseng": 3890,
      "mthongs": 3891,
      "t+r+": 3892,
      "n+yA": 3893,
      "btsog": 3894,
      "zhor": 3895,
      "।।।।": 3896,
      "'breg": 3897,
      "phyam": 3898,
      "bkral": 3899,
      "tsan+dana": 3900,
      "'chu": 3901,
      "zhiga": 3902,
      "bskyur": 3903,
      "nul": 3904,
      "shru": 3905,
      "d+harme": 3906,
      "glus": 3907,
      "stAM": 3908,
      "da'": 3909,
      "khrab": 3910,
      "col": 3911,
      "'ub": 3912,
      "badzrI": 3913,
      "shus": 3914,
      "aur+ya": 3915,
      "sdus": 3916,
      "'gums": 3917,
      "sar+": 3918,
      "dzika": 3919,
      "twe": 3920,
      "mgos": 3921,
      "raba": 3922,
      "'chus": 3923,
      "aT": 3924,
      "maN": 3925,
      "snun": 3926,
      "gaso": 3927,
      "bcal": 3928,
      "r+b+": 3929,
      "mAn+ta": 3930,
      "ab": 3931,
      "daN+Da": 3932,
      "bub": 3933,
      "bsrub": 3934,
      "sked": 3935,
      "'phyi": 3936,
      "oms": 3937,
      "mde": 3938,
      "bsnyal": 3939,
      "wan": 3940,
      "yAH": 3941,
      "glod": 3942,
      "sin+d+hu": 3943,
      "'ches": 3944,
      "bta": 3945,
      "rbod": 3946,
      "la'am": 3947,
      "nir+yA": 3948,
      "'bra": 3949,
      "gshags": 3950,
      "mthug": 3951,
      "ng+ka": 3952,
      "ner": 3953,
      "bsnyon": 3954,
      "d+hiH": 3955,
      "bU": 3956,
      "baca": 3957,
      "gsuma": 3958,
      "lid": 3959,
      "maha": 3960,
      "riga": 3961,
      "tshogas": 3962,
      "lang+ka": 3963,
      "n+tA": 3964,
      "'thi": 3965,
      "cor": 3966,
      "dges": 3967,
      "bskums": 3968,
      "grum": 3969,
      "grugs": 3970,
      "d+yu": 3971,
      "rag+": 3972,
      "grur": 3973,
      "brkyangs": 3974,
      "is": 3975,
      "'byes": 3976,
      "man+dA": 3977,
      "bgom": 3978,
      "spre'u": 3979,
      "brgyugs": 3980,
      "11": 3981,
      "dngar": 3982,
      "bzhar": 3983,
      "tshin+d+ha": 3984,
      "dz+aa": 3985,
      "'gyuro": 3986,
      "mthang": 3987,
      "tshag": 3988,
      "yisa": 3989,
      "b+h+yas": 3990,
      "drud": 3991,
      "pya": 3992,
      "rngan": 3993,
      "rlig": 3994,
      "n+d+ra": 3995,
      "grwar": 3996,
      "shud+d+ho\\u0f85haM": 3997,
      "bgad": 3998,
      "gr-ih+na": 3999,
      "rtseg": 4000,
      "rkub": 4001,
      "'dabs": 4002,
      "ga'am": 4003,
      "smr-i": 4004,
      "shakya": 4005,
      "Tak+ki": 4006,
      "N+DA": 4007,
      "&a&a": 4008,
      "dwA": 4009,
      "snyams": 4010,
      "ngom": 4011,
      "bklubs": 4012,
      "smel": 4013,
      "klus": 4014,
      "mnol": 4015,
      "was": 4016,
      "bsab": 4017,
      "skyigs": 4018,
      "aSh+Ta": 4019,
      "।ऽ": 4020,
      "phang": 4021,
      "rtses": 4022,
      "smA": 4023,
      "rnyis": 4024,
      "btsongs": 4025,
      "myin": 4026,
      "mung+ga": 4027,
      "sbyongs": 4028,
      "r+ts+": 4029,
      "mahsarba": 4030,
      "'then": 4031,
      "d+h+rika": 4032,
      "Wa": 4033,
      "drwa": 4034,
      "rnge": 4035,
      "sngan": 4036,
      "d+haM": 4037,
      "mdas": 4038,
      "\\u0f7": 4039,
      "khod": 4040,
      "'dron": 4041,
      "brti": 4042,
      "d+ga": 4043,
      "d+d+hA": 4044,
      "ts+tshA": 4045,
      "dme": 4046,
      "kle": 4047,
      "bid+ya": 4048,
      "mdang": 4049,
      "thuH": 4050,
      "glon": 4051,
      "pag": 4052,
      "khral": 4053,
      "tshubs": 4054,
      "'jud": 4055,
      "sgyus": 4056,
      "b+h+rA": 4057,
      "bkad": 4058,
      "hangs": 4059,
      "grI": 4060,
      "h-i": 4061,
      "gzhigs": 4062,
      "shwat+tha": 4063,
      "Sho": 4064,
      "byab": 4065,
      "'gos": 4066,
      "rda": 4067,
      "bsn": 4068,
      "bcab": 4069,
      "pUrba": 4070,
      "rnama": 4071,
      "n+aam": 4072,
      "sid+ha": 4073,
      "tra~M": 4074,
      "kr-inya": 4075,
      "s+t+wa~M": 4076,
      "brngubs": 4077,
      "'drul": 4078,
      "hA~M": 4079,
      "skyol": 4080,
      "'tshub": 4081,
      "'brur": 4082,
      "rngog": 4083,
      "sal": 4084,
      "namakha": 4085,
      "'jil": 4086,
      "tis": 4087,
      "'khyug": 4088,
      "sin": 4089,
      "aNa": 4090,
      "glong": 4091,
      "tshiga": 4092,
      "t+pa": 4093,
      "r+N+Na": 4094,
      "+aat+ma": 4095,
      "'gyus": 4096,
      "glal": 4097,
      "g+han+": 4098,
      "brub": 4099,
      "drub": 4100,
      "du+u": 4101,
      "matsha": 4102,
      "rnags": 4103,
      "sbreng": 4104,
      "rtsing": 4105,
      "r+d+ha": 4106,
      "d+hIH": 4107,
      "d+h+au": 4108,
      "drungs": 4109,
      "mnyams": 4110,
      "tras": 4111,
      "sgra'am": 4112,
      "bid+": 4113,
      "lba": 4114,
      "dir": 4115,
      "dbyes": 4116,
      "gr-ih+NA": 4117,
      "kul+le": 4118,
      "marda": 4119,
      "puSh+Ti": 4120,
      "nut+ta": 4121,
      "bin": 4122,
      "TaM": 4123,
      "12": 4124,
      "sregs": 4125,
      "tshas": 4126,
      "grir": 4127,
      "m+me": 4128,
      "dzahdzah": 4129,
      "'khyags": 4130,
      "ak+Sha": 4131,
      "zu": 4132,
      "rams": 4133,
      "'dreg": 4134,
      "bcags": 4135,
      "'bying": 4136,
      "k+ko": 4137,
      "b+hin": 4138,
      "basngala": 4139,
      "tU": 4140,
      "bsgrangs": 4141,
      "gzeb": 4142,
      "gdeg": 4143,
      "hwA": 4144,
      "mthor": 4145,
      "dgong": 4146,
      "bsgrim": 4147,
      "ShaT": 4148,
      "d+hiSh+ThA": 4149,
      "rtogsa": 4150,
      "puN+Da": 4151,
      "bsngosa": 4152,
      "ts+yai": 4153,
      "ag+ne": 4154,
      "drubs": 4155,
      "mcher": 4156,
      "mAn": 4157,
      "rte": 4158,
      "ran+": 4159,
      "phyang": 4160,
      "'khyer": 4161,
      "sir": 4162,
      "mnal": 4163,
      "ko\\u0f85ham": 4164,
      "big+h+nan": 4165,
      "'gyes": 4166,
      "sur+ya": 4167,
      "badz+": 4168,
      "'babs": 4169,
      "b+h+yaHswA": 4170,
      "rlab": 4171,
      "mdzo": 4172,
      "bskangs": 4173,
      "nyamsa": 4174,
      "gar+": 4175,
      "star": 4176,
      "gce": 4177,
      "w+": 4178,
      "yuM": 4179,
      "'dzad": 4180,
      "gsur": 4181,
      "mkhyud": 4182,
      "yAta": 4183,
      "g+h+raM": 4184,
      "tau": 4185,
      "ro\\u0f85": 4186,
      "b+aa": 4187,
      "shre": 4188,
      "bldag": 4189,
      "rdum": 4190,
      "kita": 4191,
      "lkug": 4192,
      "'gems": 4193,
      "byo": 4194,
      "bda'": 4195,
      "gyin": 4196,
      "hanya": 4197,
      "tsaM": 4198,
      "dum+": 4199,
      "D+h+": 4200,
      "yau": 4201,
      "hiM": 4202,
      "'gug": 4203,
      "un+": 4204,
      "brod": 4205,
      "'tshubs": 4206,
      "bsgrod": 4207,
      "khrigs": 4208,
      "khos": 4209,
      "len+": 4210,
      "d+harmAH": 4211,
      "cer": 4212,
      "'breng": 4213,
      "'phyan": 4214,
      "Ang": 4215,
      "'dras": 4216,
      "phyogsa": 4217,
      "kAH": 4218,
      "'thabs": 4219,
      "chu'am": 4220,
      "smyugs": 4221,
      "sam+": 4222,
      "'dzul": 4223,
      "'tshalo": 4224,
      "dmas": 4225,
      "bsgre": 4226,
      "D+h+ya": 4227,
      "uSh+NI": 4228,
      "lak+Sha": 4229,
      "hai": 4230,
      "snyen": 4231,
      "ga~M": 4232,
      "smyu": 4233,
      "sngogs": 4234,
      "ahhu~m": 4235,
      "lun": 4236,
      "bcu'am": 4237,
      "sh+tsi": 4238,
      "'adi": 4239,
      "rongs": 4240,
      "skA": 4241,
      "b+haM": 4242,
      "g+aa": 4243,
      "dzahhum": 4244,
      "stems": 4245,
      "phying": 4246,
      "kur": 4247,
      "shr-i": 4248,
      "k+Sh+Na": 4249,
      "gtsags": 4250,
      "rigas": 4251,
      "gtol": 4252,
      "shol": 4253,
      "dz+ya": 4254,
      "ts+li": 4255,
      "ldir": 4256,
      "lgang": 4257,
      "zhin": 4258,
      "shags": 4259,
      "dpyang": 4260,
      "tsag": 4261,
      "s+t+rai": 4262,
      "iTa": 4263,
      "phyind": 4264,
      "mkhrig": 4265,
      "btsug": 4266,
      "pud": 4267,
      "dzaHzhes": 4268,
      "gzhar": 4269,
      "'jol": 4270,
      "kim": 4271,
      "lA~M": 4272,
      "pan+na": 4273,
      "gses": 4274,
      "'gom": 4275,
      "skyang": 4276,
      "slobs": 4277,
      "rtar": 4278,
      "pho'am": 4279,
      "t+ri": 4280,
      "wAn": 4281,
      "rAH": 4282,
      "tAH": 4283,
      "sros": 4284,
      "b+h+yoh": 4285,
      "Sh+Tu": 4286,
      "krita": 4287,
      "k+Sh+ma": 4288,
      "brud": 4289,
      "'khur": 4290,
      "blan": 4291,
      "brtsan": 4292,
      "lAM": 4293,
      "ng+hA": 4294,
      "an+": 4295,
      "sno": 4296,
      "skyogs": 4297,
      "khres": 4298,
      "spyangs": 4299,
      "rkyong": 4300,
      "Sh+yo": 4301,
      "m+bI": 4302,
      "bsnyegs": 4303,
      "b+h+yah": 4304,
      "rnar": 4305,
      "chum": 4306,
      "k+tA": 4307,
      "myogs": 4308,
      "Nar": 4309,
      "k+ShaM": 4310,
      "b+h+yAm": 4311,
      "daR+sha": 4312,
      "marga": 4313,
      "dz+hal": 4314,
      "ny+tsi": 4315,
      "Ya": 4316,
      "zol": 4317,
      "bstu": 4318,
      "sbyod": 4319,
      "t+yu": 4320,
      "sam+b+ha": 4321,
      "brtad": 4322,
      "s+yAd": 4323,
      "t+r+aam": 4324,
      "13": 4325,
      "phrog": 4326,
      "rAM": 4327,
      "sh+ma": 4328,
      "ko\\u0f85ha~M": 4329,
      "t+aits+tsha": 4330,
      "kah": 4331,
      "rasmai": 4332,
      "D+ho": 4333,
      "r+ts+wa": 4334,
      "[]": 4335,
      "hasta": 4336,
      "kuna": 4337,
      "rtsangs": 4338,
      "b+hur": 4339,
      "mngo": 4340,
      "gasla": 4341,
      "sdoms": 4342,
      "siM": 4343,
      "s+t+rI": 4344,
      "srel": 4345,
      "byaM": 4346,
      "cana": 4347,
      "steg": 4348,
      "y+tsi": 4349,
      "l+la": 4350,
      "ShuH": 4351,
      "daka": 4352,
      "rata": 4353,
      "tshir": 4354,
      "bar+Na": 4355,
      "90": 4356,
      "w+aam": 4357,
      "desa": 4358,
      "brlags": 4359,
      "lits+tsha": 4360,
      "gtug": 4361,
      "pUr": 4362,
      "rdu": 4363,
      "rdi": 4364,
      "rdugs": 4365,
      "+la": 4366,
      "ma-": 4367,
      "muSh+Ti": 4368,
      "rtsigs": 4369,
      "k+te": 4370,
      "tsin": 4371,
      "ts+ya": 4372,
      "dak+Shi": 4373,
      "k+shu": 4374,
      "&&&": 4375,
      "chogs": 4376,
      "tsar+ya": 4377,
      "'dems": 4378,
      "m+aum": 4379,
      "WA": 4380,
      "bto": 4381,
      "sbron": 4382,
      "rgyu'am": 4383,
      "rdzogsa": 4384,
      "s+phA": 4385,
      "spyis": 4386,
      "kaN+Da": 4387,
      "phabs": 4388,
      "shwi": 4389,
      "bshigs": 4390,
      "rngom": 4391,
      "'bag": 4392,
      "kyur": 4393,
      "khri'am": 4394,
      "b+h+ri": 4395,
      "bgres": 4396,
      "skon": 4397,
      "rdzogas": 4398,
      "shAn": 4399,
      "T+Te": 4400,
      "g+hanya": 4401,
      "kalpa": 4402,
      "mngona": 4403,
      "mchoga": 4404,
      "waH": 4405,
      "mu~M": 4406,
      "'khrud": 4407,
      "khegs": 4408,
      "kang+ka": 4409,
      "khye'us": 4410,
      "blas": 4411,
      "kaN+": 4412,
      "sge": 4413,
      "rash+": 4414,
      "mdzer": 4415,
      "thems": 4416,
      "shubs": 4417,
      "rAk+Sha": 4418,
      "sta~M": 4419,
      "d+har+m+aa": 4420,
      "ldana": 4421,
      "dngaH": 4422,
      "snu": 4423,
      "bin+d+ha": 4424,
      "bzhus": 4425,
      "kyog": 4426,
      "na'": 4427,
      "yaN": 4428,
      "kama-": 4429,
      "bol": 4430,
      "snrel": 4431,
      "grongs": 4432,
      "n+d+": 4433,
      "ShAM": 4434,
      "'jag": 4435,
      "skag": 4436,
      "dgu'am": 4437,
      "d+huT": 4438,
      "brum": 4439,
      "dar+": 4440,
      "tAm": 4441,
      "mdab": 4442,
      "d+h+waM": 4443,
      "shan+ti": 4444,
      "'thug": 4445,
      "15": 4446,
      "gaN": 4447,
      "h+la": 4448,
      "yan+ti": 4449,
      "spus": 4450,
      "hriH": 4451,
      "hrihsh+": 4452,
      "+pa": 4453,
      "yak+she": 4454,
      "ta?": 4455,
      "bardzu": 4456,
      "'ben": 4457,
      "rngur": 4458,
      "bak+Sha": 4459,
      "bud+d+hi": 4460,
      "kurba": 4461,
      "ung+": 4462,
      "ts+tsa": 4463,
      "nan+da": 4464,
      "hau": 4465,
      "hub": 4466,
      "'brus": 4467,
      "b+h+yaM": 4468,
      "shw": 4469,
      "dz+hi": 4470,
      "pir": 4471,
      "'khus": 4472,
      "gnyags": 4473,
      "rdebs": 4474,
      "kr-I": 4475,
      "kyee": 4476,
      "brnan": 4477,
      "rmen": 4478,
      "dat+te": 4479,
      "'jebs": 4480,
      "gtsubs": 4481,
      "traH": 4482,
      "m+bi": 4483,
      "kar+sha": 4484,
      "shab+": 4485,
      "spud": 4486,
      "d+h+wi": 4487,
      "d+h+ai": 4488,
      "'tshir": 4489,
      "dai": 4490,
      "phrol": 4491,
      "'bi": 4492,
      "kak+ko": 4493,
      "'tshod": 4494,
      "+aar+ya": 4495,
      "b+hin+d+ha": 4496,
      "skyibs": 4497,
      "'grim": 4498,
      "mchims": 4499,
      "gtums": 4500,
      "sAM": 4501,
      "khI": 4502,
      "thAM": 4503,
      "tIr": 4504,
      "skr-i": 4505,
      "puM": 4506,
      "Hwi": 4507,
      "'beb": 4508,
      "kaD+": 4509,
      "gcung": 4510,
      "any+dza": 4511,
      "dzaHdzaH": 4512,
      "yongsa": 4513,
      "d+ye": 4514,
      "mkha'a": 4515,
      "bsros": 4516,
      "sgyug": 4517,
      "sne": 4518,
      "d+aur+ya": 4519,
      "bstir": 4520,
      "kIrti": 4521,
      "l+ai": 4522,
      "rmu": 4523,
      "zhil": 4524,
      "che'am": 4525,
      "'phred": 4526,
      "theb": 4527,
      "\\u0f90": 4528,
      "g+huT": 4529,
      "bsdos": 4530,
      "sid+d+h+ya": 4531,
      "klags": 4532,
      "rlugs": 4533,
      "bsog": 4534,
      "sh+yA": 4535,
      "rngus": 4536,
      "g+h+r-i": 4537,
      "rag+sha": 4538,
      "rmya": 4539,
      "pau": 4540,
      "kyin": 4541,
      "lis": 4542,
      "m+b+hi": 4543,
      "Sh+TaM": 4544,
      "14": 4545,
      "iM": 4546,
      "tsug": 4547,
      "bsnyung": 4548,
      "rak+Shi": 4549,
      "han+": 4550,
      "ge'am": 4551,
      "mang+ga": 4552,
      "myaka": 4553,
      "r+Ya": 4554,
      "ruH": 4555,
      "brU": 4556,
      "bskyud": 4557,
      "gzhibs": 4558,
      "shrA": 4559,
      "brtseg": 4560,
      "puSh+TiM": 4561,
      "Thanya": 4562,
      "ardza": 4563,
      "'phyangs": 4564,
      "thib": 4565,
      "be'u": 4566,
      "kwipa": 4567,
      "len+d+ra": 4568,
      "srubs": 4569,
      "yuSh+": 4570,
      "'dira": 4571,
      "rtol": 4572,
      "drir": 4573,
      "gril": 4574,
      "'agro": 4575,
      "ban+d+he": 4576,
      "za'am": 4577,
      "spyor": 4578,
      "sgribs": 4579,
      "tits+tsha": 4580,
      "[(]gyi": 4581,
      "Am": 4582,
      "ch+": 4583,
      "rtun": 4584,
      "de'am": 4585,
      "rogs": 4586,
      "dbon": 4587,
      "'gro'am": 4588,
      "d+haH": 4589,
      "dz+yo": 4590,
      "hrIHlas": 4591,
      "Sh+TAM": 4592,
      "brgyangs": 4593,
      "gnye": 4594,
      "kli": 4595,
      "gzha": 4596,
      "sai": 4597,
      "tshims": 4598,
      "bcar": 4599,
      "dush+tan": 4600,
      "'bel": 4601,
      "sprel": 4602,
      "sbang": 4603,
      "phyad": 4604,
      "'pham": 4605,
      "k+shi": 4606,
      "n+du": 4607,
      "bsgrigs": 4608,
      "T+Ti": 4609,
      "Sh+ThaH": 4610,
      "ts+tshin": 4611,
      "twi": 4612,
      "zlogs": 4613,
      "po'i": 4614,
      "blong": 4615,
      "muM": 4616,
      "k+t+": 4617,
      "ljan": 4618,
      "To": 4619,
      "rom": 4620,
      "skyor": 4621,
      "tshin": 4622,
      "lan+d+ha": 4623,
      "t+w+aam": 4624,
      "'chir": 4625,
      "s+ai": 4626,
      "tsita": 4627,
      "'dang": 4628,
      "snol": 4629,
      "loga": 4630,
      "snyol": 4631,
      "dzapa": 4632,
      "ng+h+": 4633,
      "'khris": 4634,
      "gzhugs": 4635,
      "han+ti": 4636,
      "b+h+yaHsarba": 4637,
      "bzhug": 4638,
      "ljin": 4639,
      "sku+u": 4640,
      "gee": 4641,
      "16": 4642,
      "brngas": 4643,
      "tim": 4644,
      "bcum": 4645,
      "[,]kyi": 4646,
      "matshana": 4647,
      "bge": 4648,
      "zum": 4649,
      "rur": 4650,
      "spri": 4651,
      "d+ai": 4652,
      "hAH": 4653,
      "lings": 4654,
      "dbyingsa": 4655,
      "gzegs": 4656,
      "thongs": 4657,
      "thabsa": 4658,
      "grims": 4659,
      "ts+tshan+": 4660,
      "dz+nyo": 4661,
      "R+YA": 4662,
      "muHzhes": 4663,
      "ch+gee": 4664,
      "thoga": 4665,
      "'phrigs": 4666,
      "muk+ta": 4667,
      "d+hAH": 4668,
      "stis": 4669,
      "tai": 4670,
      "gsheg": 4671,
      "tshin+da": 4672,
      "dbung": 4673,
      "bshor": 4674,
      "ny+tsA": 4675,
      "[:": 4676,
      "bazla": 4677,
      "esa": 4678,
      "g.yor": 4679,
      "biM": 4680,
      "bing": 4681,
      "r+g+ha": 4682,
      "gang+ga": 4683,
      "sUr+ya": 4684,
      "pa'": 4685,
      "kiM": 4686,
      "'bal": 4687,
      "Thaka": 4688,
      "bsos": 4689,
      "amra": 4690,
      "nyags": 4691,
      "bzos": 4692,
      "shau": 4693,
      "liH": 4694,
      "shAm+bI": 4695,
      "[\\": 4696,
      ")@#//": 4697,
      "+ha": 4698,
      "gU": 4699,
      "tud": 4700,
      "tshem": 4701,
      "biSh+Nu": 4702,
      "ig": 4703,
      "pro": 4704,
      "gseng": 4705,
      "nis": 4706,
      "brdol": 4707,
      "gi'am": 4708,
      "spr-i": 4709,
      "skyengs": 4710,
      "shak+ti": 4711,
      "r-ita": 4712,
      "krod+ha": 4713,
      "btsams": 4714,
      "bac+wa": 4715,
      "lwa": 4716,
      "nU": 4717,
      "bardzi": 4718,
      "'brul": 4719,
      "re'am": 4720,
      "rtsam": 4721,
      "sgyed": 4722,
      "n+di": 4723,
      "bsus": 4724,
      "snoms": 4725,
      "+tha": 4726,
      "yeng": 4727,
      "brngos": 4728,
      "hrIHyig": 4729,
      "na'am": 4730,
      "margad": 4731,
      "rjesu": 4732,
      "Sh+ka": 4733,
      "AHbadzra": 4734,
      "+li": 4735,
      "hral": 4736,
      "n-i": 4737,
      "shap+": 4738,
      "lam+": 4739,
      "glur": 4740,
      "aHzhes": 4741,
      "ljid": 4742,
      "yongas": 4743,
      "'bo": 4744,
      "sgrags": 4745,
      "t+aam": 4746,
      "bsdur": 4747,
      "'deg": 4748,
      "'chel": 4749,
      "bacasa": 4750,
      "rdungs": 4751,
      "bsnam": 4752,
      "'gogs": 4753,
      "su~M": 4754,
      "dz+yA": 4755,
      "Sh+To": 4756,
      "\\u0f88": 4757,
      "snyil": 4758,
      "duHkha": 4759,
      "'phyag": 4760,
      "17": 4761,
      "bl": 4762,
      "hraH": 4763,
      "mji": 4764,
      "tsum": 4765,
      "dur+ya": 4766,
      "dpyi": 4767,
      "\\u0f88\\u0f90": 4768,
      "l+aa": 4769,
      "khrug": 4770,
      "TaH": 4771,
      "ts+tshu": 4772,
      "dau": 4773,
      "me'am": 4774,
      "lur": 4775,
      "bzas": 4776,
      "sbrengs": 4777,
      "'jur": 4778,
      "tsai": 4779,
      "gyos": 4780,
      "dan+da": 4781,
      "n+wa": 4782,
      "zhung": 4783,
      "pul+": 4784,
      "sdangs": 4785,
      "kyai": 4786,
      "gshong": 4787,
      "Hzhes": 4788,
      "aka": 4789,
      "spru": 4790,
      "lena": 4791,
      "rtsab": 4792,
      "rke": 4793,
      "rnyogs": 4794,
      "stim": 4795,
      "bar+t+ta": 4796,
      "slang": 4797,
      "yida": 4798,
      "pora": 4799,
      "sat+ya": 4800,
      "shaka": 4801,
      "zhur": 4802,
      "'dzoms": 4803,
      "b+hud+d+ha": 4804,
      "brngub": 4805,
      "mash+": 4806,
      "sid+hi": 4807,
      "namakha'": 4808,
      "nra": 4809,
      "uSh+ma": 4810,
      "tiSh+Thi": 4811,
      "tshogsa": 4812,
      "badzro": 4813,
      "kAM": 4814,
      "btogs": 4815,
      "mjing": 4816,
      "hasti": 4817,
      "bsnur": 4818,
      "bar+d+ha": 4819,
      "cinga": 4820,
      "b+hUM": 4821,
      "wa~M": 4822,
      "big": 4823,
      "\\u0f85ha~M": 4824,
      "A~M": 4825,
      "T+ra": 4826,
      "Yu": 4827,
      "dos": 4828,
      "lokya": 4829,
      "gsungsa": 4830,
      "bkong": 4831,
      "bAM": 4832,
      "par+Ni": 4833,
      "lcog": 4834,
      "dan+ta": 4835,
      "bdena": 4836,
      "'phyong": 4837,
      "mtha'a": 4838,
      "gtos": 4839,
      "'khrus": 4840,
      "gzhus": 4841,
      "g+ai": 4842,
      "shan+": 4843,
      "bruM": 4844,
      "pun+": 4845,
      "+hi": 4846,
      "drus": 4847,
      "trang": 4848,
      "tsong": 4849,
      "'ga": 4850,
      "sgrim": 4851,
      "yan+ta": 4852,
      "sh+na": 4853,
      "bkrabs": 4854,
      "tsan+d+": 4855,
      "bru~M": 4856,
      "'agre": 4857,
      "posa": 4858,
      "r+g+": 4859,
      "gshig": 4860,
      "tsid": 4861,
      "s+t+ra": 4862,
      "D+hA": 4863,
      "n+taM": 4864,
      "bzhos": 4865,
      "b+heem": 4866,
      "rdeb": 4867,
      "gsing": 4868,
      "madza": 4869,
      "bzhan": 4870,
      "sgregs": 4871,
      "snyod": 4872,
      "d+yo": 4873,
      "sam+ba": 4874,
      "gcun": 4875,
      "rlogs": 4876,
      "snyeg": 4877,
      "yan+tu": 4878,
      "sid+d+he": 4879,
      "bgags": 4880,
      "cong": 4881,
      "ang+ga": 4882,
      "laTa": 4883,
      "'di'am": 4884,
      "sat+wa": 4885,
      "sbyi": 4886,
      "'jing": 4887,
      "gazhi": 4888,
      "gtsugs": 4889,
      "dig": 4890,
      "N+Ta": 4891,
      "m+r+": 4892,
      "l+ye": 4893,
      "baR+Sha": 4894,
      "karka": 4895,
      "lika": 4896,
      "n+sa": 4897,
      "gragsa": 4898,
      "sh+aaka": 4899,
      "mtsher": 4900,
      "ad+ma": 4901,
      "ngana": 4902,
      "r+Nu": 4903,
      "AHyig": 4904,
      "brAh+ma": 4905,
      "sh+ai": 4906,
      "brun": 4907,
      "ika": 4908,
      "oda": 4909,
      "pak+Sha": 4910,
      "su'am": 4911,
      "sat+": 4912,
      "mthuna": 4913,
      "zhom": 4914,
      "shud+d+haHsarba": 4915,
      "rdib": 4916,
      "kaD+D+h+ya": 4917,
      "'gor": 4918,
      "'bre": 4919,
      "shAn+ta": 4920,
      "ts+tshin+d+ha": 4921,
      "bsdom": 4922,
      "sdums": 4923,
      "sab": 4924,
      "snron": 4925,
      "king": 4926,
      "r+YA": 4927,
      "btsam": 4928,
      "rmA": 4929,
      "snon": 4930,
      "'phul": 4931,
      "r+N+": 4932,
      "krid": 4933,
      "madzada": 4934,
      "paN": 4935,
      "phyod": 4936,
      "spris": 4937,
      "shinga": 4938,
      "'jiga": 4939,
      "tsaH": 4940,
      "gzhib": 4941,
      "n+ye": 4942,
      "gcus": 4943,
      "'tshos": 4944,
      "grih+na": 4945,
      "rak+to": 4946,
      "R+ShA": 4947,
      "g+han+de": 4948,
      "shap+da": 4949,
      "thI": 4950,
      "zhigs": 4951,
      "ruM": 4952,
      "stes": 4953,
      "sogsa": 4954,
      "chagas": 4955,
      "brnangs": 4956,
      "basha": 4957,
      "num": 4958,
      "tsa~M": 4959,
      "'dza'": 4960,
      "Sh+Te": 4961,
      "sad+": 4962,
      "km-a0": 4963,
      "ro\\u0f85k+Sha": 4964,
      "drU~M": 4965,
      "gyod": 4966,
      "ud+": 4967,
      "yuSh+ma": 4968,
      "suT": 4969,
      "'phrig": 4970,
      "tA~M": 4971,
      "'dzug": 4972,
      "sang+": 4973,
      "gyong": 4974,
      "inya": 4975,
      "sbud": 4976,
      "bsrangs": 4977,
      "khregs": 4978,
      "ka'am": 4979,
      "kaR+sha": 4980,
      "ciga": 4981,
      "bog": 4982,
      "g.yam": 4983,
      "b+haH": 4984,
      "shoms": 4985,
      "pid": 4986,
      "d+h+ye": 4987,
      "dat+taH": 4988,
      "dapa'a": 4989,
      "hrIHSh+T+r-i": 4990,
      "hrihsh+t+r-i": 4991,
      "glos": 4992,
      "thas": 4993,
      "dzan": 4994,
      "r+au": 4995,
      "sboms": 4996,
      "N+Do": 4997,
      "T+TA": 4998,
      "tsun+da": 4999,
      "anya": 5000,
      "dkye": 5001,
      "wu": 5002,
      "'gribs": 5003,
      "skyas": 5004,
      "tum": 5005,
      "bunya": 5006,
      "lam+ba": 5007,
      "nud": 5008,
      "gtur": 5009,
      "p+pa": 5010,
      "t+yai": 5011,
      "ls": 5012,
      "'drin": 5013,
      "tshog": 5014,
      "thud": 5015,
      "rdze": 5016,
      "gshen": 5017,
      "spro'am": 5018,
      "p+tA": 5019,
      "dr-iSh+Ti": 5020,
      "'juga": 5021,
      "phreM": 5022,
      "bardzusa": 5023,
      "bged": 5024,
      "'thams": 5025,
      "Th+": 5026,
      "pod": 5027,
      "dmigas": 5028,
      "mtshog": 5029,
      "btsem": 5030,
      "dz+h+": 5031,
      "thAH": 5032,
      "y+dzi": 5033,
      "maung+": 5034,
      "niSh+ThA": 5035,
      "byabs": 5036,
      "ph+": 5037,
      "bsgrun": 5038,
      "l+yA": 5039,
      "dwI": 5040,
      "kar+Sha": 5041,
      "hrIHSh+T+rI": 5042,
      "iN": 5043,
      "p+ra": 5044,
      "barje": 5045,
      "sub": 5046,
      "myag": 5047,
      "spom": 5048,
      "sh+ti": 5049,
      "d+h+we": 5050,
      "maung+gal": 5051,
      "'khal": 5052,
      "।ऽऽ": 5053,
      "gshang": 5054,
      "mthud": 5055,
      "khri'u": 5056,
      "zegs": 5057,
      "skyal": 5058,
      "g+h+ra~M": 5059,
      "'dzeng": 5060,
      "ar+g+haM": 5061,
      "'theng": 5062,
      "ang+ku": 5063,
      "sngang": 5064,
      "trUM": 5065,
      "po'-i": 5066,
      "seM": 5067,
      "bzur": 5068,
      "'u~M": 5069,
      "pheb": 5070,
      "shro": 5071,
      "pradz+nya": 5072,
      "ts+yo": 5073,
      "rak+tas": 5074,
      "tsAr+ya": 5075,
      "a+o~m": 5076,
      "shab+da": 5077,
      "18": 5078,
      "gyir": 5079,
      "kum+b+ha": 5080,
      "bzor": 5081,
      "tsab": 5082,
      "t+pan+na": 5083,
      "gcu": 5084,
      "r+m+ma": 5085,
      "rloms": 5086,
      "lcibs": 5087,
      "g+h+rA": 5088,
      "।।ऽ": 5089,
      "rmel": 5090,
      "r+b+ba": 5091,
      "20": 5092,
      "Ra": 5093,
      "prI": 5094,
      "sni": 5095,
      "'oda": 5096,
      "'drub": 5097,
      "thoba": 5098,
      "d+ma": 5099,
      "asma": 5100,
      "klu'am": 5101,
      "Sh+TaH": 5102,
      "brlams": 5103,
      "sh+au": 5104,
      "Ar": 5105,
      "ina": 5106,
      "riH": 5107,
      "sgyel": 5108,
      "brtsom": 5109,
      "~Ms": 5110,
      "btsum": 5111,
      "n+yas": 5112,
      "Sh+Ni": 5113,
      "bcil": 5114,
      "kis": 5115,
      "sbun": 5116,
      "kar+Na": 5117,
      "s+aats+tsha": 5118,
      "gna'": 5119,
      "hab": 5120,
      "ha~m": 5121,
      "skras": 5122,
      "skabsa": 5123,
      "'ab": 5124,
      "in+d+": 5125,
      "push+tim": 5126,
      "mnog": 5127,
      "sbyan": 5128,
      "tar+": 5129,
      "rina": 5130,
      "cada": 5131,
      "'grang": 5132,
      "supa": 5133,
      "smri": 5134,
      "t+yad": 5135,
      "rak+mo": 5136,
      "YA": 5137,
      "sram": 5138,
      "uM": 5139,
      "mara": 5140,
      "yona": 5141,
      "bardz": 5142,
      "bzungs": 5143,
      "kun+": 5144,
      "d+has": 5145,
      "ling+ta": 5146,
      "o~M`": 5147,
      "ban+tu": 5148,
      "big+h+na": 5149,
      "dar+sha": 5150,
      "hre": 5151,
      "durga": 5152,
      "khras": 5153,
      "kaR+": 5154,
      "cha'am": 5155,
      "bskyungs": 5156,
      "bim": 5157,
      "dz+ye": 5158,
      "DaM": 5159,
      "hrIHzhes": 5160,
      "brah+": 5161,
      "bsdongs": 5162,
      "rud": 5163,
      "bcer": 5164,
      "byes": 5165,
      "dita": 5166,
      "dzahs": 5167,
      "mnyel": 5168,
      "kh+ai": 5169,
      "'khro": 5170,
      "aR+": 5171,
      "ker": 5172,
      "sngos": 5173,
      "sgrin": 5174,
      "'dog": 5175,
      "shai": 5176,
      "thugsa": 5177,
      "dgongas": 5178,
      "'ded": 5179,
      "kIs": 5180,
      "shud+d+haH": 5181,
      "hrihtha": 5182,
      "kahthoga": 5183,
      "hrul": 5184,
      "bsgrol": 5185,
      "riM": 5186,
      "rgyugs": 5187,
      "tsin+ta": 5188,
      "koo": 5189,
      "br-it+ta": 5190,
      "big+h+nA": 5191,
      "ldab": 5192,
      "gsha'": 5193,
      "gzha'": 5194,
      "gr-I": 5195,
      "kl-i": 5196,
      "spas": 5197,
      "t+ka": 5198,
      "zhaga": 5199,
      "sar+b+bA": 5200,
      "hoHsa": 5201,
      "ThA": 5202,
      "glongs": 5203,
      "mnams": 5204,
      "wal": 5205,
      "barla": 5206,
      "sbre": 5207,
      "g.yen": 5208,
      "gdar": 5209,
      "swaH": 5210,
      "lcong": 5211,
      "puSh+paM": 5212,
      "gar+dz+dza": 5213,
      "bsnyags": 5214,
      "snams": 5215,
      "big+ha": 5216,
      "zed": 5217,
      "yAn": 5218,
      "mAH": 5219,
      "b+hud": 5220,
      "Shiny+tsA": 5221,
      "klod": 5222,
      "dush+ta": 5223,
      "'chums": 5224,
      "hrihsh+t+r-ih": 5225,
      "yur+": 5226,
      "'dings": 5227,
      "khaD+": 5228,
      "rje'am": 5229,
      "bskong": 5230,
      "gsola": 5231,
      "tsak+shu": 5232,
      "dgosa": 5233,
      "dzasra": 5234,
      "gang+g+aa": 5235,
      "[)]pa": 5236,
      "bsnyun": 5237,
      "brgyang": 5238,
      "mchus": 5239,
      "pat+": 5240,
      "de'i": 5241,
      "phyo": 5242,
      "khyug": 5243,
      "gzags": 5244,
      "saR+": 5245,
      "bas+": 5246,
      "'dzangs": 5247,
      "gasaH": 5248,
      "bldags": 5249,
      "dag'a": 5250,
      "spung": 5251,
      "'dur": 5252,
      "sku'am": 5253,
      "shAM": 5254,
      "b+hasmi": 5255,
      "r+ra": 5256,
      "lcer": 5257,
      "19": 5258,
      "ardzu": 5259,
      "gyang": 5260,
      "ldugs": 5261,
      "gse": 5262,
      "runga": 5263,
      "badzrod": 5264,
      "smra'am": 5265,
      "biSh+Ta": 5266,
      "shAn+te": 5267,
      "r+ye": 5268,
      "r+thi": 5269,
      "r+b+ha": 5270,
      "gta'": 5271,
      "s+yaM": 5272,
      "l+aam": 5273,
      "k+t+wA": 5274,
      "glag": 5275,
      "gshes": 5276,
      "kyi'am": 5277,
      "ni:": 5278,
      "byaH": 5279,
      "toSh+NI": 5280,
      "bu+u": 5281,
      "lob": 5282,
      "loTa": 5283,
      "d+b+ha": 5284,
      "bye.": 5285,
      "thing": 5286,
      "dgongsa": 5287,
      "Sh+NA": 5288,
      "sing+": 5289,
      "sing+ha": 5290,
      "g+ni": 5291,
      "nee": 5292,
      "tan+ta": 5293,
      "dkyel": 5294,
      "Do": 5295,
      "ltang": 5296,
      "b+ai": 5297,
      "then": 5298,
      "t+mA": 5299,
      "k+taH": 5300,
      "T+ya": 5301,
      "k+ShiM": 5302,
      "mkhon": 5303,
      "h+r+aihth+aa": 5304,
      "d+har+m+mAH": 5305,
      "an+ti": 5306,
      "ywa": 5307,
      "yasa": 5308,
      "kad": 5309,
      "tsaN+De": 5310,
      "bltab": 5311,
      "s+sa": 5312,
      "'thoms": 5313,
      "&a&a&a": 5314,
      "kaN+Tha": 5315,
      "kram": 5316,
      "dada": 5317,
      "mah+aa": 5318,
      "bsnor": 5319,
      "bsnyer": 5320,
      "khamas": 5321,
      "shina": 5322,
      "mar+": 5323,
      "zhugsa": 5324,
      "'phror": 5325,
      "dz+nye": 5326,
      "triM": 5327,
      "AHzhes": 5328,
      "bIr+ya": 5329,
      "lau": 5330,
      "rola": 5331,
      "tuM": 5332,
      "noH": 5333,
      "tiM": 5334,
      "tsarma": 5335,
      "shasra": 5336,
      "d+yaM": 5337,
      "dzahhu~m": 5338,
      "tshan+do": 5339,
      "Ad+ya": 5340,
      "drab": 5341,
      "'gyangs": 5342,
      "barda": 5343,
      "skugs": 5344,
      "tsartsi": 5345,
      "pad+mor": 5346,
      "bir": 5347,
      "phyer": 5348,
      "bzhen": 5349,
      "zanga": 5350,
      "b+han+da": 5351,
      "ban+du": 5352,
      "nirti": 5353,
      "big+h+n+aa": 5354,
      "d+aak+ki": 5355,
      "matha'a": 5356,
      "b+h+ru~M": 5357,
      "dmad": 5358,
      "gun+": 5359,
      "yula": 5360,
      "su+u": 5361,
      "sbod": 5362,
      "phos": 5363,
      "sde'am": 5364,
      "hU~M`": 5365,
      "sh+tha": 5366,
      "glor": 5367,
      "lcid": 5368,
      "\\u0fa": 5369,
      "twAM": 5370,
      "duSh+TAn": 5371,
      "kurban+tu": 5372,
      "rbA": 5373,
      "daka'": 5374,
      "mathe": 5375,
      "chada": 5376,
      "slonga": 5377,
      "'us": 5378,
      "khye'ur": 5379,
      "r+t+ti": 5380,
      "b+h+rU~M": 5381,
      "muny+dza": 5382,
      "sh+nu": 5383,
      "b+his": 5384,
      "pany+": 5385,
      "tIk+Sh+Na": 5386,
      "pul+lI": 5387,
      "slag": 5388,
      "bak+": 5389,
      "data": 5390,
      "lo'am": 5391,
      "kan+": 5392,
      "bzlos": 5393,
      "war": 5394,
      "btse": 5395,
      "ping+ka": 5396,
      "s+yai": 5397,
      "rash+mi": 5398,
      "shan+tim": 5399,
      "m+r+yuM": 5400,
      "+bi": 5401,
      "aT+Ta": 5402,
      "mnyed": 5403,
      "rima": 5404,
      "legas": 5405,
      "h+yA": 5406,
      "nanga": 5407,
      "spangsa": 5408,
      "ltod": 5409,
      "btagsa": 5410,
      "daka'a": 5411,
      "srA": 5412,
      "t-i": 5413,
      "masa": 5414,
      "bshugs": 5415,
      "tardza": 5416,
      "sora": 5417,
      "mo'i": 5418,
      "bzlogs": 5419,
      "sgyogs": 5420,
      "gzugsa": 5421,
      "t+s+ya": 5422,
      "rASh+Ta": 5423,
      "s+aur+ya": 5424,
      "dpe'": 5425,
      "sh+tsaN+Da": 5426,
      "any+tsa": 5427,
      "'adu": 5428,
      "\\u0fa4": 5429,
      "+ai": 5430,
      "uts+tsha": 5431,
      "tat+": 5432,
      "'byol": 5433,
      "sbras": 5434,
      "damna": 5435,
      "shata": 5436,
      "h+NA": 5437,
      "d+ha~M": 5438,
      "zhas": 5439,
      "Sh+TI": 5440,
      "pAM": 5441,
      "AHhrIH": 5442,
      "k+ShuM": 5443,
      "d+harmAHswa": 5444,
      "yo\\u0f85haM": 5445,
      "mongas": 5446,
      "ras+": 5447,
      "thega": 5448,
      "wAM": 5449,
      "piM": 5450,
      "g+haM": 5451,
      "n+taH": 5452,
      "hrIHSh+T": 5453,
      "'thil": 5454,
      "grus": 5455,
      "mno": 5456,
      "mngan": 5457,
      "rdub": 5458,
      "wa'am": 5459,
      "rnaM": 5460,
      "thabas": 5461,
      "pha'am": 5462,
      "nuH": 5463,
      "wau": 5464,
      "brtagsa": 5465,
      "NiH": 5466,
      "m+bu": 5467,
      "samyaka": 5468,
      "drUM": 5469,
      "sting": 5470,
      "bazanga": 5471,
      "rak+ShA": 5472,
      "skrun": 5473,
      "gosa": 5474,
      "thus": 5475,
      "rigsa": 5476,
      "Sh+ye": 5477,
      "mArga": 5478,
      "mun+": 5479,
      "sh+ta": 5480,
      "bAka": 5481,
      "d+h+yaM": 5482,
      "kraM": 5483,
      "br-ik+Sha": 5484,
      "b+h+r+au": 5485,
      "phuHphuH": 5486,
      "Amra": 5487,
      "brul": 5488,
      "gran": 5489,
      "iH": 5490,
      "ri'am": 5491,
      "skri": 5492,
      "goo": 5493,
      "khaH": 5494,
      "lum+bi": 5495,
      "skye'am": 5496,
      "brgyags": 5497,
      "chagsa": 5498,
      "theng": 5499,
      "tsaka": 5500,
      "gzhi'am": 5501,
      "mas+": 5502,
      "rat+ne": 5503,
      "hohs": 5504,
      "shwad": 5505,
      "bgam": 5506,
      "hris": 5507,
      "nama": 5508,
      "bser": 5509,
      "bsgag": 5510,
      "rgur": 5511,
      "gyi'am": 5512,
      "mok+Sha": 5513,
      "mtha'am": 5514,
      "rtab": 5515,
      "t+sA": 5516,
      "t+yaH": 5517,
      "d+hiSh+Tha": 5518,
      "rak+shi": 5519,
      "tsit+taM": 5520,
      "'thud": 5521,
      "g+h+ram": 5522,
      "damara": 5523,
      "par+Na": 5524,
      "Shan": 5525,
      "aSh+TA": 5526,
      "changs": 5527,
      "nyA": 5528,
      "bshe": 5529,
      "tak+Sha": 5530,
      "phyog": 5531,
      "kus": 5532,
      "rold": 5533,
      "'jigas": 5534,
      "k+ke": 5535,
      "bsgrang": 5536,
      "lugsa": 5537,
      "bAH": 5538,
      "dAH": 5539,
      "D+hi": 5540,
      "ng+hu": 5541,
      "rak+tasa": 5542,
      "'brir": 5543,
      "yan+te": 5544,
      "gnos": 5545,
      "bat+tA": 5546,
      "nak+Sha": 5547,
      "la'": 5548,
      "hastA": 5549,
      "bud+ha": 5550,
      "ren+d+ra": 5551,
      "'khrung": 5552,
      "k+taM": 5553,
      "khums": 5554,
      "n+t+ra": 5555,
      "puN+ya": 5556,
      "grungs": 5557,
      "bardzisa": 5558,
      "gdag": 5559,
      "ldangs": 5560,
      "zul": 5561,
      "ngun": 5562,
      "bsts": 5563,
      "sany+tsa": 5564,
      "brte": 5565,
      "lir": 5566,
      "muh": 5567,
      "wAka": 5568,
      "arti": 5569,
      "maHswA": 5570,
      "d+h+rig": 5571,
      "AHdang": 5572,
      "'thog": 5573,
      "gyer": 5574,
      "omu": 5575,
      "lagas": 5576,
      "yak+She": 5577,
      "bsel": 5578,
      "te'u": 5579,
      "tus": 5580,
      "san+ti": 5581,
      "sbru": 5582,
      "bskyung": 5583,
      "ching": 5584,
      "k+sham": 5585,
      "cuomu": 5586,
      "bsdums": 5587,
      "sh+ye": 5588,
      "ts+tshan": 5589,
      "baiDUr+ya": 5590,
      "gnoda": 5591,
      "'brasa": 5592,
      "dum+WA": 5593,
      "Dal": 5594,
      "spyug": 5595,
      "khasa": 5596,
      "kyisa": 5597,
      "sbrags": 5598,
      "'jab": 5599,
      "b+ta": 5600,
      "warma": 5601,
      "dzasa?": 5602,
      "b+ha~M": 5603,
      "r+t+ta": 5604,
      "mtshun": 5605,
      "swasti": 5606,
      "shUl": 5607,
      "ny+ra": 5608,
      "brdzangs": 5609,
      "tshigasu": 5610,
      "bskongs": 5611,
      "skum": 5612,
      "bka'a": 5613,
      "'phag": 5614,
      "nAH": 5615,
      "Ta~M": 5616,
      "hri~M": 5617,
      "'grems": 5618,
      "san+ni": 5619,
      "'tshor": 5620,
      "'tshag": 5621,
      "+b+hi": 5622,
      "AT": 5623,
      "drI": 5624,
      "eta": 5625,
      "trU~M": 5626,
      "nanya": 5627,
      "tal": 5628,
      "'grul": 5629,
      "lhad": 5630,
      "cesa": 5631,
      "ling+": 5632,
      "ut+pA": 5633,
      "rkur": 5634,
      "big+h+nam": 5635,
      "duSh+TAM": 5636,
      "kama-cuomu": 5637,
      "btsems": 5638,
      "22": 5639,
      "an+da": 5640,
      "glA": 5641,
      "nama?": 5642,
      "rasmi": 5643,
      "ran+ta": 5644,
      "liTa": 5645,
      "as+": 5646,
      "sitsa": 5647,
      "maHsar+b+ba": 5648,
      "D+he": 5649,
      "bid+y+aa": 5650,
      "As": 5651,
      "Ita": 5652,
      "Ri": 5653,
      "thU": 5654,
      "cal": 5655,
      "seMs": 5656,
      "san+ta": 5657,
      "brtod": 5658,
      "garga": 5659,
      "karmA": 5660,
      "rtsegs": 5661,
      "biH": 5662,
      "sih+la": 5663,
      "dAM": 5664,
      "d+h+ra": 5665,
      "dIp+ta": 5666,
      "Dom": 5667,
      "ak+Shi": 5668,
      "dkan": 5669,
      "myog": 5670,
      "rmog": 5671,
      "bazhaga": 5672,
      "so+o": 5673,
      "moM": 5674,
      "kuM": 5675,
      "sgye": 5676,
      "rtod": 5677,
      "h+ha": 5678,
      "skan+d+ha": 5679,
      "t+na": 5680,
      "dza:": 5681,
      "btsad": 5682,
      "b+hau": 5683,
      "rA~M": 5684,
      "kAn": 5685,
      "kriSh+Na": 5686,
      "'aM": 5687,
      "duSh+Tan": 5688,
      "'agla": 5689,
      "gcen": 5690,
      "ts+tshan+tu": 5691,
      "IT": 5692,
      "gwa": 5693,
      "dusa": 5694,
      "rnamas": 5695,
      "rtsoms": 5696,
      "sgu": 5697,
      "rtsabs": 5698,
      "mchir": 5699,
      "swaM": 5700,
      "l+li": 5701,
      "gshor": 5702,
      "brnags": 5703,
      "sUk+Sh+ma": 5704,
      "dum+bA": 5705,
      "yuSh+mad": 5706,
      "hrau": 5707,
      "bsur": 5708,
      "so'am": 5709,
      "bungs": 5710,
      "sgam": 5711,
      "sgre": 5712,
      "dmig": 5713,
      "tsaN+Di": 5714,
      "bistA": 5715,
      "khum": 5716,
      "n+yo": 5717,
      "gzhob": 5718,
      "sam+bu": 5719,
      "sarbaM": 5720,
      "dz+dzi": 5721,
      "gruba": 5722,
      "+b+hu": 5723,
      "sbug": 5724,
      "p+aam": 5725,
      "tshwas": 5726,
      "km-a8": 5727,
      "'theb": 5728,
      "bring": 5729,
      "bston": 5730,
      "dagu": 5731,
      "barj": 5732,
      "dzU": 5733,
      "'bro": 5734,
      "snyogs": 5735,
      "tin": 5736,
      "lid+ga": 5737,
      "'chings": 5738,
      "sing+ga": 5739,
      "man+tA": 5740,
      "'khyims": 5741,
      "Sh+yata": 5742,
      "mathara": 5743,
      "bashada": 5744,
      "bkyi": 5745,
      "bgrungs": 5746,
      "hrig": 5747,
      "smar": 5748,
      "zugs": 5749,
      "yanya": 5750,
      "mag": 5751,
      "ru+u": 5752,
      "dan+ti": 5753,
      "karko": 5754,
      "'dal": 5755,
      "mus": 5756,
      "shod+ha": 5757,
      "ping+ga": 5758,
      "dzin": 5759,
      "AHni": 5760,
      "br-it+ti": 5761,
      "bud+d+h+ya": 5762,
      "hwags": 5763,
      "dapaga": 5764,
      "23": 5765,
      "aTa": 5766,
      "pyA": 5767,
      "stags": 5768,
      "basu": 5769,
      "yaNa": 5770,
      "'gel": 5771,
      "nga?": 5772,
      "ral+li": 5773,
      "dbur": 5774,
      "t+s+": 5775,
      "gtsos": 5776,
      "g+hU": 5777,
      "m+pa": 5778,
      "bar+N+Na": 5779,
      "brdeb": 5780,
      "skoms": 5781,
      "mash+tsaN+Da": 5782,
      "nyol": 5783,
      "pa?": 5784,
      "ban+da": 5785,
      "bstang": 5786,
      "bsrun": 5787,
      "cas": 5788,
      "nut+pan+na": 5789,
      "t+r+ya": 5790,
      "khud": 5791,
      "tsin+": 5792,
      "dzAM": 5793,
      "D+yan": 5794,
      "pUr+Na": 5795,
      "mUrti": 5796,
      "\\u0f7f": 5797,
      "mnas": 5798,
      "tser": 5799,
      "his": 5800,
      "bste": 5801,
      "yoM": 5802,
      "'grigs": 5803,
      "dzr-I": 5804,
      "bzlums": 5805,
      "snubs": 5806,
      "stobsa": 5807,
      "t+to": 5808,
      "t+t+": 5809,
      "spod": 5810,
      "Na~M": 5811,
      "tAn": 5812,
      "khrun": 5813,
      "bgod": 5814,
      "twa~M": 5815,
      "bsdig": 5816,
      "makhasa": 5817,
      "bras": 5818,
      "bltos": 5819,
      "niSh+Tha": 5820,
      "thosa": 5821,
      "karta": 5822,
      "dge'": 5823,
      "brI": 5824,
      "sngagas": 5825,
      "'jum": 5826,
      "rjesa": 5827,
      "wan+tu": 5828,
      "brtses": 5829,
      "pad+man+ta": 5830,
      "phubs": 5831,
      "Shar": 5832,
      "y+ra": 5833,
      "d+h+ru": 5834,
      "p+sa": 5835,
      "p+sA": 5836,
      "mkhos": 5837,
      "shrad+d+hA": 5838,
      "bshung": 5839,
      "th+l+": 5840,
      "barjesa": 5841,
      "+-i": 5842,
      "ShU": 5843,
      "myo": 5844,
      "rmod": 5845,
      "ngA": 5846,
      "paN+Da": 5847,
      "lagaso": 5848,
      "phrul": 5849,
      "sbrag": 5850,
      "zim": 5851,
      "ga'u": 5852,
      "sham+b+ha": 5853,
      "tsakre": 5854,
      "tsaN+DA": 5855,
      "phyem": 5856,
      "ltong": 5857,
      "rdzis": 5858,
      "'thom": 5859,
      "gshogs": 5860,
      "[\\]": 5861,
      "RI": 5862,
      "gye": 5863,
      "jag": 5864,
      "nan+": 5865,
      "'gu": 5866,
      "'gyogs": 5867,
      "'geg": 5868,
      "dzAH": 5869,
      "rem": 5870,
      "bcugs": 5871,
      "rtsas": 5872,
      "rkya": 5873,
      "blar": 5874,
      "bkrongs": 5875,
      "shub": 5876,
      "bsgrad": 5877,
      "skyab": 5878,
      "d+hAM": 5879,
      "t+taM": 5880,
      "seng+ges": 5881,
      "mIs": 5882,
      "big+h+nAM": 5883,
      "phigs": 5884,
      "hrIHSh+T+r-iHwi": 5885,
      "drel": 5886,
      "ba~m": 5887,
      "ban+ti": 5888,
      "dera": 5889,
      "bsnyan": 5890,
      "ngaH": 5891,
      "pasang": 5892,
      "gsuM": 5893,
      "kud": 5894,
      "gzugas": 5895,
      "tshis": 5896,
      "'ja": 5897,
      "dpen": 5898,
      "gu'am": 5899,
      "gzhin": 5900,
      "tAs": 5901,
      "y+Ya": 5902,
      "sh+tsA": 5903,
      "Sh+ThI": 5904,
      "lAH": 5905,
      "br-id+d+ha": 5906,
      "kama-pasang": 5907,
      "gun+d+he": 5908,
      "la'ng": 5909,
      "Nal": 5910,
      "gun": 5911,
      "ky-i": 5912,
      "nyog": 5913,
      "gshag": 5914,
      "tseg": 5915,
      "nirma": 5916,
      "'bor": 5917,
      "d+b+h+yAM": 5918,
      "slos": 5919,
      "h+yas": 5920,
      "warta": 5921,
      "bkyed": 5922,
      "sarbe": 5923,
      "s+thu": 5924,
      "dz+nyi": 5925,
      "N+ra": 5926,
      "gcam": 5927,
      "shwad+": 5928,
      ".sa": 5929,
      "krin": 5930,
      "zon": 5931,
      "dzrI": 5932,
      "gog": 5933,
      "gaN+Di": 5934,
      "beng": 5935,
      "ts+yu": 5936,
      "TAk+ki": 5937,
      "+b+hA": 5938,
      "ng+he": 5939,
      "\\u0f89": 5940,
      "kar+Ni": 5941,
      "dush+tam": 5942,
      "san+d+hi": 5943,
      "+na": 5944,
      "bangs": 5945,
      "bdam": 5946,
      "gcag": 5947,
      "sbyad": 5948,
      "sngun": 5949,
      "wa'": 5950,
      "da?": 5951,
      "khyur": 5952,
      "kung": 5953,
      "gzur": 5954,
      "bduna": 5955,
      "'phyos": 5956,
      "Sh+pa": 5957,
      "Sh+mA": 5958,
      "sib": 5959,
      "zhos": 5960,
      "b+h+yoH": 5961,
      "g+has": 5962,
      "lArka": 5963,
      "'apha": 5964,
      "'thib": 5965,
      "pun+ye": 5966,
      "hrauM": 5967,
      "36": 5968,
      "Thu": 5969,
      "kol": 5970,
      "rla": 5971,
      "sdar": 5972,
      "nir+": 5973,
      "thol": 5974,
      "lusa": 5975,
      "sana?": 5976,
      "bdes": 5977,
      "h+'u~M": 5978,
      "bsgongs": 5979,
      "li~M": 5980,
      "muk+ti": 5981,
      "pradz+ny+aa": 5982,
      "maHzhes": 5983,
      "hIM": 5984,
      "p+te": 5985,
      "d+h+wan": 5986,
      "bac+do~Ms": 5987,
      "[\\[]": 5988,
      "tar+dz+dza": 5989,
      "21": 5990,
      "Nam": 5991,
      "e+e": 5992,
      "nyu": 5993,
      "lak+Sh+": 5994,
      "hos": 5995,
      "bsting": 5996,
      "nirga": 5997,
      "phrum": 5998,
      "'grig": 5999,
      "'grams": 6000,
      "ngaga": 6001,
      "bzlugs": 6002,
      "tshe'am": 6003,
      "gshegas": 6004,
      "sngag": 6005,
      "d+d+he": 6006,
      "sngagsa": 6007,
      "h+ni": 6008,
      "marka": 6009,
      "r+Sha": 6010,
      "tAn+ta": 6011,
      "traT": 6012,
      "tsig": 6013,
      "N+yaM": 6014,
      "'thus": 6015,
      "grar": 6016,
      "hrIHha": 6017,
      "'abra": 6018,
      "many+dzi": 6019,
      "beed+aur+ya": 6020,
      "km-a9": 6021,
      "bsnyod": 6022,
      "[\\]]": 6023,
      "grung": 6024,
      "srum": 6025,
      "swe": 6026,
      "trug": 6027,
      "bat+": 6028,
      "lana": 6029,
      "kying": 6030,
      "teH": 6031,
      "sur": 6032,
      "buH": 6033,
      "nora": 6034,
      "h+yaM": 6035,
      "rkor": 6036,
      "'dran": 6037,
      "lang+": 6038,
      "muN+Da": 6039,
      "shAg": 6040,
      "shogs": 6041,
      "dz+hu": 6042,
      "bod+hi": 6043,
      "pany+tsi": 6044,
      "girti": 6045,
      "duSh+TaM": 6046,
      "truM": 6047,
      "bardzesa": 6048,
      "kring": 6049,
      "rmug": 6050,
      "yadz+nya": 6051,
      "san+d+ha": 6052,
      "dpyal": 6053,
      "sril": 6054,
      "gup+ta": 6055,
      "sdor": 6056,
      "puN+ye": 6057,
      "dz+hA": 6058,
      "nganga": 6059,
      "kin": 6060,
      "gcis": 6061,
      "shIng": 6062,
      "br-inya": 6063,
      "druga": 6064,
      "saR+Wa": 6065,
      "byU": 6066,
      "enga": 6067,
      "mnon": 6068,
      "ra?": 6069,
      "tak+ki": 6070,
      "subs": 6071,
      "tu+u": 6072,
      "bcosa": 6073,
      "gnyisa": 6074,
      "bcun": 6075,
      "shasa?": 6076,
      "brtsod": 6077,
      "b+h+au": 6078,
      "grogsa": 6079,
      "g.yabs": 6080,
      "d+ho\\u0f85ha~M": 6081,
      "spyoms": 6082,
      "'drud": 6083,
      "sar+Wa": 6084,
      "g+han+d+he": 6085,
      "khaD+ga": 6086,
      "hrish+": 6087,
      "\\u0f89\\u0fa4": 6088,
      "+au": 6089,
      "lcu": 6090,
      "sbag": 6091,
      "nar+": 6092,
      "daN+Di": 6093,
      "duh": 6094,
      "raN": 6095,
      "phril": 6096,
      "minga": 6097,
      "'bol": 6098,
      "bcod": 6099,
      "rang+ga": 6100,
      "kaN": 6101,
      "shi'am": 6102,
      "bcoM": 6103,
      "sardza": 6104,
      "leg": 6105,
      "khamsa": 6106,
      "'khra": 6107,
      "grih+Na": 6108,
      "N+yA": 6109,
      "dwagsa": 6110,
      "mahsa": 6111,
      "Shad": 6112,
      "ab+hi": 6113,
      "byul": 6114,
      "gdus": 6115,
      "rmon": 6116,
      "hah": 6117,
      "tswi": 6118,
      "bsen": 6119,
      "khob": 6120,
      "gyisa": 6121,
      "nogs": 6122,
      "'jas": 6123,
      "zasu": 6124,
      "shum": 6125,
      "bin+da": 6126,
      "phem": 6127,
      "osra": 6128,
      "h+ai": 6129,
      "tsan+d+ha": 6130,
      "'thol": 6131,
      "dIpa": 6132,
      "24": 6133,
      "yib": 6134,
      "kyii": 6135,
      "se'u": 6136,
      "gsud": 6137,
      "shiga": 6138,
      "'phrug": 6139,
      "dpyis": 6140,
      "gub": 6141,
      "d+hau": 6142,
      "rusbal": 6143,
      "shu'am": 6144,
      "shud+d+hi": 6145,
      "b+h+yi": 6146,
      "tra~m": 6147,
      "y+tsu": 6148,
      "grangsa": 6149,
      "gAH": 6150,
      "satwe": 6151,
      "graM": 6152,
      "p+ti": 6153,
      "dz+nyaH": 6154,
      "।ऽ।ऽ": 6155,
      "big+h+n+aana": 6156,
      "25": 6157,
      "gdud": 6158,
      "rlang": 6159,
      "zal": 6160,
      "yak+Shi": 6161,
      "huH": 6162,
      "bud+hA": 6163,
      "gsunga": 6164,
      "sat+ye": 6165,
      "sgrig": 6166,
      "zaba": 6167,
      "bdungs": 6168,
      "mdo'am": 6169,
      "lan+ta": 6170,
      "phus": 6171,
      "k+sho": 6172,
      "dwai": 6173,
      "sig": 6174,
      "g+na": 6175,
      "kir": 6176,
      "d+h+wA": 6177,
      "hrIHswA": 6178,
      "g+huM": 6179,
      "bzhugaso": 6180,
      "bzhags": 6181,
      "\\u0f71": 6182,
      "Dom+bi": 6183,
      "bti": 6184,
      "hwam": 6185,
      "her": 6186,
      "him": 6187,
      "bsnyag": 6188,
      "tata": 6189,
      "gogs": 6190,
      "'dams": 6191,
      "alpa": 6192,
      "zher": 6193,
      "smrang": 6194,
      "'phyon": 6195,
      "manga": 6196,
      "n+wA": 6197,
      "n+yaH": 6198,
      "r+thA": 6199,
      "Tar": 6200,
      "trar": 6201,
      "sh+le": 6202,
      "ts+tsho": 6203,
      "ts+tsh+": 6204,
      "k+Sha~M": 6205,
      "dAn": 6206,
      "b+huny+dza": 6207,
      "'brid": 6208,
      "aHaH": 6209,
      "kar+t+r-i": 6210,
      "twAta": 6211,
      "bshums": 6212,
      "ShISh+Ta": 6213,
      "'gyings": 6214,
      "brug": 6215,
      "snya": 6216,
      "tr-I": 6217,
      "namaH": 6218,
      "ma'": 6219,
      "phrags": 6220,
      "nyida": 6221,
      "'gi": 6222,
      "tub": 6223,
      "phana": 6224,
      "snyon": 6225,
      "d+da": 6226,
      "'phres": 6227,
      "mut+": 6228,
      "pad+mA": 6229,
      "n+dA": 6230,
      "Sh+yaM": 6231,
      "g+r+ai": 6232,
      "kAny+tsi": 6233,
      "y+Y": 6234,
      "h+aam": 6235,
      "sh+li": 6236,
      "m+mu": 6237,
      "dwang": 6238,
      "bstad": 6239,
      "dr-iSh+Ta": 6240,
      "in+t+ra": 6241,
      "tree": 6242,
      "+gi": 6243,
      "Adz+nyA": 6244,
      "uH": 6245,
      "yuh": 6246,
      "niSh+": 6247,
      "kha'am": 6248,
      "kuN": 6249,
      "snA": 6250,
      "tiSh+": 6251,
      "d+ta": 6252,
      "mar+d+ha": 6253,
      "sdings": 6254,
      "ngud": 6255,
      "bkus": 6256,
      "si~M": 6257,
      "srogs": 6258,
      "Nita": 6259,
      "m+bA": 6260,
      "sraM": 6261,
      "a+thi": 6262,
      "tsoo": 6263,
      "gzab": 6264,
      "hreM": 6265,
      "shwad+tha": 6266,
      "+ku": 6267,
      "hro": 6268,
      "hraM": 6269,
      "lga": 6270,
      "mnad": 6271,
      "pr-I": 6272,
      "gsangs": 6273,
      "hing": 6274,
      "maN+Di": 6275,
      "bsri": 6276,
      "'drangs": 6277,
      "springs": 6278,
      "kuT+Ta": 6279,
      "bcoma": 6280,
      "d+b+hiH": 6281,
      "chil": 6282,
      "bkris": 6283,
      "t+si": 6284,
      "dzar": 6285,
      "biSh+Ti": 6286,
      "n+ni": 6287,
      "gcom": 6288,
      "klungs": 6289,
      "shen": 6290,
      "h+aas": 6291,
      "arbu": 6292,
      "g+ha~M": 6293,
      "rat+nA": 6294,
      "mchur": 6295,
      "w+aan": 6296,
      "k+ShuH": 6297,
      "pany+tsA": 6298,
      "lpa": 6299,
      "sbad": 6300,
      "tring": 6301,
      "bat+sa": 6302,
      "duM": 6303,
      "bsran": 6304,
      "tong": 6305,
      "chums": 6306,
      "khaN": 6307,
      "gala": 6308,
      "a'a": 6309,
      "sham+b+hi": 6310,
      "'phyes": 6311,
      "myir": 6312,
      "'khyor": 6313,
      "t+rA": 6314,
      "asmad": 6315,
      "rtsengs": 6316,
      "tsir": 6317,
      "'deng": 6318,
      "maHsarbA": 6319,
      "R+Shi": 6320,
      "ar+d+ha": 6321,
      "d+h+wa~M": 6322,
      "brdebs": 6323,
      "h+yasta": 6324,
      "a+thi+-i": 6325,
      "an+d+ha": 6326,
      "brgyug": 6327,
      "lhwam": 6328,
      "mnags": 6329,
      "pa:": 6330,
      "dat+tA": 6331,
      "bsla": 6332,
      "bsgags": 6333,
      "'grengs": 6334,
      "'be": 6335,
      "kats+tsha": 6336,
      "sams": 6337,
      "mchoda": 6338,
      "tiSh+Ta": 6339,
      "slog": 6340,
      "shab": 6341,
      "tsakli": 6342,
      "muN+Di": 6343,
      "shud+he": 6344,
      "sdoma": 6345,
      "shring": 6346,
      "praM": 6347,
      "N+Ti": 6348,
      "sh+yaM": 6349,
      "AHoM": 6350,
      "b+h+yAs": 6351,
      "tish+ta": 6352,
      "ad+hi": 6353,
      "dapala": 6354,
      "'thing": 6355,
      "ro\\u0f85k+ShA": 6356,
      "sbrebs": 6357,
      "apra": 6358,
      "klI": 6359,
      "ban+ta": 6360,
      "yana": 6361,
      "yaka": 6362,
      "deH": 6363,
      "hoM": 6364,
      "phywa": 6365,
      "ro+o": 6366,
      "luH": 6367,
      "sama": 6368,
      "brnyed": 6369,
      "d+han": 6370,
      "sha'am": 6371,
      "h+ta": 6372,
      "gtog": 6373,
      "spal": 6374,
      "sarbi": 6375,
      "b+ham": 6376,
      "mtshur": 6377,
      "Sh+ra": 6378,
      "kASh+Tha": 6379,
      "'dri'am": 6380,
      "s+t+r-i": 6381,
      "n+yaM": 6382,
      "s+yAt+": 6383,
      "mahs": 6384,
      "।।।।।।।।": 6385,
      "badz+re": 6386,
      "seMn": 6387,
      "ldud": 6388,
      "rtan": 6389,
      "twI": 6390,
      "baka": 6391,
      "dol": 6392,
      "'duna": 6393,
      "zhena": 6394,
      "'phyen": 6395,
      "bkoda": 6396,
      "she'am": 6397,
      "'phog": 6398,
      "sh+ts+yo": 6399,
      "zhogs": 6400,
      "ltem": 6401,
      "kong+ka": 6402,
      "d+hAHsarba": 6403,
      "g+haH": 6404,
      "tsan+t+ra": 6405,
      "d+h+yan": 6406,
      "AHlas": 6407,
      "shIn+taM": 6408,
      "bsnyeg": 6409,
      "kam+": 6410,
      "D+haka": 6411,
      "s+yAM": 6412,
      "big+h+nAn": 6413,
      "b+h+r-inya": 6414,
      "+ya": 6415,
      "yuT": 6416,
      "nyir": 6417,
      "miga": 6418,
      "'drongs": 6419,
      "khyos": 6420,
      "gzong": 6421,
      "'brengs": 6422,
      "snyung": 6423,
      "snrubs": 6424,
      "legaso": 6425,
      "chib": 6426,
      "shin+": 6427,
      "mu+u": 6428,
      "k+to": 6429,
      "spog": 6430,
      "mtshungsa": 6431,
      "'tsho'am": 6432,
      "rmongsa": 6433,
      "bA~M": 6434,
      "yaHku": 6435,
      "b+huM": 6436,
      "ng+ng+ha": 6437,
      "pUrbA": 6438,
      "Al": 6439,
      "brubs": 6440,
      "brabs": 6441,
      "gy-i": 6442,
      "gsigs": 6443,
      "yag+": 6444,
      "songs": 6445,
      "khabs": 6446,
      "snel": 6447,
      "brdul": 6448,
      "khyal": 6449,
      "thegs": 6450,
      "tsas": 6451,
      "mtshona": 6452,
      "phogs": 6453,
      "mtsham": 6454,
      "bsabs": 6455,
      "s+'u": 6456,
      "prats+tsha": 6457,
      "skyabsa": 6458,
      "Nau": 6459,
      "'drer": 6460,
      "sh+yo": 6461,
      "d+huH": 6462,
      "hrIHhUM": 6463,
      "pem": 6464,
      "k+Sh+Nu": 6465,
      "woH": 6466,
      "AR+Ya": 6467,
      "in+da": 6468,
      "pras": 6469,
      "lai": 6470,
      "ra'am": 6471,
      "tu'am": 6472,
      "lta'am": 6473,
      "mosa": 6474,
      "spya": 6475,
      "gai": 6476,
      "'jar": 6477,
      "bskyel": 6478,
      "spad": 6479,
      "linga": 6480,
      "shu+u": 6481,
      "shA~M": 6482,
      "dpong": 6483,
      "r+Ni": 6484,
      "r+d+hA": 6485,
      "r+b+hu": 6486,
      "pusti": 6487,
      "shr-I": 6488,
      "bsdum": 6489,
      "spubs": 6490,
      "draM": 6491,
      "ne+e": 6492,
      "l-ika": 6493,
      "tru~M": 6494,
      "Sh+NuH": 6495,
      "b+h+yahphata": 6496,
      "dakara": 6497,
      "kIrtis": 6498,
      "'thub": 6499,
      "ju": 6500,
      "krang": 6501,
      "anga": 6502,
      "daN": 6503,
      "ro'am": 6504,
      "'dums": 6505,
      "chagasu": 6506,
      "smyur": 6507,
      "tsam+pa": 6508,
      "mul": 6509,
      "k+k+": 6510,
      "bin+du": 6511,
      "n+d+he": 6512,
      "b+has": 6513,
      "blangsa": 6514,
      "'dzol": 6515,
      "tsin+tA": 6516,
      "kroSh+Tu": 6517,
      "btums": 6518,
      "dz+nyI": 6519,
      "tshwar": 6520,
      "hoHb+ha": 6521,
      "sh+aan+ti": 6522,
      "par+N+Na": 6523,
      "b+h+yasta": 6524,
      "kama-cuomu-": 6525,
      "At+mA": 6526,
      "kran": 6527,
      "myug": 6528,
      "myA": 6529,
      "ona": 6530,
      "baza": 6531,
      "hen": 6532,
      "parba": 6533,
      "rgyad": 6534,
      "'gongs": 6535,
      "nga'am": 6536,
      "sped": 6537,
      "sgrims": 6538,
      "gshegsa": 6539,
      "mthos": 6540,
      "dgog": 6541,
      "bkon": 6542,
      "t+su": 6543,
      "zhug": 6544,
      "s+thU": 6545,
      "rtagsa": 6546,
      "gtib": 6547,
      "Da~M": 6548,
      "d+hAr": 6549,
      "l+yaM": 6550,
      "dzaHswA": 6551,
      "'phya'am": 6552,
      "kam+pa": 6553,
      "+aahdamara": 6554,
      "tsun+": 6555,
      "hrIHSh+T+rIH": 6556,
      "bstsol": 6557,
      "a~m": 6558,
      "gde": 6559,
      "kyA": 6560,
      "kwa'": 6561,
      "lder": 6562,
      "mchad": 6563,
      "rlu": 6564,
      "rnyan": 6565,
      "zog": 6566,
      "bad+": 6567,
      "la:": 6568,
      "tsur": 6569,
      "barlanga": 6570,
      "gzhad": 6571,
      "lod": 6572,
      "b+hang": 6573,
      "k+tha": 6574,
      "puSh+Ta": 6575,
      "kAr+ya": 6576,
      "kAR+Sha": 6577,
      "kAR+ShA": 6578,
      "ts+yA": 6579,
      "balcag": 6580,
      "sbyangsa": 6581,
      "dzir": 6582,
      "AHhu~M": 6583,
      "hrI~M": 6584,
      "sbams": 6585,
      "'khum": 6586,
      "han+tu": 6587,
      "dush+tana": 6588,
      "kwa'e": 6589,
      "N-i": 6590,
      "ana?": 6591,
      "m-i": 6592,
      "mdar": 6593,
      "ota": 6594,
      "pai": 6595,
      "pat+ti": 6596,
      "dape": 6597,
      "bstangs": 6598,
      "nig": 6599,
      "rge": 6600,
      "toH": 6601,
      "bura": 6602,
      "dzr-i": 6603,
      "lugas": 6604,
      "sany+": 6605,
      "'jibs": 6606,
      "lan+da": 6607,
      "gzim": 6608,
      "k+ku": 6609,
      "zera": 6610,
      "pur+Na": 6611,
      "Shata": 6612,
      "s+au": 6613,
      "mAng": 6614,
      "pin": 6615,
      "D+ya": 6616,
      "snyem": 6617,
      "dIr+g+ha": 6618,
      "ThaH": 6619,
      "sbrar": 6620,
      "k+Sh+mA": 6621,
      "ldings": 6622,
      "sgyigs": 6623,
      "ran+tha": 6624,
      "gtags": 6625,
      "kris": 6626,
      "pa'o": 6627,
      "hed": 6628,
      "seg": 6629,
      "buM": 6630,
      "'brong": 6631,
      "smye": 6632,
      "rkom": 6633,
      "thengs": 6634,
      "nush+": 6635,
      "k+tsit+ta": 6636,
      "bis": 6637,
      "shAka": 6638,
      "ngu'am": 6639,
      "r+NA": 6640,
      "N+yai": 6641,
      "rlabsa": 6642,
      "ts+ra": 6643,
      "gtems": 6644,
      "man+ti": 6645,
      "hrIHhU~M": 6646,
      "shriM": 6647,
      "iT+ra": 6648,
      "'khyag": 6649,
      "h+r+aim": 6650,
      "th+yA": 6651,
      "kruM": 6652,
      "nirgats+tsha": 6653,
      "ldam": 6654,
      "slangs": 6655,
      "baT+Te": 6656,
      "maT": 6657,
      "nir+ya": 6658,
      "nyi'am": 6659,
      "miH": 6660,
      "'dzags": 6661,
      "rums": 6662,
      "ltab": 6663,
      "gzangs": 6664,
      "gsungas": 6665,
      "kuny+dza": 6666,
      "'phungs": 6667,
      "brtsol": 6668,
      "muN": 6669,
      "k+sh+na": 6670,
      "n+ma": 6671,
      "dz+dzaH": 6672,
      "bshas": 6673,
      "k+Shan": 6674,
      "\\u0fb": 6675,
      "hIH": 6676,
      "dzahb+h+yo": 6677,
      "\\u0f84": 6678,
      "khye'u'am": 6679,
      "'aphagas": 6680,
      "+oM": 6681,
      "Ad": 6682,
      "srabs": 6683,
      "sl-i": 6684,
      "wad": 6685,
      "rtsog": 6686,
      "sgral": 6687,
      "b+y+aa": 6688,
      "badzras": 6689,
      "sarbo": 6690,
      "kiny+tsi": 6691,
      "h+au": 6692,
      "khel": 6693,
      "k+ShU": 6694,
      "N+Du": 6695,
      "kIr": 6696,
      "D+haM": 6697,
      "bzoda": 6698,
      "dat+taM": 6699,
      "sing+ng+hi": 6700,
      "hrish+ti": 6701,
      "yag+sha": 6702,
      "apa": 6703,
      "gras": 6704,
      "rgA": 6705,
      "ringa": 6706,
      "longas": 6707,
      "ku~M": 6708,
      "shiM": 6709,
      "sgrag": 6710,
      "gama": 6711,
      "bkyal": 6712,
      "dzau": 6713,
      "tshala": 6714,
      "Sh+T+ra": 6715,
      "khrum": 6716,
      "n+yai": 6717,
      "bIr": 6718,
      "ban+d+hu": 6719,
      "g+han+da": 6720,
      "bshul": 6721,
      "pun+da": 6722,
      "rag+mo": 6723,
      "bkyigs": 6724,
      "th+l+him": 6725,
      "1dang": 6726,
      "NAH": 6727,
      "ana": 6728,
      "rbe": 6729,
      "sral": 6730,
      "uSh+Ni": 6731,
      "yaSh+Ti": 6732,
      "bslan": 6733,
      "phy-i": 6734,
      "thai": 6735,
      "bar+b+": 6736,
      "ka?": 6737,
      "tshug": 6738,
      "gsogs": 6739,
      "dip+ta": 6740,
      "pad+hA": 6741,
      "grangs3": 6742,
      "rtsi'am": 6743,
      "asti": 6744,
      "as+thi": 6745,
      "bita": 6746,
      "bir+ya": 6747,
      "phe~M": 6748,
      "r+ha": 6749,
      "b+h+raM": 6750,
      "g+hI": 6751,
      "Sh+The": 6752,
      "maHsaM": 6753,
      "'tsheg": 6754,
      "+b+ho": 6755,
      "phroM": 6756,
      "+uM": 6757,
      "kar+N+Na": 6758,
      "mUr": 6759,
      "N+yata": 6760,
      "bsoda": 6761,
      "duSh+TA~M": 6762,
      "ljib": 6763,
      "suHsogs": 6764,
      "gran+thi": 6765,
      "atra": 6766,
      "blings": 6767,
      "myes": 6768,
      "pyam": 6769,
      "rdug": 6770,
      "th+ya": 6771,
      "thangs": 6772,
      "lams": 6773,
      "tsos": 6774,
      "bsor": 6775,
      "rad+": 6776,
      "tel": 6777,
      "phred": 6778,
      "rgam": 6779,
      "'gab": 6780,
      "ruSh+ka": 6781,
      "khyis": 6782,
      "longa": 6783,
      "spA": 6784,
      "kuT": 6785,
      "bzi": 6786,
      "sgrigs": 6787,
      "brnya": 6788,
      "tib": 6789,
      "'grog": 6790,
      "war+Na": 6791,
      "tsar+": 6792,
      "t+y+aa": 6793,
      "r+na": 6794,
      "r+the": 6795,
      "+b+hI": 6796,
      "dAn+te": 6797,
      "D+wA": 6798,
      "ng+ho": 6799,
      "s+yAH": 6800,
      "mdzoda": 6801,
      "phyogasu": 6802,
      "+sa": 6803,
      "26": 6804,
      "]@##": 6805,
      "artsi": 6806,
      "ak+Sho": 6807,
      "btad": 6808,
      "myongs": 6809,
      "paR+": 6810,
      "pa'-i": 6811,
      "nah": 6812,
      "tsor": 6813,
      "ma:": 6814,
      "bsgrogs": 6815,
      "yuTa": 6816,
      "riSh+Ta": 6817,
      "mee": 6818,
      "chor": 6819,
      "bora": 6820,
      "tshus": 6821,
      "shap+ta": 6822,
      "nuta": 6823,
      "n+nA": 6824,
      "s+phar": 6825,
      "kheb": 6826,
      "dz+nyAn": 6827,
      "k+Sh+mAM": 6828,
      "druM": 6829,
      "gaHgaH": 6830,
      "gazhi'am": 6831,
      "hrIHSh+T+rIHwi": 6832,
      "+h+": 6833,
      "gtab": 6834,
      "lhangs": 6835,
      "rlubs": 6836,
      "swo": 6837,
      "zun": 6838,
      "patsa": 6839,
      "baR+": 6840,
      "nada": 6841,
      "nan+di": 6842,
      "phU": 6843,
      "skang": 6844,
      "skeg": 6845,
      "khyugs": 6846,
      "dzri": 6847,
      "bo'-i": 6848,
      "snyug": 6849,
      "rta'am": 6850,
      "'khyogs": 6851,
      "muk+te": 6852,
      "namsa": 6853,
      "swA~M": 6854,
      "sdogs": 6855,
      "mngas": 6856,
      "kin+na": 6857,
      "bshar": 6858,
      "hum/": 6859,
      "DaH": 6860,
      "s+t+ya": 6861,
      "'acha": 6862,
      "bud+d+ho": 6863,
      "kar+N+": 6864,
      "pa'ii": 6865,
      "ldis": 6866,
      "Sh+T+rA": 6867,
      "sid+d+hA": 6868,
      "pa'ng": 6869,
      "r+g+ga": 6870,
      "kun+du": 6871,
      "brah+mA": 6872,
      "duhkha": 6873,
      "'phyis": 6874,
      "An": 6875,
      "Ad+ma": 6876,
      "hwe": 6877,
      "iSh+Tha": 6878,
      "ldom": 6879,
      "masu": 6880,
      "yo.": 6881,
      "'oga": 6882,
      "'drog": 6883,
      "'dzing": 6884,
      "shita": 6885,
      "rjee": 6886,
      "sata": 6887,
      "sbrin": 6888,
      "rgyu+u": 6889,
      "tir+ya": 6890,
      "d+b+h+yaH": 6891,
      "bde'am": 6892,
      "k+kA": 6893,
      "gzhur": 6894,
      "gcug": 6895,
      "gtogsa": 6896,
      "skyabasu": 6897,
      "gtul": 6898,
      "kyapa": 6899,
      "sh+thi": 6900,
      "gAM": 6901,
      "d+hAnya": 6902,
      "'tshengs": 6903,
      "+b+he": 6904,
      "baidur+ya": 6905,
      "brala": 6906,
      "br-ik+ShA": 6907,
      "l-iM": 6908,
      "ny+p+": 6909,
      "d+h+wan+sa": 6910,
      "haHhaH": 6911,
      "phuHswA": 6912,
      "btabs": 6913,
      "an+t+ra": 6914,
      "tsum+ba": 6915,
      "hrIHSh+ToM": 6916,
      "'jams": 6917,
      "'khams": 6918,
      "+hA": 6919,
      "rnyid": 6920,
      "yiga": 6921,
      "marta": 6922,
      "tama?": 6923,
      "gyii": 6924,
      "thara": 6925,
      "sob": 6926,
      "'gril": 6927,
      "barma": 6928,
      "sprus": 6929,
      "kag": 6930,
      "ga'ur": 6931,
      "g.yur": 6932,
      "'anga": 6933,
      "khrim": 6934,
      "karme": 6935,
      "t+t+ra": 6936,
      "pad+mara": 6937,
      "pad+ma'am": 6938,
      "gdabs": 6939,
      "b+hak+sha": 6940,
      "bsar": 6941,
      "cu'am": 6942,
      "b+h+ring": 6943,
      "Shau": 6944,
      "'dresa": 6945,
      "gri'am": 6946,
      "y+dzA": 6947,
      "rIH": 6948,
      "rIn+ti": 6949,
      "pA~M": 6950,
      "piN+Do": 6951,
      "TAM": 6952,
      "D+hu": 6953,
      "p+taH": 6954,
      "R+YaM": 6955,
      "।।ऽऽ": 6956,
      "gan+d+hi": 6957,
      "samyak+": 6958,
      "rmeg": 6959,
      "sgegs": 6960,
      "'brela": 6961,
      "big+h+nAn+ta": 6962,
      "lcugs": 6963,
      "+thA": 6964,
      "+gA": 6965,
      "Ama?": 6966,
      "bes": 6967,
      "brdos": 6968,
      "hrAM": 6969,
      "rni": 6970,
      "unga": 6971,
      "gshu": 6972,
      "yadza": 6973,
      "hiH": 6974,
      "rnas": 6975,
      "gin": 6976,
      "khrul": 6977,
      "d+h-i": 6978,
      "d+Yu": 6979,
      "rtabs": 6980,
      "waka": 6981,
      "yany+tsa": 6982,
      "khyir": 6983,
      "t+r+aa": 6984,
      "shukla": 6985,
      "k+r-i": 6986,
      "biSh+": 6987,
      "n+wi": 6988,
      "'joga": 6989,
      "y+wa": 6990,
      "h+aah": 6991,
      "t+taH": 6992,
      "'tshem": 6993,
      "man+te": 6994,
      "man+tha": 6995,
      "g+h+na": 6996,
      "hoHyig": 6997,
      "D+haH": 6998,
      "mU~M": 6999,
      "'khun": 7000,
      "bar+N+": 7001,
      "gan+d+haM": 7002,
      "'ad'a": 7003,
      "g+han+ta": 7004,
      "shAn+ti~M": 7005,
      "sam+bud+d+hi": 7006,
      "27": 7007,
      "2dang": 7008,
      "hrA": 7009,
      "hr-I": 7010,
      "itsa": 7011,
      "krun": 7012,
      "pung": 7013,
      "rmar": 7014,
      "bade": 7015,
      "naga": 7016,
      "gshub": 7017,
      "bsrul": 7018,
      "bsigs": 7019,
      "chon": 7020,
      "buka": 7021,
      "'brom": 7022,
      "chuba": 7023,
      "chu+u": 7024,
      "thobs": 7025,
      "sgar": 7026,
      "zina": 7027,
      "rdzongs": 7028,
      "dbu+u": 7029,
      "rkos": 7030,
      "rkong": 7031,
      "pad+mos": 7032,
      "bin+": 7033,
      "n+si": 7034,
      "r+d+": 7035,
      "'dzu": 7036,
      "rngad": 7037,
      "dAt+ta": 7038,
      "sraH": 7039,
      "NAn": 7040,
      "gragas": 7041,
      "l+ma": 7042,
      "n+tau": 7043,
      "snyig": 7044,
      "'dzis": 7045,
      "ShAH": 7046,
      "ShAny+tsa": 7047,
      "bkrir": 7048,
      "smigs": 7049,
      "tsanga": 7050,
      "be'us": 7051,
      "sang+yas": 7052,
      "kama-pasang36": 7053,
      "+ma": 7054,
      "46": 7055,
      "The": 7056,
      "dkyi": 7057,
      "glar": 7058,
      "rmangs": 7059,
      "tran": 7060,
      "trU": 7061,
      "bazhi": 7062,
      "na'i": 7063,
      "yaT": 7064,
      "haste": 7065,
      "bsnyes": 7066,
      "yu~M": 7067,
      "'onga": 7068,
      "soH": 7069,
      "kan+da": 7070,
      "bze": 7071,
      "pha~M": 7072,
      "sag": 7073,
      "zada": 7074,
      "g.yangs": 7075,
      "bdung": 7076,
      "gugs": 7077,
      "myaM": 7078,
      "mud+ga": 7079,
      "shAH": 7080,
      "gcoda": 7081,
      "Sh+DA": 7082,
      "shwasta": 7083,
      "d+h+yan+tu": 7084,
      "R+yA": 7085,
      "kr-iSh+ya": 7086,
      "sbugs": 7087,
      "hrIHa": 7088,
      "b+hUH": 7089,
      "rkus": 7090,
      "raHsogs": 7091,
      "gzob": 7092,
      "ldabs": 7093,
      "ngita": 7094,
      "dan+tu": 7095,
      "n+d+ri": 7096,
      "yuSh+mA": 7097,
      "+i": 7098,
      "RA": 7099,
      "aT+TA": 7100,
      "bdams": 7101,
      "dkas": 7102,
      "l+ra": 7103,
      "mrA": 7104,
      "pram": 7105,
      "sdon": 7106,
      "bak+sha": 7107,
      "dubs": 7108,
      "rgo": 7109,
      "su'i": 7110,
      "moT+Ta": 7111,
      "spub": 7112,
      "khag": 7113,
      "brling": 7114,
      "gatsanga": 7115,
      "h+yo": 7116,
      "sgo'am": 7117,
      "lin+ta": 7118,
      "t+yo": 7119,
      "t+sI": 7120,
      "phrar": 7121,
      "Sha~M": 7122,
      "dz+yaM": 7123,
      "tAtra": 7124,
      "thAs": 7125,
      "bed": 7126,
      "zhol": 7127,
      "tsan+ta": 7128,
      "p+la": 7129,
      "tsuM": 7130,
      "'aja": 7131,
      "ny+dzi": 7132,
      "duSh+Ta~M": 7133,
      "yan+t+ra": 7134,
      "shud+d+ho\\u0f85ha~M": 7135,
      "brash+tsa": 7136,
      "+l-i": 7137,
      "38": 7138,
      "glugs": 7139,
      "ltog": 7140,
      "pru": 7141,
      "rtA": 7142,
      "ye+e": 7143,
      "'om": 7144,
      "to\\u0f85": 7145,
      "tshongs": 7146,
      "'dusa": 7147,
      "dger": 7148,
      "brnga": 7149,
      "brlob": 7150,
      "'jings": 7151,
      "gaN+Da": 7152,
      "'jed": 7153,
      "bskyas": 7154,
      "war+N+Na": 7155,
      "'uh": 7156,
      "srida": 7157,
      "tsakrA": 7158,
      "many+dza": 7159,
      "karti": 7160,
      "snyomsa": 7161,
      "b+h+rU": 7162,
      "mnga'am": 7163,
      "mdzesa": 7164,
      "ling+ka": 7165,
      "s+the": 7166,
      "s+yaH": 7167,
      "khan+da": 7168,
      "arba": 7169,
      "pAH": 7170,
      "swah+aa": 7171,
      "bany+dza": 7172,
      "bzhogs": 7173,
      "hoHbadzra": 7174,
      "shIR+Sha": 7175,
      "rak+ShaM": 7176,
      "d+h+ya~M": 7177,
      "b+h+ruM": 7178,
      "bstud": 7179,
      "hrIHSh+T+r-iH": 7180,
      "+bA": 7181,
      "etsa": 7182,
      "bargya": 7183,
      "lab+": 7184,
      "ya:": 7185,
      "dun+du": 7186,
      "mado": 7187,
      "sem": 7188,
      "tuta": 7189,
      "ci'am": 7190,
      "ngasa": 7191,
      "rtswa'am": 7192,
      "phaDa": 7193,
      "bol+la": 7194,
      "brnogs": 7195,
      "h+tsi": 7196,
      "'phyur": 7197,
      "rkam": 7198,
      "kartA": 7199,
      "'khang": 7200,
      "lan+": 7201,
      "dib": 7202,
      "mum+mu": 7203,
      "phum": 7204,
      "dzak+Sha": 7205,
      "gzing": 7206,
      "r+b+h+yAM": 7207,
      "g+ga": 7208,
      "N+yaH": 7209,
      "man+tu": 7210,
      "sngona": 7211,
      "m+au": 7212,
      "p+lu": 7213,
      "b+han+": 7214,
      "b+hany+tsa": 7215,
      "sangas": 7216,
      "'dzir": 7217,
      "dz+haiM": 7218,
      "gre'u": 7219,
      "push+pa": 7220,
      "krAn": 7221,
      "badz+ri": 7222,
      "w+ai": 7223,
      "btong": 7224,
      "hraHhraH": 7225,
      "shan+t+r-i": 7226,
      "seMda'": 7227,
      "Ipra": 7228,
      "argam": 7229,
      "swi": 7230,
      "tron": 7231,
      "w-i": 7232,
      "zhad": 7233,
      "yisaH": 7234,
      "duSh+Ti": 7235,
      "bsto": 7236,
      "ra~m": 7237,
      "phrang": 7238,
      "khrin": 7239,
      "am+ba": 7240,
      "nyaM": 7241,
      "sgrung": 7242,
      "yis:": 7243,
      "guh+ya": 7244,
      "gu+u": 7245,
      "bkyon": 7246,
      "k+kha": 7247,
      "khanga": 7248,
      "Napra": 7249,
      "dz+nyan": 7250,
      "y+aam": 7251,
      "p+na": 7252,
      "hrIHdmar": 7253,
      "kam+ba": 7254,
      "s+phoT": 7255,
      "shud+d+hAH": 7256,
      "'geng": 7257,
      "pradz+nyAn+ta": 7258,
      "ad+ya": 7259,
      "D+h+we": 7260,
      "ShuHsogs": 7261,
      "tsan+d+rA": 7262,
      "bslaba": 7263,
      "'thar": 7264,
      "+lu": 7265,
      "aN+Da": 7266,
      "klA": 7267,
      "nywa": 7268,
      "pyaM": 7269,
      "rnang": 7270,
      "stab": 7271,
      "u~M": 7272,
      "pak+Sh+ya": 7273,
      "yiH": 7274,
      "yot+ta": 7275,
      "dagga": 7276,
      "'o\\u0f10": 7277,
      "cam": 7278,
      "rjud": 7279,
      "kub": 7280,
      "shiT": 7281,
      "snyes": 7282,
      "basgo": 7283,
      "sham+ba": 7284,
      "h+lA": 7285,
      "srings": 7286,
      "legsa": 7287,
      "mtsho'am": 7288,
      "big+hA": 7289,
      "n+de": 7290,
      "n+tI": 7291,
      "khyem": 7292,
      "rnA": 7293,
      "tshI": 7294,
      "b+har": 7295,
      "pradz+nye": 7296,
      "dz+dzu": 7297,
      "piN+Da": 7298,
      "g+haN+": 7299,
      "pany+dza": 7300,
      "man+d+ha": 7301,
      "lAm+ba": 7302,
      "brtabs": 7303,
      "bud+d+h+aa": 7304,
      "//////": 7305,
      "km-a6": 7306,
      "krAn+ta": 7307,
      "'agga": 7308,
      "ang+gu": 7309,
      "daiH": 7310,
      "bas+t+ra": 7311,
      "gnyal": 7312,
      "h-I": 7313,
      "rlags": 7314,
      "rmong": 7315,
      "baga": 7316,
      "basaH": 7317,
      "yah": 7318,
      "tswa": 7319,
      "madz+dza": 7320,
      "phram": 7321,
      "logasu": 7322,
      "han+ta": 7323,
      "gomas": 7324,
      "brnyen": 7325,
      "tik+sh+na": 7326,
      "smres": 7327,
      "gsolaH": 7328,
      "khror": 7329,
      "ram+b+ha": 7330,
      "liny+dza": 7331,
      "muka": 7332,
      "rkyend": 7333,
      "phuh": 7334,
      "k+sA": 7335,
      "mash+tsa": 7336,
      "byamsa": 7337,
      "dwau": 7338,
      "Sh+mi": 7339,
      "chesa": 7340,
      "nems": 7341,
      "g+hai": 7342,
      "gdongs": 7343,
      "AHdmar": 7344,
      "ut+ga": 7345,
      "kr-iSh+yA": 7346,
      "bsnubs": 7347,
      "shUn+ya": 7348,
      "d+har+m+": 7349,
      "tsh+r-i": 7350,
      "badz+r+ai": 7351,
      "ph+y+wa": 7352,
      "bardzanga": 7353,
      "gsera": 7354,
      "ling+gar": 7355,
      "+o~M": 7356,
      ".0": 7357,
      "Nas": 7358,
      "RaH": 7359,
      "Ur": 7360,
      "gyed": 7361,
      "mtshogs": 7362,
      "oo": 7363,
      "dora": 7364,
      "sker": 7365,
      "moda": 7366,
      "rje'u": 7367,
      "gnyisu": 7368,
      "thugas": 7369,
      "brn": 7370,
      "bskye": 7371,
      "snanga": 7372,
      "h+l-I": 7373,
      "lagsa": 7374,
      "dbusu": 7375,
      "rkA": 7376,
      "'drad": 7377,
      "gnangs": 7378,
      "t+rI": 7379,
      "rnyongs": 7380,
      "b+h+yam": 7381,
      "Sh+yaH": 7382,
      "nAny+tsa": 7383,
      "sh+ra": 7384,
      "krong": 7385,
      "urba": 7386,
      "bgrongs": 7387,
      "rwas": 7388,
      "AHswA": 7389,
      "D+Da": 7390,
      "p+tAH": 7391,
      "sUR+ya": 7392,
      "sme+e": 7393,
      "gnyar": 7394,
      "ldib": 7395,
      "pan+thA": 7396,
      "।ऽ।ऽऽ": 7397,
      "\\u0f72": 7398,
      "ts+tshan+do": 7399,
      "ben": 7400,
      "g-i": 7401,
      "mp": 7402,
      "uts+tshu": 7403,
      "pak+Shu": 7404,
      "gsig": 7405,
      "hong": 7406,
      "thaga": 7407,
      "'gyang": 7408,
      "'grims": 7409,
      "supra": 7410,
      "skyung": 7411,
      "bu'i": 7412,
      "nya'am": 7413,
      "rdo'am": 7414,
      "'jugs": 7415,
      "zaga": 7416,
      "lam+b+ha": 7417,
      "'khrab": 7418,
      "mdom": 7419,
      "thims": 7420,
      "gzis": 7421,
      "bsgru": 7422,
      "shwo": 7423,
      "ngasra": 7424,
      "g+haN+Da": 7425,
      "'cham": 7426,
      "ldems": 7427,
      "'thur": 7428,
      "k+Sh+RaH": 7429,
      "d+ho\\u0f85haM": 7430,
      "ny+Nita": 7431,
      "an+tas+tha": 7432,
      "+aamh": 7433,
      "tsak+ShuH": 7434,
      "bacada": 7435,
      "matshamas": 7436,
      "tsan+d+re": 7437,
      "in+d+ri": 7438,
      "dzr-IM": 7439,
      "dzrIM": 7440,
      "s+'uk+Sh+ma": 7441,
      "bar+b+r-i": 7442,
      "Ar+": 7443,
      "DoM": 7444,
      "drol": 7445,
      "gregs": 7446,
      "kod": 7447,
      "nyor": 7448,
      "sbor": 7449,
      "two": 7450,
      "paT": 7451,
      "naT+Te": 7452,
      "ya?": 7453,
      "tsad": 7454,
      "duSh+": 7455,
      "yee": 7456,
      "byai": 7457,
      "phI": 7458,
      "phrig": 7459,
      "roH": 7460,
      "'grin": 7461,
      "tun+te": 7462,
      "bung+ng+ha": 7463,
      "dzal": 7464,
      "'bang": 7465,
      "chugs": 7466,
      "spyong": 7467,
      "luM": 7468,
      "bzh-i": 7469,
      "d+yaH": 7470,
      "mdzum": 7471,
      "zasa": 7472,
      "shara": 7473,
      "numra": 7474,
      "b+had": 7475,
      "gtsig": 7476,
      "'khyol": 7477,
      "diH": 7478,
      "khyil": 7479,
      "t+yan+ta": 7480,
      "b+h+re": 7481,
      "prah+ma": 7482,
      "Ta?": 7483,
      "gshib": 7484,
      "phul+la": 7485,
      "d+his": 7486,
      "beSh+Ta": 7487,
      "skyog": 7488,
      "sh+nA": 7489,
      "k+Shau": 7490,
      "sAH": 7491,
      "Sh+ThaM": 7492,
      "b+hAH": 7493,
      "t+ya~M": 7494,
      "'achi": 7495,
      "b+hee": 7496,
      "k+Sh+mA~M": 7497,
      "puSh+ka": 7498,
      "k+ShAM": 7499,
      "pr-its+tshA": 7500,
      "bac+wo": 7501,
      "ऽऽऽऽ": 7502,
      "ts+tshan+da": 7503,
      "kol+la": 7504,
      "mp-": 7505,
      "'khros": 7506,
      "Uta": 7507,
      "b-i": 7508,
      "drum": 7509,
      "gyal": 7510,
      "kl-I": 7511,
      "ldar": 7512,
      "rbi": 7513,
      "sdog": 7514,
      "wangs": 7515,
      "bargya'am": 7516,
      "mat+ta": 7517,
      "yang+ku": 7518,
      "yom": 7519,
      "doH": 7520,
      "songa": 7521,
      "'gur": 7522,
      "gzag": 7523,
      "rjai": 7524,
      "byanga": 7525,
      "khoms": 7526,
      "rega": 7527,
      "bzlum": 7528,
      "shid": 7529,
      "d+w+": 7530,
      "chis": 7531,
      "h+l-i": 7532,
      "bcas:": 7533,
      "dmigsa": 7534,
      "war+d+ha": 7535,
      "bsgor": 7536,
      "grola": 7537,
      "byeda": 7538,
      "thil": 7539,
      "n+su": 7540,
      "lhungs": 7541,
      "b+h+ras+": 7542,
      "Sh+thi": 7543,
      "'jomas": 7544,
      "mAr": 7545,
      "bek+sha": 7546,
      "rmigs": 7547,
      "sh+mi": 7548,
      "b+hid": 7549,
      "skrar": 7550,
      "'bub": 7551,
      "g+haN+Ta": 7552,
      "gdoda": 7553,
      "kany+tsi": 7554,
      "kr-iSh+NA": 7555,
      "b+huH": 7556,
      "gra~M": 7557,
      "l+lI": 7558,
      "'atshala": 7559,
      "shud+d+hA": 7560,
      "tre+e": 7561,
      "s+t+wam+b+ha": 7562,
      "mahtsan+da": 7563,
      "par+N+": 7564,
      "gar+b+hA": 7565,
      "dan+te": 7566,
      "sar+pi": 7567,
      "btams": 7568,
      "'ab'a": 7569,
      "tiSh+tha": 7570,
      "sh+aan+tim": 7571,
      "'+": 7572,
      "+gu": 7573,
      "braM": 7574,
      "glas": 7575,
      "kon": 7576,
      "rnyag": 7577,
      "snyags": 7578,
      "uN": 7579,
      "paT+Ta": 7580,
      "baba": 7581,
      "nan+tA": 7582,
      "dabye": 7583,
      "dak+ki": 7584,
      "daN+De": 7585,
      "bsgegs": 7586,
      "bsgugs": 7587,
      "tas+tha": 7588,
      "doga": 7589,
      "nash+tsa": 7590,
      "risa": 7591,
      "'gri": 7592,
      "gzeg": 7593,
      "stem": 7594,
      "kurma": 7595,
      "sana": 7596,
      "sbeg": 7597,
      "tika": 7598,
      "ti~M": 7599,
      "tshen": 7600,
      "d+Y": 7601,
      "gsol:": 7602,
      "'phru": 7603,
      "thel": 7604,
      "brtsen": 7605,
      "phong": 7606,
      "d+ham": 7607,
      "t+tI": 7608,
      "t+raM": 7609,
      "k+t+wa": 7610,
      "phye'am": 7611,
      "puts+tsha": 7612,
      "dz+haM": 7613,
      "sh+yan": 7614,
      "gArg": 7615,
      "rdzings": 7616,
      "bany+tsa": 7617,
      "ng+ng+": 7618,
      "khyus": 7619,
      "twA~M": 7620,
      "k+Sh+me": 7621,
      "tish+thi": 7622,
      "pUrbe": 7623,
      "bardzangasa": 7624,
      "'gyi": 7625,
      "W+": 7626,
      "sbong": 7627,
      "pak+Shi": 7628,
      "nabs": 7629,
      "deb": 7630,
      "tsen": 7631,
      "bsing": 7632,
      "bya:": 7633,
      "soo": 7634,
      "bzhira": 7635,
      "dgrongs": 7636,
      "thom": 7637,
      "stom": 7638,
      "kaT": 7639,
      "bzunga": 7640,
      "brlar": 7641,
      "bash+tsa": 7642,
      "gara": 7643,
      "rdzog": 7644,
      "damra": 7645,
      "hAr": 7646,
      "bcasaH": 7647,
      "h+mA": 7648,
      "b+ba": 7649,
      "manra": 7650,
      "muk+taH": 7651,
      "pad+mi": 7652,
      "t+yud": 7653,
      "k+nu": 7654,
      "dgugs": 7655,
      "r+m+mA": 7656,
      "rAdz+nyA": 7657,
      "s+dza": 7658,
      "sh-i": 7659,
      "kiH": 7660,
      "sh+pe": 7661,
      "sroga": 7662,
      "dum+ba": 7663,
      "gleg": 7664,
      "'chas": 7665,
      "kheng": 7666,
      "dAn+ta": 7667,
      "b+h+yaHsa": 7668,
      "shrIH": 7669,
      "shan+ta": 7670,
      "dzus": 7671,
      "ar+yA": 7672,
      "g+hur+Na": 7673,
      "l-iT": 7674,
      "D+hau": 7675,
      "hr-inya": 7676,
      "R+YaH": 7677,
      "bar+t+ti": 7678,
      "NoH": 7679,
      "tsak+Shur": 7680,
      "'chugs": 7681,
      "sat+kA": 7682,
      "bashagas": 7683,
      "in+d+rA": 7684,
      "mut+ga": 7685,
      "tsun+de": 7686,
      "57": 7687,
      "ak+sho": 7688,
      "hra~M": 7689,
      "ldes": 7690,
      "naT+Ta": 7691,
      "gsab": 7692,
      "bsi": 7693,
      "bskyis": 7694,
      "gsug": 7695,
      "kug": 7696,
      "bdagis": 7697,
      "nyab": 7698,
      "bona": 7699,
      "bosa": 7700,
      "sats+tsha": 7701,
      "sap+pa": 7702,
      "'jin": 7703,
      "gsoda": 7704,
      "numa": 7705,
      "nut+pa": 7706,
      "khyam": 7707,
      "h+r+": 7708,
      "h+nA": 7709,
      "mchi'am": 7710,
      "spabs": 7711,
      "pad+mAn+ta": 7712,
      "gzigas": 7713,
      "dpona": 7714,
      "b+hasma": 7715,
      "r-its+tsha": 7716,
      "s+yan": 7717,
      "tAr": 7718,
      "tAma?": 7719,
      "'jogs": 7720,
      "kAl": 7721,
      "kA~M": 7722,
      "y+ya": 7723,
      "y+YA": 7724,
      "tsit+tA": 7725,
      "beg": 7726,
      "sh+ni": 7727,
      "Sh+Than": 7728,
      "yaHsa": 7729,
      "ng+hU": 7730,
      "bzhog": 7731,
      "s+w+aah+aa": 7732,
      "brtsir": 7733,
      "sid+d+him+me": 7734,
      "daMSh+Ta": 7735,
      "mUrta": 7736,
      "prAp+ta": 7737,
      "nirbA": 7738,
      "big+h+n+aam": 7739,
      "pr-its+tsha": 7740,
      "ng+harma": 7741,
      "ba'-i": 7742,
      "Sh+T+r-i": 7743,
      "tsUr+Na": 7744,
      "hrihsh+t+r-ihbi": 7745,
      ".0ra": 7746,
      "'chug": 7747,
      "3dang": 7748,
      "brad": 7749,
      "byog": 7750,
      "grim": 7751,
      "gnyes": 7752,
      "h'uh": 7753,
      "ina?": 7754,
      "kyor": 7755,
      "krig": 7756,
      "myul": 7757,
      "rmyang": 7758,
      "sdun": 7759,
      "trog": 7760,
      "ng+ra": 7761,
      "namaHsarba": 7762,
      "dak+Sha": 7763,
      "made": 7764,
      "byany+dza": 7765,
      "tad+": 7766,
      "mit+te": 7767,
      "chong": 7768,
      "bud+h+ya": 7769,
      "ngaM": 7770,
      "pas+thA": 7771,
      "kha'": 7772,
      "kana": 7773,
      "kun+d+ha": 7774,
      "sgru": 7775,
      "rdzA": 7776,
      "zir": 7777,
      "tipa": 7778,
      "bskyes": 7779,
      "hA+o": 7780,
      "'phrag": 7781,
      "b+hal": 7782,
      "dri'am": 7783,
      "gen": 7784,
      "myak+saM": 7785,
      "t+yan": 7786,
      "dzag+": 7787,
      "tshams": 7788,
      "'chis": 7789,
      "s+yo": 7790,
      "tAta": 7791,
      "'jos": 7792,
      "kAr+": 7793,
      "kAR+": 7794,
      "tsin+d+ha": 7795,
      "kyar": 7796,
      "ltebs": 7797,
      "ts+tsA": 7798,
      "bal+la": 7799,
      "keg": 7800,
      "sAr": 7801,
      "bgor": 7802,
      "'thums": 7803,
      "sIta": 7804,
      "dmul": 7805,
      "b+hok+": 7806,
      "TuM": 7807,
      "NuH": 7808,
      "spyom": 7809,
      "brdze": 7810,
      "san+na": 7811,
      "an+bi": 7812,
      "bak+ku": 7813,
      "bshegs": 7814,
      "brnyogs": 7815,
      "+ge": 7816,
      "40": 7817,
      "NU": 7818,
      "btog": 7819,
      "brash+": 7820,
      "gres": 7821,
      "gyol": 7822,
      "myung": 7823,
      "rtu": 7824,
      "rming": 7825,
      "sbya": 7826,
      "pak+tA": 7827,
      "nan+ti": 7828,
      "nis+sa": 7829,
      "dag+": 7830,
      "rgongs": 7831,
      "riT": 7832,
      "togs": 7833,
      "spe": 7834,
      "kanya": 7835,
      "rtso": 7836,
      "'dula": 7837,
      "bongs": 7838,
      "sak+": 7839,
      "sarga": 7840,
      "sbyon": 7841,
      "'jor": 7842,
      "'jen": 7843,
      "phyas": 7844,
      "'grod": 7845,
      "rag+ta": 7846,
      "'ud": 7847,
      "bsngams": 7848,
      "tsaR+": 7849,
      "lid+ta": 7850,
      "muna": 7851,
      "t+yi": 7852,
      "t+t+wa": 7853,
      "k+sh+": 7854,
      "samA": 7855,
      "Sh+yan+ti": 7856,
      "s+kha": 7857,
      "'dred": 7858,
      "traka": 7859,
      "gomsa": 7860,
      "rngabs": 7861,
      "maHsu": 7862,
      "gdona": 7863,
      "d+h+mA": 7864,
      "d+h+yaH": 7865,
      "b+h+yaHswAhA": 7866,
      "rdzaugs": 7867,
      "kIrta": 7868,
      "ng+gi": 7869,
      "'goms": 7870,
      "h+r+aihls": 7871,
      "l-IM": 7872,
      "dush+tan+ta": 7873,
      "da~MSh+Ta": 7874,
      "kaiH": 7875,
      "phinya": 7876,
      "lam+bi": 7877,
      "mash+tsan+da": 7878,
      "kaR+ka": 7879,
      "muhs": 7880,
      "Tas": 7881,
      "an+te": 7882,
      "brengs": 7883,
      "myid": 7884,
      "stI": 7885,
      "wad+": 7886,
      "batsa": 7887,
      "yadz+nyo": 7888,
      "te'am": 7889,
      "phyol": 7890,
      "zhis": 7891,
      "barba": 7892,
      "ru~M": 7893,
      "cheda": 7894,
      "phyid": 7895,
      "'byong": 7896,
      "dbyugs": 7897,
      "phags": 7898,
      "brlangs": 7899,
      "brnyil": 7900,
      "basla": 7901,
      "leng": 7902,
      "brgya'": 7903,
      "d+a": 7904,
      "smAta": 7905,
      "'dra'am": 7906,
      "~M`": 7907,
      "'khras": 7908,
      "slab": 7909,
      "'jigsa": 7910,
      "skaM": 7911,
      "t+yam": 7912,
      "t+l-i": 7913,
      "k+na": 7914,
      "n+tha": 7915,
      "cen": 7916,
      "r+hi": 7917,
      "r+d+hi": 7918,
      "b+h+aum": 7919,
      "Sh+tsa": 7920,
      "s+yad": 7921,
      "Nama?": 7922,
      "g+sa": 7923,
      "g+b+h+yAM": 7924,
      "dz+dzA": 7925,
      "kAs": 7926,
      "gam+l-i": 7927,
      "gAng": 7928,
      "triH": 7929,
      "d+h+ma": 7930,
      "ut+sA": 7931,
      "hrIHbadzra": 7932,
      "ar+thA": 7933,
      "k+Sh+m+": 7934,
      "ban+d+hA": 7935,
      "s+yAd+": 7936,
      "big+h+naM": 7937,
      "b+h+r-ing": 7938,
      "barjo.": 7939,
      "y-ing": 7940,
      "phre~M": 7941,
      "lam+bo": 7942,
      "shin+tam": 7943,
      ".na": 7944,
      "D+ra": 7945,
      "ShoH": 7946,
      "Sh-i": 7947,
      "an+ya": 7948,
      "brga": 7949,
      "dbya": 7950,
      "ee": 7951,
      "sres": 7952,
      "bad+d+ha": 7953,
      "la'os": 7954,
      "heM": 7955,
      "tasta": 7956,
      "rok+ShA": 7957,
      "'dro": 7958,
      "rgyag": 7959,
      "ltara": 7960,
      "steH": 7961,
      "'byo": 7962,
      "lunga": 7963,
      "shiR+Sha": 7964,
      "sara": 7965,
      "sgugs": 7966,
      "tiSh+T": 7967,
      "bcu+u": 7968,
      "sha'i": 7969,
      "nuT": 7970,
      "khyar": 7971,
      "mu~m": 7972,
      "t+re": 7973,
      "ash+ta": 7974,
      "b+hak+Shi": 7975,
      "r+yas": 7976,
      "r+n+ri": 7977,
      "klur": 7978,
      "yAs": 7979,
      "Sh+ki": 7980,
      "praSh+Tha": 7981,
      "drana": 7982,
      "kyag": 7983,
      "sh+la": 7984,
      "narba": 7985,
      "stas": 7986,
      "sAts+tsha": 7987,
      "dziH": 7988,
      "d+heT": 7989,
      "baiDUR+Ya": 7990,
      "s+t+raM": 7991,
      "T+Thi": 7992,
      "p+pe": 7993,
      "p+y+aam": 7994,
      "auta": 7995,
      "seng+ha": 7996,
      "DApa": 7997,
      "g+huT+Ta": 7998,
      "[)]par": 7999,
      "dru~M": 8000,
      "TuH": 8001,
      "sh+ain+": 8002,
      "'adi'am": 8003,
      "rmus": 8004,
      "bldad": 8005,
      "pul+li": 8006,
      "aR+tha": 8007,
      "rad+na": 8008,
      "samyak+sam": 8009,
      "kruny+tsa": 8010,
      "Atra": 8011,
      "IM": 8012,
      "We": 8013,
      "]//": 8014,
      "a?": 8015,
      "drU": 8016,
      "grab": 8017,
      "hrA~M": 8018,
      "kyong": 8019,
      "lcig": 8020,
      "o+o": 8021,
      "pug": 8022,
      "uSh+mA": 8023,
      "pata": 8024,
      "baz": 8025,
      "baso": 8026,
      "bat+ta": 8027,
      "baR+ShA": 8028,
      "naT": 8029,
      "tses": 8030,
      "mana": 8031,
      "mata": 8032,
      "mag+ha": 8033,
      "maT+Ta": 8034,
      "mat+te": 8035,
      "bsnyam": 8036,
      "bsnub": 8037,
      "taT+Ta": 8038,
      "tur+": 8039,
      "ngasaH": 8040,
      "lom": 8041,
      "ste'ur": 8042,
      "kyis:": 8043,
      "kum+b+hi": 8044,
      "luTa": 8045,
      "dpa'as": 8046,
      "snums": 8047,
      "mdzed": 8048,
      "bskyam": 8049,
      "shas+t+ra": 8050,
      "nuka": 8051,
      "h+nu": 8052,
      "b+hag": 8053,
      "mchig": 8054,
      "khrib": 8055,
      "yas+": 8056,
      "spaR+sha": 8057,
      "guH": 8058,
      "dbyib": 8059,
      "mdo'": 8060,
      "lang+tha": 8061,
      "dipra": 8062,
      "snyog": 8063,
      "btsang": 8064,
      "shAm": 8065,
      "badzraM": 8066,
      "bsgrig": 8067,
      "zhub": 8068,
      "zhugas": 8069,
      "mastu": 8070,
      "r+d+h+wa": 8071,
      "r+No": 8072,
      "sarba~M": 8073,
      "Sh+yan": 8074,
      "s+thI": 8075,
      "dkona": 8076,
      "khanya": 8077,
      "ljong": 8078,
      "trak+sha": 8079,
      "d+hish+thi": 8080,
      "g+har": 8081,
      "btum": 8082,
      "k+Shu~M": 8083,
      "mcheda": 8084,
      "baiDUR+ya": 8085,
      "dzahzhesa": 8086,
      "ng+gA": 8087,
      "shany+tsa": 8088,
      "hoHsu": 8089,
      "'dzems": 8090,
      "'ada": 8091,
      "brer": 8092,
      "sid+d+hiM": 8093,
      "bsubs": 8094,
      "bstana": 8095,
      "r-IH": 8096,
      "d+h+yai": 8097,
      "b+han+d+har": 8098,
      "dz+har": 8099,
      "ldibs": 8100,
      "bar+g+": 8101,
      "'ag'a": 8102,
      "bstungs": 8103,
      "kan+tha": 8104,
      "bakaga": 8105,
      "sany+tso": 8106,
      "hA+o+uM": 8107,
      "sh+ain+tam": 8108,
      "'ung": 8109,
      "dbar": 8110,
      "dbyang": 8111,
      "i~M": 8112,
      "iSh+Nu": 8113,
      "ldags": 8114,
      "rdeng": 8115,
      "srig": 8116,
      "snyag": 8117,
      "ba:": 8118,
      "na:": 8119,
      "daN+DA": 8120,
      "suma": 8121,
      "sungs": 8122,
      "bzhig": 8123,
      "dzre": 8124,
      "kyisaH": 8125,
      "kan+ti": 8126,
      "lungs": 8127,
      "shapa": 8128,
      "dga'/": 8129,
      "bduda": 8130,
      "warti": 8131,
      "mthung": 8132,
      "'un": 8133,
      "'khyugs": 8134,
      "phobs": 8135,
      "t+t+aa": 8136,
      "sarti": 8137,
      "dzai": 8138,
      "nag+na": 8139,
      "wAH": 8140,
      "bid+ha": 8141,
      "n+sau": 8142,
      "rnel": 8143,
      "masta": 8144,
      "gco": 8145,
      "swAM": 8146,
      "r+Ne": 8147,
      "yAtra": 8148,
      "ShaT+": 8149,
      "s+n+": 8150,
      "s+w+aam": 8151,
      "brir": 8152,
      "sid+h+ya": 8153,
      "g+d+ha": 8154,
      "g+hu~M": 8155,
      "g+b+hiH": 8156,
      "y+r-i": 8157,
      "bsngogs": 8158,
      "sh+tsu": 8159,
      "byil": 8160,
      "btubs": 8161,
      "b+hAM": 8162,
      "d+yau": 8163,
      "rtswas": 8164,
      "dzaHbadzra": 8165,
      "ng+h+ya": 8166,
      "hrIHoM": 8167,
      "d+harmaH": 8168,
      "gshongs": 8169,
      "'khyamsa": 8170,
      "'khyar": 8171,
      "kar+m+mA": 8172,
      "'chong": 8173,
      "tsoH": 8174,
      "k+ShAn+ti": 8175,
      "b+h+yohb+h+yoh": 8176,
      "sang+g+ha": 8177,
      "aR+ha": 8178,
      "yur+dz+nyA": 8179,
      "yur+dz+nya": 8180,
      "rak+ShAM": 8181,
      "28": 8182,
      "31": 8183,
      "4dang": 8184,
      "5dang": 8185,
      "Ir": 8186,
      "ThaM": 8187,
      "blus": 8188,
      "bgas": 8189,
      "bgag": 8190,
      "bldabs": 8191
    },
    "merges": [
      "n g",
      "p a",
      "D I",
      "T I",
      "< E",
      "N _",
      "O N_",
      "DI TI",
      "<E DITI",
      "<EDITI ON_",
      "a ng",
      "y i",
      "b a",
      "D >",
      "<EDITION_ D>",
      "n a",
      "' i",
      "l a",
      "g s",
      "y a",
      "h a",
      "h e",
      "d ang",
      "d e",
      "d a",
      "m s",
      "pa r",
      "t s",
      "h o",
      "d u",
      "h i",
      "y e",
      "m a",
      "N >",
      "<EDITION_ N>",
      "b s",
      "k yi",
      "r a",
      "H >",
      "<EDITION_ H>",
      "y u",
      "n i",
      "y ang",
      "b ya",
      "y o",
      "t a",
      "J >",
      "<EDITION_ J>",
      "t e",
      "p h",
      "he s",
      "r na",
      "n yi",
      "p o",
      "da g",
      "h u",
      "/ /",
      "z hi",
      "d o",
      "r g",
      "na s",
      "yi n",
      "m i",
      "' o",
      "r i",
      "r o",
      "c a",
      "' d",
      "t o",
      "g yi",
      "rg ya",
      "m e",
      "t ha",
      "s o",
      "' g",
      "ba r",
      "r u",
      "nyi d",
      "yu r",
      "z hes",
      "ye d",
      "s e",
      "s u",
      "ng s",
      "s k",
      "me d",
      "b zhi",
      "t u",
      "c ho",
      "c i",
      "se ms",
      "g i",
      "l ta",
      "la s",
      "k h",
      "'d i",
      "b u",
      "ng a",
      "rna ms",
      "c he",
      "g z",
      "ng o",
      "rna m",
      "s hes",
      "bzhi n",
      "d g",
      "l o",
      "r j",
      "pa s",
      "s te",
      "ph yi",
      "ha n",
      "b yed",
      "d z",
      "da n",
      "g ang",
      "ca d",
      "m o",
      "' b",
      "c hu",
      "l dan",
      "'g yur",
      "yo d",
      "t ho",
      "e s",
      "b c",
      "tha ms",
      "r ang",
      "s to",
      "cho s",
      "a m",
      "phyi r",
      "g o",
      "che n",
      "s p",
      "o d",
      "j i",
      "k ha",
      "kyi s",
      "d pa",
      "gs u",
      "ra b",
      "b yang",
      "g nas",
      "k u",
      "ta n",
      "k ho",
      "d b",
      "ca n",
      "k a",
      "lta r",
      "ts ho",
      "' da",
      "ang s",
      "l u",
      "b dag",
      "yu ng",
      "k yang",
      "n ya",
      "r e",
      "ci g",
      "b z",
      "r ts",
      "s hi",
      "chu b",
      "gyi s",
      "so gs",
      "' du",
      "n o",
      "p ha",
      "'da s",
      "a d",
      "b o",
      "bc o",
      "g yur",
      "do n",
      "a l",
      "rgya s",
      "sk ye",
      "rj e",
      "g nyi",
      "c ha",
      "gnyi s",
      "' kho",
      "ku n",
      "bco m",
      "ro l",
      "l ha",
      "ru b",
      "s a",
      "dpa '",
      "'kho r",
      "sto ng",
      "bya s",
      "s b",
      "t hu",
      "s g",
      "m ts",
      "gi s",
      "s angs",
      "dg e",
      "s n",
      "r do",
      "yo ngs",
      "r dz",
      "ngo n",
      "gz han",
      "rg yu",
      "ra s",
      "rgya l",
      "z i",
      "m cho",
      "n ye",
      "gsu m",
      "te n",
      "db ang",
      "b r",
      "yo r",
      "zi n",
      "zhi ng",
      "ba s",
      "' ji",
      "g a",
      "bs tan",
      "yo n",
      "ha d",
      "t i",
      "sp yod",
      "gz u",
      "ts he",
      "g cig",
      "gs he",
      "u g",
      "l e",
      "r to",
      "c es",
      "' do",
      "'d zin",
      "b rgya",
      "mts han",
      "s nga",
      "ts hi",
      "d +",
      "gshe gs",
      "' j",
      "ci ng",
      "s lo",
      "r ten",
      "ph yin",
      "b de",
      "m ngon",
      "m tho",
      "rdz o",
      "ts hu",
      "ph ya",
      "a '",
      "g rub",
      "'do d",
      "phya g",
      "tsho gs",
      "da m",
      "lu s",
      "'b yung",
      "'ji g",
      "rdzo gs",
      "du s",
      "ngo s",
      "mtho ng",
      "z he",
      "'g ro",
      "ra g",
      "s m",
      "m dz",
      "b yung",
      "ri g",
      "shi ng",
      "ri gs",
      "b rj",
      "nya m",
      "z a",
      "m kha",
      "d ngos",
      "ri n",
      "m tha",
      "bs k",
      "zhi g",
      "' am",
      "l nga",
      "sk u",
      "bc u",
      "tshu l",
      "brj od",
      "mcho g",
      "s ha",
      "nyi ng",
      "gsu ngs",
      "sn ang",
      "yi d",
      "gs o",
      "tshi g",
      "la m",
      "gzu gs",
      "de s",
      "r ta",
      "sk ad",
      "yo gs",
      "g .",
      "rj es",
      "ye n",
      "h A",
      "s nying",
      "skye s",
      "rts a",
      "kha ms",
      "ha l",
      "u ng",
      "ra l",
      "sto n",
      "ph yogs",
      "du g",
      "tho b",
      "e r",
      "'b yor",
      "hu gs",
      "b ca",
      "ru l",
      "snga gs",
      "bs am",
      "dg a'",
      "bs had",
      "n u",
      "ru ng",
      "c hi",
      "sb yin",
      "la g",
      "kh ya",
      "slo ng",
      "h +",
      "cha gs",
      "b du",
      "na m",
      "n ang",
      "kyi l",
      "ma r",
      "s na",
      "'j ug",
      "bca s",
      "gso l",
      "'du s",
      "' ph",
      "ru g",
      "d kyil",
      "'o d",
      "ka '",
      "rto g",
      "b +",
      "yu l",
      "d mi",
      "s go",
      "dmi gs",
      "la gs",
      "'b ras",
      "re g",
      "w a",
      "d ri",
      "mtha '",
      "ya n",
      "bs go",
      "mcho d",
      "ha g",
      "sb yor",
      "lu ng",
      "mdz ad",
      "nya n",
      "yi s",
      "shi n",
      "d rug",
      "bya r",
      "g e",
      "brgya d",
      "d bu",
      "sm ras",
      "r k",
      "b yin",
      "ng es",
      "b gyi",
      "rto gs",
      "nga n",
      "d p",
      "m yi",
      "b la",
      "rta g",
      "da d",
      "g ro",
      "ts am",
      "gs ang",
      "tho s",
      "t he",
      "do g",
      "sg ra",
      "ti ng",
      "s dug",
      "po s",
      "m thu",
      "' u",
      "b ral",
      "m kh",
      "rgyu d",
      "m nyam",
      "gs al",
      "mi n",
      "kh yod",
      "ts had",
      "' ang",
      "ts al",
      "lo g",
      "u n",
      "s ri",
      "m chi",
      "g al",
      "b ka'",
      "ts hal",
      "b rts",
      "s mo",
      "o n",
      "bs nga",
      "ts a",
      "bsk yed",
      "mkh yen",
      "thu gs",
      "ma n",
      "g ts",
      "kh ri",
      "rang s",
      "' pha",
      "po r",
      "mkha '",
      "h ang",
      "ya s",
      "sri d",
      "s ngon",
      "tha bs",
      "mo ngs",
      "g to",
      "'d ra",
      "su m",
      "le gs",
      "dpa l",
      "n yon",
      "yo ng",
      "'pha gs",
      "h U",
      "m ang",
      "s pa",
      "ra n",
      "kh ro",
      "m tsho",
      "mi g",
      "cha d",
      "dg o",
      "z hugs",
      "z la",
      "s tsal",
      "g u",
      "s nyam",
      "b k",
      "m ya",
      "sg rub",
      "ka r",
      "~ M",
      "'di r",
      "ng e",
      "mchi s",
      "bsnga l",
      "db yi",
      "nye n",
      "z ad",
      "' kh",
      "ri m",
      "b lo",
      "bz ang",
      "slo b",
      "rna l",
      "sto bs",
      "bsgo m",
      "g tan",
      "ro g",
      "g zhi",
      "s byar",
      "m yed",
      "s la",
      "nye s",
      "ra m",
      "' tshal",
      "bs ku",
      "khya d",
      "l i",
      "m do",
      "p ho",
      "bdu d",
      "yu g",
      "g n",
      "nya ms",
      "bs grub",
      "la n",
      "bdu n",
      "re l",
      "l ang",
      "lha g",
      "b ye",
      "d+ ha",
      "d i",
      "ba dz",
      "gn od",
      "ru s",
      "de r",
      "mi ng",
      "m u",
      "so ng",
      "o M",
      "mthu n",
      "t hi",
      "dg ra",
      "tsho r",
      "na d",
      "pa d+",
      "g rangs",
      "'ji gs",
      "nu s",
      "khya b",
      "go s",
      "rk yen",
      "ri ng",
      "sk a",
      "mkha s",
      "p han",
      "to g",
      "kh yi",
      "'du n",
      "sm ra",
      "t +",
      "z er",
      "no r",
      "tu ng",
      "shi g",
      "dbyi ngs",
      "the g",
      "rts i",
      "m go",
      "d ran",
      "brts on",
      "sa r",
      "sn yo",
      "le n",
      "ta gs",
      "bz hugs",
      "r lung",
      "'ph rul",
      "g rol",
      "b lta",
      "db ye",
      "snyo ms",
      "'du g",
      "gsu ng",
      "ph rag",
      "ph u",
      "pad+ ma",
      "dz a",
      "bde n",
      "chu ng",
      "na g",
      "na ms",
      "l angs",
      "o r",
      "b ts",
      "so r",
      "d kar",
      "za g",
      "khyi m",
      "bz las",
      "mtha r",
      "w A",
      "nga g",
      "ts ha",
      "ri s",
      "dbu s",
      "gz i",
      "a s",
      "dpa g",
      "ph ung",
      "'o g",
      "mts ha",
      "du l",
      "s de",
      "s rog",
      "tha r",
      "s hu",
      "k +",
      "rts e",
      "ya d",
      "g da",
      "b i",
      "bs od",
      "spa ngs",
      "ra gs",
      "mo s",
      "l tung",
      "khri ms",
      "s hA",
      "gz hag",
      "'o ng",
      "badz ra",
      "bu m",
      "o g",
      "k hu",
      "ste ng",
      "gzu ng",
      "ri b",
      "n +",
      "g. yo",
      "s po",
      "sp yan",
      "bu r",
      "bs g",
      "ga r",
      "' bar",
      "d po",
      "kh ye",
      "bz ung",
      "s min",
      "la b",
      "r n",
      "t ang",
      "z hu",
      "'b rel",
      "gz hu",
      "bz od",
      "b cad",
      "c e",
      "la bs",
      "tshi gs",
      "gz ho",
      "ts h",
      "d mar",
      "che d",
      "ph ra",
      "s am",
      "dpo n",
      "re ng",
      "sp rul",
      "kh rag",
      "smo s",
      "sha r",
      "sp ro",
      "'g rub",
      "dg u",
      "sp yi",
      "' chi",
      "smo n",
      "bz hag",
      "ba b",
      "z ha",
      "rgyu n",
      "a a",
      "kh ang",
      "dgo ngs",
      "ska bs",
      "sn yed",
      "rn yed",
      "s di",
      "br ten",
      "bsku r",
      "rk ang",
      "g. yas",
      "r es",
      "tsh angs",
      "'j am",
      "z hal",
      "- i",
      "bs nyen",
      "pa 'am",
      "bsk or",
      "br tan",
      "l hu",
      "bs dus",
      "byang s",
      "l han",
      "rgya n",
      "a g",
      "s man",
      "'du l",
      "ma s",
      "bgyi d",
      "ph yug",
      "dp er",
      "tho gs",
      "za s",
      "hU M",
      "'di s",
      "b+ ha",
      "g c",
      "bs a",
      "sdi g",
      "cha r",
      "mtsha ms",
      "s wA",
      "g. yon",
      "lo ngs",
      "du ng",
      "sp yad",
      "p he",
      "dgo s",
      "sla d",
      "tho g",
      "o l",
      "ca g",
      "z e",
      "rdz as",
      "ng u",
      "r +",
      "k lu",
      "brgya n",
      "c hang",
      "bs ka",
      "thu n",
      "'o ngs",
      "bts un",
      "s do",
      "sg yu",
      "s ho",
      "snga r",
      "gro ng",
      "hU ~M",
      "sk yed",
      "ba g",
      "b langs",
      "na n",
      "g rags",
      "l dog",
      "se r",
      "bu d",
      "d rag",
      "bs lab",
      "o m",
      "tha l",
      "c u",
      "gs er",
      "bska l",
      "ph ye",
      "b+ h+",
      "thu b",
      "m nga",
      "ph reng",
      "sb yong",
      "' phe",
      "thi g",
      "b ram",
      "y A",
      "bya ms",
      "r -i",
      "d ka'",
      "tha g",
      "khye r",
      "chu d",
      "go ng",
      "ta g",
      "d wa",
      "p u",
      "l ce",
      "r A",
      "'g rus",
      "za b",
      "gc od",
      "nu b",
      "gts o",
      "sar ba",
      "mts hu",
      "du d",
      "k ye",
      "e n",
      "b tang",
      "mtshu ngs",
      "spo ng",
      "ph yed",
      "r dul",
      "mtsho n",
      "mdz es",
      "g nyen",
      "spa ng",
      "s rung",
      "S h+",
      "l to",
      "yi g",
      "b rag",
      "li ng",
      "pha T",
      "sg rib",
      "u m",
      "S ha",
      "' tsho",
      "sk yon",
      "db en",
      "lu gs",
      "sg ro",
      "b ku",
      "m yong",
      "s +",
      "gzho n",
      "'kh rul",
      "s h",
      "d k",
      "rdz u",
      "r lo",
      "gzi gs",
      "bo r",
      "br tags",
      "b ri",
      "ta b",
      "nga s",
      "sn od",
      "s dang",
      "s i",
      "'phe l",
      "gto r",
      "lo ng",
      "gto gs",
      "gzu ngs",
      "m ched",
      "b ci",
      "ba d",
      "p ra",
      "sgo m",
      "b tab",
      "m dog",
      "b tags",
      "rta gs",
      "'o n",
      "l ca",
      "to d",
      "@ #",
      "bo n",
      "bci ngs",
      "yu m",
      "sk ya",
      "ts hang",
      "n A",
      "bs gyur",
      "s ras",
      "bs tod",
      "g don",
      "bk od",
      "d rang",
      "' chang",
      "g ta",
      "du n",
      "N a",
      "g +",
      "d byangs",
      "ba 'am",
      "'ph ro",
      "s he",
      "no n",
      "lca gs",
      "gto ng",
      "dz +",
      "sp rin",
      "ng ang",
      "bsgo ms",
      "c hes",
      "zhe n",
      "kho ng",
      "bsa ms",
      "bo s",
      "s rin",
      "m yur",
      "bs rung",
      "sla r",
      "zha bs",
      "bco s",
      "ma d",
      "se ng",
      "'g al",
      "sdo m",
      "'b ru",
      "kh yed",
      "t A",
      "ph un",
      "do ng",
      "gts ug",
      "bya d",
      "bs du",
      "thu g",
      "'d re",
      "'d res",
      "br labs",
      "gts ang",
      "bu s",
      "'g a'",
      "che r",
      "'j o",
      "nyi n",
      "mdz od",
      "dp e",
      "m dun",
      "m A",
      "k A",
      "' chad",
      "' thob",
      "z hag",
      "g ri",
      "s reg",
      "gro s",
      "T a",
      "k han",
      "'jo ms",
      "gs hi",
      "l ho",
      "bz log",
      "ya b",
      "phu l",
      "tho d",
      "dg od",
      "m khan",
      "'g ag",
      "l j",
      "spro s",
      "bz a'",
      "'d z",
      "t ra",
      "mgo n",
      "tsho m",
      "bku r",
      "br tag",
      "gzhu g",
      "g lang",
      "do r",
      "nye r",
      "d myi",
      "dmyi gs",
      "m ug",
      "mo d",
      "'g og",
      "se l",
      "k i",
      "brts e",
      "g ti",
      "g ling",
      "'b yin",
      "bc ug",
      "t hA",
      "d+ hi",
      "rlo m",
      "b lang",
      "mya l",
      "d myal",
      "nga m",
      "re d",
      "gshi n",
      "mnga '",
      "y +",
      "ts i",
      "bsku l",
      "ph yung",
      "c ung",
      "lto s",
      "' pho",
      "g am",
      "o s",
      "pa d",
      "gda b",
      "rg a",
      "' bum",
      "' byed",
      "s pos",
      "b e",
      "s nyan",
      "b gyis",
      "g du",
      "e d",
      "dbu l",
      "sho g",
      "zhu s",
      "'da b",
      "nya d",
      "'dre n",
      "'da '",
      "u b",
      "yang s",
      "khro d",
      "ru bs",
      "gz hal",
      "g dan",
      "' tha",
      "b rtsa",
      "phu r",
      "g tu",
      "r mi",
      "thu ng",
      "r I",
      "sp u",
      "bs ha",
      "tu l",
      "g ru",
      "ge gs",
      "brtsa ms",
      "da r",
      "N +",
      "m un",
      "re gs",
      "sk yong",
      "hu m",
      "lhu n",
      "sk al",
      "du r",
      "ba m",
      "sk yo",
      "m nyan",
      "br nyan",
      "d ro",
      "lhu ng",
      "d ra",
      "'kh ru",
      "g dung",
      "d rung",
      "s red",
      "@# //",
      "b ris",
      "gu s",
      "h+ a",
      "bs al",
      "gzhu ng",
      "dri l",
      "bs ngo",
      "k ya",
      "s tan",
      "kha s",
      "s nyad",
      "r labs",
      "blta s",
      "bsg rubs",
      "' de",
      "bsk yod",
      "g nang",
      "br da",
      "g non",
      "s dud",
      "tshu n",
      "+ aa",
      "gro gs",
      "dbu gs",
      "skya bs",
      "s h+",
      "z ho",
      "s mad",
      "tshu r",
      "a gs",
      "phyi s",
      "b gegs",
      "lo s",
      "b+ hi",
      "s ro",
      "gda gs",
      "r mongs",
      "b A",
      "h+a um",
      "bs ten",
      "sg rol",
      "l te",
      "ra d",
      "' bab",
      "ri ms",
      "b tsal",
      "b yis",
      "yu d",
      "b yi",
      "m gu",
      "bk ra",
      "ye s",
      "shi s",
      "g dug",
      "sku r",
      "yo s",
      "'j og",
      "a r",
      "g rang",
      "p A",
      "c ang",
      "N i",
      "sk ra",
      "mdo r",
      "dbye r",
      "'do gs",
      "ph rin",
      "rdzo b",
      "mo ng",
      "bsnga gs",
      "na r",
      "ru ngs",
      "g dul",
      "s byangs",
      "p i",
      "' ba",
      "rts al",
      "s gyur",
      "m nan",
      "' tshang",
      "dri s",
      "s ta",
      "sro ng",
      "m nyes",
      "ts +",
      "'de bs",
      "bz he",
      "bs nams",
      "yu n",
      "r ma",
      "dk on",
      "bs hes",
      "'g rel",
      "ste gs",
      "dp ung",
      "tsho l",
      "k o",
      "n e",
      "+ ra",
      "i d",
      "h+ aa",
      "b ka",
      "b+h+ yo",
      "rts ol",
      "k lung",
      "brj id",
      "ba l",
      "'g ags",
      "nya l",
      "ska r",
      "rts od",
      "dg ag",
      "z ung",
      "'ba '",
      "sh wa",
      "mtsha r",
      "m g",
      "g nyer",
      "k e",
      "go ms",
      "d rangs",
      "zha gs",
      "dg yes",
      "zi l",
      "'o s",
      "k+ Sha",
      "d man",
      "s wa",
      "de ng",
      "s A",
      "' don",
      "g dong",
      "m da",
      "g A",
      "' char",
      "D a",
      "sb rul",
      "badz +ra",
      "lo gs",
      "gta m",
      "g lu",
      "ci r",
      "shA kya",
      "ka u",
      "gdu gs",
      "yu gs",
      "ma l",
      "m thi",
      "mo r",
      "Sh+ T",
      "bsa gs",
      "b od",
      "'khru gs",
      "br tul",
      "d+ hA",
      "k ro",
      "m j",
      "bzhi r",
      "u gs",
      "' bu",
      "gs od",
      "a i",
      "s byang",
      "s ti",
      "b rang",
      "u r",
      "gda ms",
      "g+ ha",
      "g. ye",
      "b tsa",
      "bca '",
      "br kyang",
      "'d ri",
      "t+ ta",
      "do gs",
      "m the",
      "bo ng",
      "' bad",
      "mda '",
      "na gs",
      "du m",
      "u d",
      "gta d",
      "k yu",
      "tsho d",
      "sha s",
      "sgro n",
      "br lab",
      "s hugs",
      "b cing",
      "'kho d",
      "g le",
      "z os",
      "di ng",
      "r nga",
      "kh rus",
      "e bs",
      "g te",
      "' cha",
      "'b ring",
      "mdz ub",
      "b dug",
      "bcu d",
      "gte r",
      "b tu",
      "bz ed",
      "d pas",
      "ma H",
      "s tag",
      "sk rag",
      "dbyi bs",
      "bsha gs",
      "tsho n",
      "ra bs",
      "bs ad",
      "pa n",
      "b rgyud",
      "g do",
      "'bu l",
      "tsho ng",
      "phra d",
      "lj ang",
      "cho d",
      "ya H",
      "' tshe",
      "r bad",
      "man +",
      "lo n",
      "k long",
      "pha l",
      "'kh rug",
      "dang s",
      "rg od",
      "'b ebs",
      "pha t",
      "ya l",
      "b yon",
      "nu r",
      "da l",
      "s ts",
      "'g rib",
      "k he",
      "b gro",
      "kh rig",
      "' thung",
      "~ m",
      "gle ng",
      "'ph rog",
      "d bab",
      "t hang",
      "n yung",
      "mg rin",
      "ri l",
      "'tha d",
      "b tung",
      "db yung",
      "y+ tsa",
      "g.yo s",
      "spo bs",
      "yu ngs",
      "ga s",
      "s bo",
      "r+ ya",
      "b yug",
      "g lo",
      "khu ng",
      "a n",
      "'b rang",
      "tshi m",
      "'ph ang",
      "s ngo",
      "thi m",
      "gtu m",
      "brtse gs",
      "gshe d",
      "T A",
      "pha m",
      "t ri",
      "rg yur",
      "kha r",
      "sb rang",
      "rgyu s",
      "blo n",
      "sbo m",
      "dg ug",
      "'dz am",
      "k+ S",
      "dp yad",
      "l dang",
      "' thun",
      "sg ras",
      "lha gs",
      "g nad",
      "bgro d",
      "'b ral",
      "d ma",
      "dz+ n",
      "+ b+",
      "dg on",
      "ste r",
      "g cad",
      "dp yod",
      "rdz un",
      "b lugs",
      "bk ang",
      "rgya b",
      "rdz i",
      "d A",
      "ngu l",
      "pa gs",
      "sts ol",
      "ro s",
      "'tha b",
      "rj od",
      "sgro gs",
      "khro s",
      "ka n",
      "rts om",
      "cho g",
      "'chi ng",
      "ra k+",
      "tsa n+",
      "d+ h+",
      "r mad",
      "dz i",
      "dwa gs",
      "pha b",
      "b gos",
      "to n",
      "ts han",
      "chu s",
      "rtsi bs",
      "pha g",
      "m +",
      "bs reg",
      "l de",
      "ba bs",
      "b ran",
      "i l",
      "z ur",
      "b lu",
      "bsg ral",
      "'do r",
      "bs ti",
      "ts hes",
      "d ngul",
      "tsha r",
      "bka g",
      "l A",
      "bzhi s",
      "b zhes",
      "ra t+",
      "g tang",
      "ma m",
      "l ding",
      "d+ d+ha",
      "d byar",
      "g nyid",
      "s ra",
      "ts+ tsha",
      "ta m",
      "rg al",
      "ti l",
      "hu ~m",
      "n I",
      "tsi t+ta",
      "zhi m",
      "kh ru",
      "bzhe d",
      "bs regs",
      "bku g",
      "lta s",
      "mnga l",
      "z ug",
      "bsg rags",
      "sar +b+",
      "b+ hA",
      "rat+ na",
      "b+h+ yaH",
      "k ra",
      "sa M",
      "sa t",
      "d+ ya",
      "R +",
      "l ci",
      "dg as",
      "r wa",
      "lnga s",
      "she l",
      "u 0",
      "\\ u0",
      "\\u0 f",
      "mthu s",
      "m che",
      "cha s",
      "rga n",
      "sar+b+ ba",
      "'kh yi",
      "dz+n yA",
      "sk om",
      "b grang",
      "rg ol",
      "rdz a",
      "k log",
      "bz ad",
      "br nyes",
      "i gs",
      "m yos",
      "d+ he",
      "gu d",
      "she d",
      "lu m",
      "'khyi l",
      "dz+ wa",
      "mj ug",
      "go l",
      "skyo b",
      "bs il",
      "< D",
      "C _",
      "O C_",
      "R T",
      "S TA",
      "<D OC_",
      "RT >",
      "STA RT>",
      "<DOC_ START>",
      "db yug",
      "sgo r",
      "kha b",
      "nyi s",
      "g. yogs",
      "pha ta",
      "gz a'",
      "A H",
      "bu 'am",
      "' tho",
      "gdo d",
      "d regs",
      "g yen",
      "'g yed",
      "ba i",
      "da ms",
      "u t+",
      "mthi ng",
      "to r",
      "'phro s",
      "bs dams",
      "o ng",
      "rts ub",
      "s bas",
      "yo g",
      "spyi r",
      "k r-i",
      "ya m",
      "gs ad",
      "sto d",
      "d+ hu",
      "'g od",
      "m dangs",
      "n+ d+ha",
      "ph ran",
      "g ung",
      "dro d",
      "cha g",
      "s ad",
      "mkha r",
      "g.yo g",
      "gzho l",
      "tha b",
      "'pho s",
      "rje d",
      "ga u",
      "yo l",
      "b rdzun",
      "'dz um",
      "khya ms",
      "sdo ng",
      "N+ Da",
      "rts wa",
      "e l",
      "z lum",
      "N+ D",
      "bcu r",
      "bzhe ngs",
      "sg rog",
      "'g yod",
      "g ci",
      "myi g",
      "s rang",
      "'g ram",
      "khri d",
      "ut+ pa",
      "b yugs",
      "tshu gs",
      "za n",
      "re ngs",
      "lnga r",
      "su s",
      "sku d",
      "N A",
      "k I",
      "kha m",
      "dz A",
      "smo d",
      "la d",
      "g.ye ng",
      "r kun",
      "ti g",
      "ph ug",
      "brts am",
      "sri ng",
      "s+ t+",
      "h ri",
      "mkh ris",
      "ga n",
      "'kh yud",
      "zho n",
      "t I",
      "h I",
      "ha M",
      "o ~M",
      "g ting",
      "ri bs",
      "s+ ya",
      "me s",
      "z ang",
      "e g",
      "b+ hu",
      "c od",
      "'du d",
      "gs ar",
      "dg a",
      "h rI",
      "swA hA",
      "b ro",
      "ya r",
      "T +",
      "lha r",
      "khu r",
      "z log",
      "z angs",
      "b go",
      "gu r",
      "bs rungs",
      "mdz a'",
      "mthi l",
      "de g",
      "sp el",
      "D +",
      "r+ ai",
      "g can",
      "sha m",
      "g nag",
      "bsk ol",
      "s bu",
      "su n",
      "s kyil",
      "' thu",
      "sk or",
      "gzi r",
      "g. yul",
      "la r",
      "z los",
      "lha s",
      "bsg ribs",
      "lj on",
      "ngu r",
      "btsa s",
      "tha d",
      "p U",
      "u l",
      "tsan+ dan",
      "pu s",
      "sn um",
      "g ra",
      "gs an",
      "tsa n",
      "sk am",
      "dma g",
      "b rjed",
      "'d zag",
      "sk e",
      "s nam",
      "bts ugs",
      "ba n",
      "dk ris",
      "bsha ms",
      "si l",
      "bs res",
      "btu d",
      "s lu",
      "ta d+ya",
      "g log",
      "m chu",
      "n+ ya",
      "o ngs",
      "gi r",
      "da gs",
      "p +",
      "r ngu",
      "bs lang",
      "'gro gs",
      "bz la",
      "bk ru",
      "phu d",
      "l +",
      "b I",
      "k rung",
      "dza h",
      "n+ ta",
      "bsk rad",
      "zhu m",
      "btsa n",
      "pho g",
      "rlo b",
      "gz er",
      "g yon",
      "nga l",
      "dza H",
      "ca r",
      "rg yang",
      "ng +",
      "ya M",
      "rdzi ng",
      "'da m",
      "w +aa",
      "' phya",
      "s ma",
      "man+ ta",
      "\\u0f 8",
      "m yu",
      "bs hang",
      "'cha l",
      "s nyi",
      "'ph ye",
      "shu l",
      "bs labs",
      "hu ~M",
      "kh yud",
      "d w",
      "bu d+d+ha",
      "rak+ ta",
      "m dud",
      "kh yu",
      "// /",
      "pad+ mo",
      "'g ugs",
      "Sh+T ha",
      "Sh+ Ta",
      "kho ngs",
      "gzho m",
      "zi ng",
      "dp ral",
      "gtu gs",
      "g nam",
      "pho ngs",
      "gang +",
      "k ri",
      "lu g",
      "nya s",
      "'ph rin",
      "r no",
      "ba M",
      "so s",
      "'phe n",
      "ra M",
      "bsk ang",
      "rtsi s",
      "S hi",
      "g+ h+",
      "c han",
      "sg eg",
      "m dung",
      "b ton",
      "hrI H",
      "'tho r",
      "r non",
      "g legs",
      "a u",
      "ri ngs",
      "gzhi r",
      "dg rol",
      "kar ma",
      "ts A",
      "b+ han",
      "o gs",
      "s mig",
      "de d",
      "zhi b",
      "s tu",
      "sp ras",
      "\\u0f8 5",
      "s bal",
      "bz angs",
      "b yos",
      "sh rI",
      "so n",
      "se n",
      "nga r",
      "na M",
      "'u r",
      "sp rad",
      "e ngs",
      "bs ho",
      "g ya",
      "g r-i",
      "sat wA",
      "po 'am",
      "p e",
      "bz ho",
      "'thu ngs",
      "b ra",
      "thu r",
      "s ba",
      "br lag",
      "' tsha",
      "mnga r",
      "kho r",
      "ts u",
      "b tul",
      "c og",
      "bc ang",
      "hu d",
      "sta bs",
      "'do ng",
      "cha b",
      "d+ha rma",
      "bco l",
      "byi ngs",
      "blo s",
      "tsh wa",
      "bs hi",
      "sho s",
      "gang+ gA",
      "m yang",
      "no l",
      "bsku s",
      "bz had",
      "'g ul",
      "s rungs",
      "dbyi g",
      "ru gs",
      "gdu ngs",
      "r nying",
      "s han",
      "ts e",
      "de ngs",
      "gz ar",
      "s+ w+aa",
      "pha s",
      "gc er",
      "br nyas",
      "bz o",
      "blu d",
      "g rib",
      "br deg",
      "r ngam",
      "sn ye",
      "tshe r",
      "lj ongs",
      "mgu l",
      "g ram",
      "s ang",
      "r U",
      "bsti m",
      "g er",
      "t+ ma",
      "b ang",
      "bs ngos",
      "ni ng",
      "m nar",
      "g. yang",
      "T i",
      "kh A",
      "t+ ya",
      "b yol",
      "sku l",
      "d par",
      "cho m",
      "ho H",
      "' khri",
      "k og",
      "no m",
      "bsg reng",
      "d+ d+hi",
      "ru m",
      "l kog",
      "'ph angs",
      "dma '",
      "gso g",
      "bcu s",
      "nA M",
      "mtho n",
      "bshi g",
      "m r-i",
      "bk rus",
      "d I",
      "s kyi",
      "gs ho",
      "sdo d",
      "bzho n",
      "ba n+d+ha",
      "'d ze",
      "brgya r",
      "- I",
      "wa M",
      "ma ud",
      "rn yog",
      "ci s",
      "dz u",
      "b+ hU",
      "d rin",
      "shin y+tsa",
      "rje r",
      "gso s",
      "g dangs",
      "r ku",
      "ph ro",
      "bsho s",
      "bs nu",
      "'g yu",
      "rgya r",
      "g ces",
      "g ug",
      "sp yang",
      "@# #",
      "gu l",
      "l pags",
      "tshi l",
      "mj ed",
      "dg ang",
      "gts igs",
      "w ang",
      "'gro r",
      "bsnu n",
      "kh ra",
      "bk res",
      "sh ri",
      "bs nol",
      "' a",
      "lo r",
      "rtsi g",
      "myi ng",
      "b rgyal",
      "b re",
      "'b rug",
      "d+ ra",
      "a r+",
      "bk ram",
      "spro d",
      "gso n",
      "sh I",
      "tsha bs",
      "Sh+ ya",
      "pu r",
      "k las",
      "g ad",
      "gn yug",
      "g rwa",
      "pho r",
      "t angs",
      "s I",
      "ma 'am",
      "rgyu g",
      "mgu r",
      "sbu bs",
      "ka M",
      "b rna",
      "me n",
      "mtsho r",
      "N I",
      "s ran",
      "n od",
      "b rgal",
      "mi r",
      "s U",
      "go n",
      "'b ri",
      "br ta",
      "ho h",
      "du ngs",
      "rgya gs",
      "+ ga",
      "s tangs",
      "ka H",
      "mg yogs",
      "g ding",
      "ha m",
      "h+ ya",
      "k+S hi",
      "m angs",
      "sdi gs",
      "phe bs",
      "s tang",
      "brts i",
      "sat wa",
      "ti Sh+Tha",
      "'ph yang",
      "lha m",
      "b ting",
[...]
