{
  "version": "1.0",
  "truncation": null,
  "padding": null,
  "added_tokens": [
    {
      "id": 0,
      "content": "<unk>",
      "single_word": false,
      "lstrip": false,
      "rstrip": false,
      "normalized": false,
      "special": true
    },
    {
      "id": 1,
      "content": "<pad>",
      "single_word": false,
      "lstrip": false,
      "rstrip": false,
      "normalized": false,
      "special": true
    },
    {
      "id": 2,
      "content": "<s>",
      "single_word": false,
      "lstrip": false,
      "rstrip": false,
      "normalized": false,
      "special": true
    },
    {
      "id": 3,
      "content": "</s>",
      "single_word": false,
      "lstrip": false,
      "rstrip": false,
      "normalized": false,
      "special": true
    },
    {
      "id": 4,
      "content": "<mask>",
      "single_word": false,
      "lstrip": false,
      "rstrip": false,
      "normalized": false,
      "special": true
    },
    {
      "id": 5,
      "content": "<DOC_START>",
      "single_word": false,
      "lstrip": false,
      "rstrip": false,
      "normalized": false,
      "special": true
    }
  ],
  "normalizer": null,
  "pre_tokenizer": {
    "type": "Split",
    "pattern": {
      "Regex": "[a-z'#]+"
    },
    "behavior": "Isolated",
    "invert": true
  },
  "post_processor": null,
  "decoder": {
    "type": "ByteLevel",
    "add_prefix_space": true,
    "trim_offsets": true,
    "use_regex": true
  },
  "model": {
    "type": "BPE",
    "dropout": null,
    "unk_token": "<unk>",
    "continuing_subword_prefix": "",
    "end_of_word_suffix": "",
    "fuse_unk": false,
    "byte_fallback": false,
    "ignore_merges": false,
    "vocab": {
      "<unk>": 0,
      "<pad>": 1,
      "<s>": 2,
      "</s>": 3,
      "<mask>": 4,
      "<DOC_START>": 5,
      "!": 6,
      "\"": 7,
      "#": 8,
      "%": 9,
      "&": 10,
      "'": 11,
      "(": 12,
      ")": 13,
      "*": 14,
      "+": 15,
      ",": 16,
      "-": 17,
      ".": 18,
      "/": 19,
      "0": 20,
      "1": 21,
      "2": 22,
      "3": 23,
      "4": 24,
      "5": 25,
      "6": 26,
      "7": 27,
      "8": 28,
      "9": 29,
      ":": 30,
      ";": 31,
      "<": 32,
      "=": 33,
      ">": 34,
      "?": 35,
      "@": 36,
      "A": 37,
      "C": 38,
      "D": 39,
      "H": 40,
      "I": 41,
      "M": 42,
      "N": 43,
      "O": 44,
      "R": 45,
      "S": 46,
      "T": 47,
      "U": 48,
      "W": 49,
      "X": 50,
      "Y": 51,
      "[": 52,
      "\\": 53,
      "]": 54,
      "^": 55,
      "_": 56,
      "`": 57,
      "a": 58,
      "b": 59,
      "c": 60,
      "d": 61,
      "e": 62,
      "f": 63,
      "g": 64,
      "h": 65,
      "i": 66,
      "j": 67,
      "k": 68,
      "l": 69,
      "m": 70,
      "n": 71,
      "o": 72,
      "p": 73,
      "q": 74,
      "r": 75,
      "s": 76,
      "t": 77,
      "u": 78,
      "v": 79,
      "w": 80,
      "x": 81,
      "y": 82,
      "z": 83,
      "{": 84,
      "|": 85,
      "}": 86,
      "~": 87,
      "£": 88,
      "­": 89,
      "¿": 90,
      "×": 91,
      "à": 92,
      "ã": 93,
      "æ": 94,
      "þ": 95,
      "ķ": 96,
      "œ": 97,
      "в": 98,
      "ं": 99,
      "ऽ": 100,
      "।": 101,
      "‘": 102,
      "’": 103,
      "件": 104,
      "夹": 105,
      "建": 106,
      "文": 107,
      "新": 108,
      "未": 109,
      "标": 110,
      "桌": 111,
      "档": 112,
      "面": 113,
      "题": 114,
      "ng": 115,
      "pa": 116,
      "ang": 117,
      "yi": 118,
      "ba": 119,
      "na": 120,
      "la": 121,
      "ya": 122,
      "gs": 123,
      "ha": 124,
      "//": 125,
      "he": 126,
      "dang": 127,
      "de": 128,
      "da": 129,
      "par": 130,
      "ms": 131,
      "ts": 132,
      "du": 133,
      "ho": 134,
      "hi": 135,
      "ni": 136,
      "ma": 137,
      "ye": 138,
      "bya": 139,
      "bs": 140,
      "yu": 141,
      "hes": 142,
      "kyi": 143,
      "ra": 144,
      "ta": 145,
      "te": 146,
      "ph": 147,
      "yang": 148,
      "yo": 149,
      "nyi": 150,
      "rna": 151,
      "do": 152,
      "yin": 153,
      "po": 154,
      "zhi": 155,
      "dag": 156,
      "hu": 157,
      "mi": 158,
      "nas": 159,
      "rg": 160,
      "zhes": 161,
      "ro": 162,
      "ri": 163,
      "so": 164,
      "ca": 165,
      "me": 166,
      "gyi": 167,
      "nyid": 168,
      "to": 169,
      "tha": 170,
      "bar": 171,
      "yur": 172,
      "ru": 173,
      "gyur": 174,
      "sk": 175,
      "med": 176,
      "yed": 177,
      "rgya": 178,
      "ngs": 179,
      "las": 180,
      "bzhi": 181,
      "su": 182,
      "lta": 183,
      "gi": 184,
      "ci": 185,
      "di": 186,
      "se": 187,
      "tu": 188,
      "dz": 189,
      "cho": 190,
      "phyi": 191,
      "gz": 192,
      "rnams": 193,
      "nga": 194,
      "bu": 195,
      "ngo": 196,
      "kh": 197,
      "sems": 198,
      "pas": 199,
      "han": 200,
      "rj": 201,
      "rnam": 202,
      "bzhin": 203,
      "ste": 204,
      "shes": 205,
      "phyir": 206,
      "go": 207,
      "byed": 208,
      "lo": 209,
      "che": 210,
      "od": 211,
      "gang": 212,
      "ga": 213,
      "es": 214,
      "mo": 215,
      "yod": 216,
      "rang": 217,
      "sogs": 218,
      "dan": 219,
      "cad": 220,
      "tho": 221,
      "gsu": 222,
      "ldan": 223,
      "am": 224,
      "chu": 225,
      "ji": 226,
      "tan": 227,
      "chos": 228,
      "thams": 229,
      "kyis": 230,
      "gnas": 231,
      "no": 232,
      "sp": 233,
      "bc": 234,
      "kho": 235,
      "kha": 236,
      "db": 237,
      "ltar": 238,
      "br": 239,
      "can": 240,
      "ku": 241,
      "sto": 242,
      "yung": 243,
      "don": 244,
      "chen": 245,
      "rab": 246,
      "cig": 247,
      "bdag": 248,
      "gru": 249,
      "lu": 250,
      "dpa": 251,
      "nya": 252,
      "ge": 253,
      "kyang": 254,
      "tsho": 255,
      "bo": 256,
      "byung": 257,
      "ka": 258,
      "gyis": 259,
      "bz": 260,
      "ad": 261,
      "gro": 262,
      "skye": 263,
      "byang": 264,
      "angs": 265,
      "shi": 266,
      "rje": 267,
      "gnyi": 268,
      "grub": 269,
      "cha": 270,
      "gzhan": 271,
      "gnyis": 272,
      "re": 273,
      "om": 274,
      "mts": 275,
      "byas": 276,
      "rgyu": 277,
      "pha": 278,
      "das": 279,
      "chub": 280,
      "rgyas": 281,
      "bra": 282,
      "khor": 283,
      "nye": 284,
      "thu": 285,
      "rdo": 286,
      "gis": 287,
      "sb": 288,
      "kun": 289,
      "lha": 290,
      "bstan": 291,
      "ngon": 292,
      "tsa": 293,
      "dus": 294,
      "dge": 295,
      "nang": 296,
      "sa": 297,
      "bas": 298,
      "gsum": 299,
      "in": 300,
      "dbang": 301,
      "yor": 302,
      "yon": 303,
      "had": 304,
      "ten": 305,
      "rdz": 306,
      "mcho": 307,
      "bcom": 308,
      "yongs": 309,
      "rto": 310,
      "sangs": 311,
      "tshi": 312,
      "gzu": 313,
      "ug": 314,
      "zhing": 315,
      "gcig": 316,
      "dod": 317,
      "mtshan": 318,
      "gra": 319,
      "snga": 320,
      "rgyal": 321,
      "stong": 322,
      "ces": 323,
      "dzin": 324,
      "le": 325,
      "bde": 326,
      "ti": 327,
      "slo": 328,
      "zhe": 329,
      "ngos": 330,
      "tshe": 331,
      "mngon": 332,
      "rol": 333,
      "spyod": 334,
      "phya": 335,
      "gsungs": 336,
      "mtho": 337,
      "brj": 338,
      "phyag": 339,
      "dngos": 340,
      "rten": 341,
      "tshu": 342,
      "cing": 343,
      "dra": 344,
      "dam": 345,
      "tshogs": 346,
      "brgya": 347,
      "gshe": 348,
      "lus": 349,
      "brjod": 350,
      "dug": 351,
      "zhig": 352,
      "rdzo": 353,
      "sm": 354,
      "rigs": 355,
      "mthong": 356,
      "gshegs": 357,
      "mdz": 358,
      "tshig": 359,
      "jig": 360,
      "bsk": 361,
      "rig": 362,
      "gzugs": 363,
      "shing": 364,
      "za": 365,
      "rjes": 366,
      "bshad": 367,
      "lnga": 368,
      "nyam": 369,
      "rdzogs": 370,
      "phyin": 371,
      "yogs": 372,
      "lam": 373,
      "des": 374,
      "snang": 375,
      "sha": 376,
      "skad": 377,
      "dga": 378,
      "smra": 379,
      "rta": 380,
      "mtha": 381,
      "skyes": 382,
      "mkha": 383,
      "sku": 384,
      "rts": 385,
      "khya": 386,
      "tshul": 387,
      "bca": 388,
      "phyogs": 389,
      "al": 390,
      "mchog": 391,
      "ung": 392,
      "yid": 393,
      "nu": 394,
      "bcu": 395,
      "rin": 396,
      "thob": 397,
      "nying": 398,
      "jug": 399,
      "chags": 400,
      "er": 401,
      "dun": 402,
      "byor": 403,
      "snying": 404,
      "ston": 405,
      "ol": 406,
      "kyil": 407,
      "rung": 408,
      "bras": 409,
      "gal": 410,
      "bsam": 411,
      "bcas": 412,
      "hugs": 413,
      "lag": 414,
      "dmi": 415,
      "sngags": 416,
      "dmigs": 417,
      "hal": 418,
      "dkyil": 419,
      "slong": 420,
      "yen": 421,
      "rtsa": 422,
      "mar": 423,
      "sbyin": 424,
      "yul": 425,
      "nam": 426,
      "rtog": 427,
      "khams": 428,
      "rul": 429,
      "rtogs": 430,
      "gu": 431,
      "dri": 432,
      "bsgo": 433,
      "nges": 434,
      "sbyor": 435,
      "rug": 436,
      "sgra": 437,
      "byin": 438,
      "sna": 439,
      "sn": 440,
      "mthu": 441,
      "hag": 442,
      "mdzad": 443,
      "tsam": 444,
      "dad": 445,
      "sgo": 446,
      "yan": 447,
      "dp": 448,
      "chi": 449,
      "mos": 450,
      "on": 451,
      "dgo": 452,
      "lung": 453,
      "byar": 454,
      "drug": 455,
      "mchod": 456,
      "dbu": 457,
      "bral": 458,
      "dog": 459,
      "min": 460,
      "yis": 461,
      "gsal": 462,
      "phra": 463,
      "nyan": 464,
      "rtag": 465,
      "sh": 466,
      "log": 467,
      "ngan": 468,
      "sdug": 469,
      "rk": 470,
      "sri": 471,
      "gsol": 472,
      "brgyad": 473,
      "*//": 474,
      "shin": 475,
      "smras": 476,
      "mongs": 477,
      "dud": 478,
      "the": 479,
      "reg": 480,
      "spa": 481,
      "bsnga": 482,
      "khyad": 483,
      "sgrub": 484,
      "dir": 485,
      "bla": 486,
      "sum": 487,
      "rgyud": 488,
      "tshad": 489,
      "srid": 490,
      "ting": 491,
      "bskyed": 492,
      "nyon": 493,
      "un": 494,
      "mnyam": 495,
      "thos": 496,
      "man": 497,
      "por": 498,
      "dka": 499,
      "og": 500,
      "gsang": 501,
      "sngon": 502,
      "aa": 503,
      "bka": 504,
      "rim": 505,
      "gts": 506,
      "dul": 507,
      "chad": 508,
      "mig": 509,
      "rnal": 510,
      "nyes": 511,
      "mthun": 512,
      "gto": 513,
      "thabs": 514,
      "pos": 515,
      "yong": 516,
      "khri": 517,
      "sbyar": 518,
      "gtan": 519,
      "bsngal": 520,
      "zad": 521,
      "bsgom": 522,
      "khyod": 523,
      "thugs": 524,
      "hang": 525,
      "slob": 526,
      "pad": 527,
      "zla": 528,
      "rangs": 529,
      "tshal": 530,
      "yas": 531,
      "lags": 532,
      "nyen": 533,
      "lhag": 534,
      "phags": 535,
      "zhugs": 536,
      "legs": 537,
      "blo": 538,
      "gzhi": 539,
      "mya": 540,
      "snyam": 541,
      "nyams": 542,
      "nge": 543,
      "mdo": 544,
      "mang": 545,
      "khro": 546,
      "gri": 547,
      "brts": 548,
      "nus": 549,
      "bgyi": 550,
      "tsal": 551,
      "dpal": 552,
      "bk": 553,
      "bsgrub": 554,
      "mkh": 555,
      "bre": 556,
      "ska": 557,
      "phan": 558,
      "bsku": 559,
      "gn": 560,
      "dbyi": 561,
      "mkhyen": 562,
      "grol": 563,
      "mtsho": 564,
      "lan": 565,
      "nad": 566,
      "um": 567,
      "gnod": 568,
      "smos": 569,
      "stobs": 570,
      "tags": 571,
      "mchi": 572,
      "ming": 573,
      "dbye": 574,
      "bye": 575,
      "lang": 576,
      "bzang": 577,
      "tung": 578,
      "brel": 579,
      "os": 580,
      "sla": 581,
      "der": 582,
      "li": 583,
      "yug": 584,
      "ring": 585,
      "bdun": 586,
      "zer": 587,
      "rog": 588,
      "len": 589,
      "thi": 590,
      "khyi": 591,
      "sor": 592,
      "gos": 593,
      "pho": 594,
      "bdud": 595,
      "bden": 596,
      "khyab": 597,
      "rlung": 598,
      "rtsi": 599,
      "rag": 600,
      "dran": 601,
      "stsal": 602,
      "grangs": 603,
      "phung": 604,
      "rkyen": 605,
      "spangs": 606,
      "jigs": 607,
      "song": 608,
      "gzhag": 609,
      "langs": 610,
      "chung": 611,
      "zag": 612,
      "tshigs": 613,
      "skabs": 614,
      "tog": 615,
      "mu": 616,
      "dkar": 617,
      "snyo": 618,
      "dza": 619,
      "badz": 620,
      "ngag": 621,
      "theg": 622,
      "wa": 623,
      "mkhas": 624,
      "ltung": 625,
      "mthar": 626,
      "snyoms": 627,
      "nams": 628,
      "gsung": 629,
      "nor": 630,
      "gzung": 631,
      "tsha": 632,
      "brten": 633,
      "gzhu": 634,
      "dgra": 635,
      "dpag": 636,
      "mchis": 637,
      "or": 638,
      "khu": 639,
      "mtsha": 640,
      "mgo": 641,
      "blta": 642,
      "bzlas": 643,
      "rtse": 644,
      "bsdus": 645,
      "bzhugs": 646,
      "spyi": 647,
      "shu": 648,
      "dbus": 649,
      "dpo": 650,
      "phu": 651,
      "yad": 652,
      "lhan": 653,
      "gar": 654,
      "ong": 655,
      "tshor": 656,
      "brtson": 657,
      "dbyings": 658,
      "bri": 659,
      "bts": 660,
      "sde": 661,
      "gda": 662,
      "smin": 663,
      "bum": 664,
      "khyim": 665,
      "bur": 666,
      "steng": 667,
      "lab": 668,
      "aom": 669,
      "bsod": 670,
      "nag": 671,
      "shig": 672,
      "dpon": 673,
      "ched": 674,
      "va": 675,
      "ras": 676,
      "srog": 677,
      "bcad": 678,
      "tang": 679,
      "dis": 680,
      "khrims": 681,
      "sam": 682,
      "as": 683,
      "rn": 684,
      "thar": 685,
      "spro": 686,
      "spo": 687,
      "sngar": 688,
      "sar": 689,
      "rgyun": 690,
      "bsa": 691,
      "phrul": 692,
      "bzung": 693,
      "zin": 694,
      "ce": 695,
      "phrag": 696,
      "gzi": 697,
      "dmar": 698,
      "skyed": 699,
      "bskur": 700,
      "zhu": 701,
      "dgongs": 702,
      "dper": 703,
      "sman": 704,
      "bi": 705,
      "badzra": 706,
      "tsh": 707,
      "spyan": 708,
      "bzod": 709,
      "res": 710,
      "brtan": 711,
      "sprul": 712,
      "zhal": 713,
      "grib": 714,
      "mas": 715,
      "reng": 716,
      "grags": 717,
      "dgu": 718,
      "dgos": 719,
      "rnyed": 720,
      "mtshu": 721,
      "labs": 722,
      "khang": 723,
      "zas": 724,
      "bud": 725,
      "mtshams": 726,
      "mtshungs": 727,
      "gc": 728,
      "sdi": 729,
      "bzhag": 730,
      "thal": 731,
      "bsnyen": 732,
      "ldog": 733,
      "ongs": 734,
      "padma": 735,
      "bab": 736,
      "gong": 737,
      "longs": 738,
      "bag": 739,
      "brag": 740,
      "rkang": 741,
      "phye": 742,
      "lto": 743,
      "blangs": 744,
      "zha": 745,
      "rdzas": 746,
      "shar": 747,
      "yangs": 748,
      "lhu": 749,
      "cu": 750,
      "chang": 751,
      "khru": 752,
      "spang": 753,
      "khye": 754,
      "phe": 755,
      "sg": 756,
      "brtags": 757,
      "khrag": 758,
      "rgyan": 759,
      "mon": 760,
      "gzho": 761,
      "myong": 762,
      "tshangs": 763,
      "bskor": 764,
      "sdig": 765,
      "spyad": 766,
      "phyug": 767,
      "thogs": 768,
      "skyon": 769,
      "bon": 770,
      "ser": 771,
      "thag": 772,
      "gnyen": 773,
      "sgro": 774,
      "gtso": 775,
      "bslab": 776,
      "phyed": 777,
      "jam": 778,
      "char": 779,
      "phreng": 780,
      "sgyu": 781,
      "smon": 782,
      "yig": 783,
      "dung": 784,
      "tag": 785,
      "thog": 786,
      "sdo": 787,
      "hA": 788,
      "bor": 789,
      "sho": 790,
      "thig": 791,
      "gtogs": 792,
      "gcod": 793,
      "dogs": 794,
      "snyed": 795,
      "ngu": 796,
      "btang": 797,
      "mnga": 798,
      "btsun": 799,
      "cag": 800,
      "mtshon": 801,
      "khrul": 802,
      "spong": 803,
      "brgyan": 804,
      "chud": 805,
      "pu": 806,
      "nan": 807,
      "thun": 808,
      "bsgoms": 809,
      "mched": 810,
      "thub": 811,
      "lugs": 812,
      "mdog": 813,
      "sgrib": 814,
      "sbyong": 815,
      "btags": 816,
      "snod": 817,
      "be": 818,
      "grong": 819,
      "bsams": 820,
      "dha": 821,
      "bska": 822,
      "bad": 823,
      "bsdu": 824,
      "rdul": 825,
      "drag": 826,
      "ram": 827,
      "gser": 828,
      "bci": 829,
      "rtags": 830,
      "ltos": 831,
      "bru": 832,
      "mdzes": 833,
      "zhen": 834,
      "nub": 835,
      "bcings": 836,
      "ral": 837,
      "hU": 838,
      "byams": 839,
      "she": 840,
      "dk": 841,
      "klu": 842,
      "dpe": 843,
      "phel": 844,
      "khyer": 845,
      "dre": 846,
      "thug": 847,
      "phro": 848,
      "bcos": 849,
      "ze": 850,
      "bku": 851,
      "grus": 852,
      "sdang": 853,
      "phun": 854,
      "tod": 855,
      "bzlog": 856,
      "bram": 857,
      "tab": 858,
      "dor": 859,
      "sdom": 860,
      "lca": 861,
      "bskal": 862,
      "slar": 863,
      "ling": 864,
      "dong": 865,
      "bstod": 866,
      "zab": 867,
      "khong": 868,
      "btab": 869,
      "cher": 870,
      "jo": 871,
      "ris": 872,
      "lcags": 873,
      "sarba": 874,
      "skya": 875,
      "mad": 876,
      "gog": 877,
      "bgyid": 878,
      "sbyang": 879,
      "gtor": 880,
      "gtong": 881,
      "srung": 882,
      "bsgyur": 883,
      "slad": 884,
      "sreg": 885,
      "nyad": 886,
      "sgom": 887,
      "long": 888,
      "il": 889,
      "en": 890,
      "bos": 891,
      "brtag": 892,
      "drang": 893,
      "gdon": 894,
      "tshom": 895,
      "ches": 896,
      "pra": 897,
      "cung": 898,
      "gtsug": 899,
      "khyed": 900,
      "myur": 901,
      "bkod": 902,
      "gzigs": 903,
      "tshang": 904,
      "lce": 905,
      "bza": 906,
      "gta": 907,
      "sel": 908,
      "yum": 909,
      "bus": 910,
      "dben": 911,
      "gso": 912,
      "kye": 913,
      "dg": 914,
      "khas": 915,
      "kar": 916,
      "*/": 917,
      "joms": 918,
      "dbyangs": 919,
      "gzhug": 920,
      "non": 921,
      "dres": 922,
      "byad": 923,
      "spros": 924,
      "bsrung": 925,
      "mdun": 926,
      "gzhon": 927,
      "rdzu": 928,
      "rel": 929,
      "khan": 930,
      "phat": 931,
      "brtsa": 932,
      "snyad": 933,
      "yos": 934,
      "brlabs": 935,
      "phul": 936,
      "gzhung": 937,
      "brtsams": 938,
      "zhabs": 939,
      "nyin": 940,
      "nyer": 941,
      "mod": 942,
      "bcug": 943,
      "dgod": 944,
      "gtsang": 945,
      "ngang": 946,
      "srin": 947,
      "dab": 948,
      "ngas": 949,
      "mkhan": 950,
      "zhag": 951,
      "seng": 952,
      "gros": 953,
      "au": 954,
      "ub": 955,
      "lj": 956,
      "sv": 957,
      "gag": 958,
      "bsal": 959,
      "gzungs": 960,
      "dro": 961,
      "an": 962,
      "thod": 963,
      "blang": 964,
      "dar": 965,
      "gdab": 966,
      "si": 967,
      "rus": 968,
      "glang": 969,
      "tshun": 970,
      "mdzod": 971,
      "lho": 972,
      "rlo": 973,
      "sras": 974,
      "rad": 975,
      "bskyod": 976,
      "rims": 977,
      "gshi": 978,
      "thad": 979,
      "rdzob": 980,
      "grogs": 981,
      "oM": 982,
      "yab": 983,
      "dbul": 984,
      "phyis": 985,
      "mug": 986,
      "ed": 987,
      "myal": 988,
      "dmyal": 989,
      "mgon": 990,
      "sprin": 991,
      "bam": 992,
      "gti": 993,
      "gam": 994,
      "ko": 995,
      "bskul": 996,
      "gegs": 997,
      "brang": 998,
      "brtse": 999,
      "tra": 1000,
      "bkur": 1001,
      "skal": 1002,
      "rmi": 1003,
      "dril": 1004,
      "tul": 1005,
      "gus": 1006,
      "gdan": 1007,
      "mdor": 1008,
      "gzhal": 1009,
      "..": 1010,
      "nar": 1011,
      "mong": 1012,
      "red": 1013,
      "smad": 1014,
      "lhung": 1015,
      "ngam": 1016,
      "phyung": 1017,
      "thung": 1018,
      "bha": 1019,
      "gshin": 1020,
      "grel": 1021,
      "ur": 1022,
      "goms": 1023,
      "bsten": 1024,
      "snyan": 1025,
      "grubs": 1026,
      "brnyan": 1027,
      "dgag": 1028,
      "bh": 1029,
      "hUM": 1030,
      "sdud": 1031,
      "skyo": 1032,
      "bsha": 1033,
      "gling": 1034,
      "khrod": 1035,
      "rmongs": 1036,
      "lte": 1037,
      "grang": 1038,
      "dur": 1039,
      "gdu": 1040,
      "pi": 1041,
      "stan": 1042,
      "tsan": 1043,
      "sred": 1044,
      "jog": 1045,
      "bsgrubs": 1046,
      "zhus": 1047,
      "dbyer": 1048,
      "bris": 1049,
      "skra": 1050,
      "gtu": 1051,
      "mun": 1052,
      "phrin": 1053,
      "dren": 1054,
      "mnyan": 1055,
      "ai": 1056,
      "dbugs": 1057,
      "ar": 1058,
      "tshur": 1059,
      "dris": 1060,
      "zho": 1061,
      "phur": 1062,
      "los": 1063,
      "bltas": 1064,
      "gdags": 1065,
      "tsi": 1066,
      "gnang": 1067,
      "bco": 1068,
      "gdul": 1069,
      "byi": 1070,
      "byis": 1071,
      "yud": 1072,
      "ki": 1073,
      "gags": 1074,
      "shog": 1075,
      "brda": 1076,
      "spos": 1077,
      "wA": 1078,
      "debs": 1079,
      "ny": 1080,
      "lhun": 1081,
      "skur": 1082,
      "spu": 1083,
      "skyabs": 1084,
      "gdung": 1085,
      "nyal": 1086,
      "skyong": 1087,
      "bod": 1088,
      "bgegs": 1089,
      "bsnams": 1090,
      "tshol": 1091,
      "rlabs": 1092,
      "phrad": 1093,
      "bgyis": 1094,
      "sbyangs": 1095,
      "rma": 1096,
      "shas": 1097,
      "thab": 1098,
      "kya": 1099,
      "mgu": 1100,
      "sgrol": 1101,
      "cang": 1102,
      "yun": 1103,
      "Sh": 1104,
      "drung": 1105,
      "bsngags": 1106,
      "bsngo": 1107,
      "rungs": 1108,
      "hum": 1109,
      "bkra": 1110,
      "bzhe": 1111,
      "gnon": 1112,
      "shis": 1113,
      "dman": 1114,
      "rtsod": 1115,
      "dh": 1116,
      "mnan": 1117,
      "ne": 1118,
      "brlab": 1119,
      "mnyes": 1120,
      "stegs": 1121,
      "sta": 1122,
      "gnyer": 1123,
      "mal": 1124,
      "bong": 1125,
      "gdong": 1126,
      "drangs": 1127,
      "mg": 1128,
      "rgyur": 1129,
      "bal": 1130,
      "sgras": 1131,
      "yes": 1132,
      "@#": 1133,
      "rtsol": 1134,
      "bsags": 1135,
      "dkon": 1136,
      "bring": 1137,
      "btsal": 1138,
      "cir": 1139,
      "sro": 1140,
      "zos": 1141,
      "th": 1142,
      "gdug": 1143,
      "kan": 1144,
      "brtul": 1145,
      "glu": 1146,
      "mdzub": 1147,
      "mthe": 1148,
      "sgyur": 1149,
      "yugs": 1150,
      "Sha": 1151,
      "dbyibs": 1152,
      "gle": 1153,
      "zil": 1154,
      "rlom": 1155,
      "bzhir": 1156,
      "kyu": 1157,
      "logs": 1158,
      "bshes": 1159,
      "mda": 1160,
      "gtam": 1161,
      "dpung": 1162,
      "khrus": 1163,
      "zhags": 1164,
      "sbo": 1165,
      "zung": 1166,
      "gsod": 1167,
      "tshod": 1168,
      "khrugs": 1169,
      "dum": 1170,
      "brkyang": 1171,
      "bcing": 1172,
      "mtshar": 1173,
      "mor": 1174,
      "2a": 1175,
      "1b": 1176,
      "2b": 1177,
      "rA": 1178,
      "3a": 1179,
      "4b": 1180,
      "5a": 1181,
      "4a": 1182,
      "5b": 1183,
      "3b": 1184,
      "dpyad": 1185,
      "yA": 1186,
      "6a": 1187,
      "7a": 1188,
      "6b": 1189,
      "btung": 1190,
      "dgyes": 1191,
      "bkag": 1192,
      "sbrul": 1193,
      "7b": 1194,
      "dbyung": 1195,
      "8b": 1196,
      "8a": 1197,
      "9a": 1198,
      "0a": 1199,
      "9b": 1200,
      "khyud": 1201,
      "dzi": 1202,
      "0b": 1203,
      "1a": 1204,
      "skar": 1205,
      "yog": 1206,
      "sra": 1207,
      "bzed": 1208,
      "shugs": 1209,
      "deng": 1210,
      "sbom": 1211,
      "srong": 1212,
      "nags": 1213,
      "gleng": 1214,
      "phal": 1215,
      "id": 1216,
      "tshong": 1217,
      "rga": 1218,
      "gdams": 1219,
      "klung": 1220,
      "aum": 1221,
      "shA": 1222,
      "dpyod": 1223,
      "bshags": 1224,
      "sbrang": 1225,
      "ae": 1226,
      "tshon": 1227,
      "mthi": 1228,
      "brjid": 1229,
      "gas": 1230,
      "nyung": 1231,
      "glo": 1232,
      "mam": 1233,
      "btu": 1234,
      "ing": 1235,
      "swA": 1236,
      "pham": 1237,
      "brgyud": 1238,
      "Na": 1239,
      "rnga": 1240,
      "dzam": 1241,
      "dangs": 1242,
      "@#//": 1243,
      "mgrin": 1244,
      "phrog": 1245,
      "pan": 1246,
      "ljang": 1247,
      "rgyus": 1248,
      "sti": 1249,
      "chod": 1250,
      ":/": 1251,
      "blugs": 1252,
      "tA": 1253,
      "gdugs": 1254,
      "ding": 1255,
      "sngo": 1256,
      "skrag": 1257,
      "yal": 1258,
      "thang": 1259,
      "dgug": 1260,
      "rtsal": 1261,
      "mjug": 1262,
      "regs": 1263,
      "khris": 1264,
      "blu": 1265,
      "ching": 1266,
      "gnyid": 1267,
      "rtsom": 1268,
      "brdz": 1269,
      "rgod": 1270,
      "tam": 1271,
      "ham": 1272,
      "dbab": 1273,
      "ldang": 1274,
      "gtad": 1275,
      "ster": 1276,
      "bul": 1277,
      "sgron": 1278,
      "lon": 1279,
      "dal": 1280,
      "rabs": 1281,
      "thim": 1282,
      "mA": 1283,
      "pags": 1284,
      "TA": 1285,
      "kA": 1286,
      "mkhris": 1287,
      "nA": 1288,
      "bsad": 1289,
      "phang": 1290,
      "lci": 1291,
      "bcud": 1292,
      "gram": 1293,
      "bdug": 1294,
      "til": 1295,
      "tri": 1296,
      "dhi": 1297,
      "khod": 1298,
      "khung": 1299,
      "tshim": 1300,
      "khrig": 1301,
      "yungs": 1302,
      "yam": 1303,
      "sts": 1304,
      "gte": 1305,
      "khar": 1306,
      "stag": 1307,
      "bskol": 1308,
      "bzhis": 1309,
      "byug": 1310,
      "rgyab": 1311,
      "tshan": 1312,
      "bebs": 1313,
      "ban": 1314,
      "dva": 1315,
      "gter": 1316,
      "gtum": 1317,
      "snu": 1318,
      "chog": 1319,
      "gan": 1320,
      "bgro": 1321,
      "khrug": 1322,
      "chus": 1323,
      "rgol": 1324,
      "rak": 1325,
      "byon": 1326,
      "dpas": 1327,
      "rjod": 1328,
      "ke": 1329,
      "lngas": 1330,
      "bro": 1331,
      "gci": 1332,
      "chag": 1333,
      "tv": 1334,
      "khe": 1335,
      "Ta": 1336,
      "dgon": 1337,
      "gcad": 1338,
      "phag": 1339,
      "lde": 1340,
      "bzhed": 1341,
      "phaT": 1342,
      "gtang": 1343,
      "bkug": 1344,
      "tshes": 1345,
      "dbyar": 1346,
      "rgal": 1347,
      "drod": 1348,
      "zur": 1349,
      "brdzun": 1350,
      "bsil": 1351,
      "radva": 1352,
      "bgrod": 1353,
      "kham": 1354,
      "bsgri": 1355,
      "kro": 1356,
      "ngul": 1357,
      "brtsegs": 1358,
      "dams": 1359,
      "ud": 1360,
      "bsregs": 1361,
      "spyir": 1362,
      "babs": 1363,
      "car": 1364,
      "gshed": 1365,
      "ril": 1366,
      "dma": 1367,
      "skom": 1368,
      "dwa": 1369,
      "nur": 1370,
      "ah": 1371,
      "bkang": 1372,
      "zug": 1373,
      "snum": 1374,
      "gral": 1375,
      "C_": 1376,
      "DO": 1377,
      "RT": 1378,
      "STA": 1379,
      "C_STA": 1380,
      "DOC_STA": 1381,
      "DOC_START": 1382,
      "hr": 1383,
      "sun": 1384,
      "lum": 1385,
      "rtsub": 1386,
      "tshar": 1387,
      "spobs": 1388,
      "zhim": 1389,
      "rtsibs": 1390,
      "ton": 1391,
      "gyen": 1392,
      "bsdams": 1393,
      "rgan": 1394,
      "stsol": 1395,
      "sgrogs": 1396,
      "dngul": 1397,
      "kri": 1398,
      "dvags": 1399,
      "bgrang": 1400,
      "khros": 1401,
      "mngal": 1402,
      "yeng": 1403,
      "srang": 1404,
      "bsreg": 1405,
      "phab": 1406,
      "bran": 1407,
      "11": 1408,
      "myos": 1409,
      "gnad": 1410,
      "bzhes": 1411,
      "mche": 1412,
      "skyob": 1413,
      "bsti": 1414,
      "slu": 1415,
      "bgos": 1416,
      "sad": 1417,
      "akya": 1418,
      "12": 1419,
      "////": 1420,
      "10": 1421,
      "shel": 1422,
      "13": 1423,
      "blon": 1424,
      "sham": 1425,
      "god": 1426,
      "zlum": 1427,
      "khyil": 1428,
      "16": 1429,
      "dags": 1430,
      "gyod": 1431,
      "15": 1432,
      "17": 1433,
      "dbyug": 1434,
      "bzad": 1435,
      "gur": 1436,
      "rdza": 1437,
      "gul": 1438,
      "14": 1439,
      "18": 1440,
      "dzag": 1441,
      "19": 1442,
      "bsgrags": 1443,
      "nyis": 1444,
      "lhags": 1445,
      "mthus": 1446,
      "btsa": 1447,
      "rags": 1448,
      "lngar": 1449,
      "/'": 1450,
      "bkru": 1451,
      "rjed": 1452,
      "rengs": 1453,
      "stod": 1454,
      "gdod": 1455,
      "20": 1456,
      "phros": 1457,
      "ugs": 1458,
      "swa": 1459,
      "21": 1460,
      "snam": 1461,
      "myu": 1462,
      "klong": 1463,
      "ltas": 1464,
      "tor": 1465,
      "rat": 1466,
      "gza": 1467,
      "bsgral": 1468,
      "rmad": 1469,
      "byugs": 1470,
      "skud": 1471,
      "bA": 1472,
      "brnyes": 1473,
      "chas": 1474,
      "rkun": 1475,
      "khab": 1476,
      "kra": 1477,
      "sbas": 1478,
      "sgor": 1479,
      "22": 1480,
      "zlos": 1481,
      "khur": 1482,
      "rbad": 1483,
      "zan": 1484,
      "greng": 1485,
      "gung": 1486,
      "?]": 1487,
      "smod": 1488,
      "brtsam": 1489,
      "thor": 1490,
      "bsgribs": 1491,
      "gsad": 1492,
      "klog": 1493,
      "gir": 1494,
      "mes": 1495,
      "aut": 1496,
      "phos": 1497,
      "bhi": 1498,
      "el": 1499,
      "phran": 1500,
      "skam": 1501,
      "23": 1502,
      "24": 1503,
      "cod": 1504,
      "koo": 1505,
      "sdong": 1506,
      "bgo": 1507,
      "mdangs": 1508,
      "sgrog": 1509,
      "blud": 1510,
      "krung": 1511,
      "mdza": 1512,
      "gsar": 1513,
      "shwa": 1514,
      "skyil": 1515,
      "25": 1516,
      "shos": 1517,
      "ksha": 1518,
      "phug": 1519,
      "sge": 1520,
      "bcur": 1521,
      "kog": 1522,
      "spel": 1523,
      "lding": 1524,
      "lad": 1525,
      "dkris": 1526,
      "lkog": 1527,
      "bslang": 1528,
      "igs": 1529,
      "brjed": 1530,
      "pA": 1531,
      "gr": 1532,
      "tsit": 1533,
      "yol": 1534,
      "mngar": 1535,
      "sbu": 1536,
      "gzhol": 1537,
      "ngal": 1538,
      "thA": 1539,
      "yar": 1540,
      "zlog": 1541,
      "sgeg": 1542,
      "mkhar": 1543,
      "/)": 1544,
      "mchu": 1545,
      "26": 1546,
      "autpa": 1547,
      "bshang": 1548,
      "dregs": 1549,
      "zangs": 1550,
      "phar": 1551,
      "phangs": 1552,
      "bzhengs": 1553,
      "sus": 1554,
      "khyams": 1555,
      "mthil": 1556,
      "mthing": 1557,
      "thungs": 1558,
      "ljon": 1559,
      "tshugs": 1560,
      "rI": 1561,
      "lhas": 1562,
      "hri": 1563,
      "bsrungs": 1564,
      "zang": 1565,
      "dzum": 1566,
      "gnag": 1567,
      "chal": 1568,
      "deg": 1569,
      "gyed": 1570,
      "zhon": 1571,
      "bskrad": 1572,
      "bsres": 1573,
      "dze": 1574,
      "lar": 1575,
      "27": 1576,
      "tsher": 1577,
      "ske": 1578,
      "phen": 1579,
      "rgyang": 1580,
      "sva": 1581,
      "tig": 1582,
      "lhar": 1583,
      "zhum": 1584,
      "gol": 1585,
      "sA": 1586,
      "phongs": 1587,
      "sring": 1588,
      "rngu": 1589,
      "gzhir": 1590,
      "khrid": 1591,
      "skor": 1592,
      "chan": 1593,
      "chab": 1594,
      "ning": 1595,
      "myang": 1596,
      "gror": 1597,
      "yengs": 1598,
      "tsandan": 1599,
      "sid": 1600,
      "shva": 1601,
      "snyi": 1602,
      "ros": 1603,
      "rnon": 1604,
      "28": 1605,
      "thur": 1606,
      "[?]": 1607,
      "phral": 1608,
      "shed": 1609,
      "rno": 1610,
      "sat": 1611,
      "dpral": 1612,
      "son": 1613,
      "gcan": 1614,
      "pus": 1615,
      "Ni": 1616,
      "blos": 1617,
      "aam": 1618,
      "rlob": 1619,
      "gzir": 1620,
      "gud": 1621,
      "phog": 1622,
      "Da": 1623,
      "zhib": 1624,
      "phud": 1625,
      "kam": 1626,
      "rdzing": 1627,
      "gsan": 1628,
      "gha": 1629,
      "shud": 1630,
      "sen": 1631,
      "rku": 1632,
      "bzla": 1633,
      "...": 1634,
      "mdud": 1635,
      "zing": 1636,
      "brum": 1637,
      "gug": 1638,
      "gron": 1639,
      "bzhad": 1640,
      "gugs": 1641,
      "gzhom": 1642,
      "phata": 1643,
      "gya": 1644,
      "nyas": 1645,
      "dmag": 1646,
      "btsugs": 1647,
      "gcin": 1648,
      "glegs": 1649,
      "bshams": 1650,
      "kr": 1651,
      "29": 1652,
      "dgrol": 1653,
      "gyon": 1654,
      "smig": 1655,
      "ran": 1656,
      "rtsva": 1657,
      "dzny": 1658,
      "gting": 1659,
      "glog": 1660,
      "ngar": 1661,
      "sma": 1662,
      "btud": 1663,
      "dzu": 1664,
      "30": 1665,
      "dbyig": 1666,
      "jal": 1667,
      "byings": 1668,
      "bton": 1669,
      "sos": 1670,
      "stu": 1671,
      "rnying": 1672,
      "tr": 1673,
      "thon": 1674,
      "bskus": 1675,
      "kau": 1676,
      "srungs": 1677,
      "bee": 1678,
      "pe": 1679,
      "rtsis": 1680,
      "tse": 1681,
      "mgul": 1682,
      "gA": 1683,
      "brgal": 1684,
      "cis": 1685,
      "mdung": 1686,
      "sil": 1687,
      "at": 1688,
      "rib": 1689,
      "phrogs": 1690,
      "bskang": 1691,
      "khongs": 1692,
      "rtsig": 1693,
      "...(": 1694,
      "phas": 1695,
      "bsngos": 1696,
      "tad": 1697,
      "shul": 1698,
      "bcang": 1699,
      "lug": 1700,
      "khyu": 1701,
      "grag": 1702,
      "ao": 1703,
      "bzo": 1704,
      "nom": 1705,
      "bzho": 1706,
      "rugs": 1707,
      "gtugs": 1708,
      "gcer": 1709,
      "gzer": 1710,
      "31": 1711,
      "gdungs": 1712,
      "bkrus": 1713,
      "sba": 1714,
      "btsan": 1715,
      "sbal": 1716,
      "gzar": 1717,
      "rings": 1718,
      "dugs": 1719,
      "st": 1720,
      "brnyas": 1721,
      "dgang": 1722,
      "rjer": 1723,
      "snye": 1724,
      "sdod": 1725,
      "btsas": 1726,
      "byos": 1727,
      "cog": 1728,
      "chom": 1729,
      "dengs": 1730,
      "sran": 1731,
      "skyur": 1732,
      "stabs": 1733,
      "drin": 1734,
      "tshil": 1735,
      "wang": 1736,
      "ded": 1737,
      "shr": 1738,
      "mnar": 1739,
      "bzangs": 1740,
      "bslabs": 1741,
      "bsu": 1742,
      "rgyar": 1743,
      "ir": 1744,
      "sdigs": 1745,
      "gangg": 1746,
      "dru": 1747,
      "shAkya": 1748,
      "bsho": 1749,
      "brgyal": 1750,
      "spras": 1751,
      "lor": 1752,
      "hud": 1753,
      "gson": 1754,
      "gnam": 1755,
      "gla": 1756,
      "bkres": 1757,
      "sprad": 1758,
      "padmo": 1759,
      "bshi": 1760,
      "bsnu": 1761,
      "yaH": 1762,
      "dom": 1763,
      "32": 1764,
      "gtsigs": 1765,
      "dral": 1766,
      "haM": 1767,
      "mer": 1768,
      "tstsha": 1769,
      "shiny": 1770,
      "dA": 1771,
      "har": 1772,
      "mthon": 1773,
      "bsnun": 1774,
      "btul": 1775,
      "gding": 1776,
      "rnyog": 1777,
      "pur": 1778,
      "bstim": 1779,
      "dpar": 1780,
      "skyi": 1781,
      "ljongs": 1782,
      "brdeg": 1783,
      "phyang": 1784,
      "bsgreng": 1785,
      "bcol": 1786,
      "ngur": 1787,
      "mah": 1788,
      "brlag": 1789,
      "gad": 1790,
      "ju": 1791,
      "tsu": 1792,
      "saM": 1793,
      "bzhon": 1794,
      "khra": 1795,
      "dungs": 1796,
      "gon": 1797,
      "shal": 1798,
      "brgyar": 1799,
      "karma": 1800,
      "phor": 1801,
      "ut": 1802,
      "bting": 1803,
      "gre": 1804,
      "....": 1805,
      "byol": 1806,
      "Shi": 1807,
      "skul": 1808,
      "brta": 1809,
      "33": 1810,
      "bshig": 1811,
      "nol": 1812,
      "ltag": 1813,
      "mgron": 1814,
      "shan": 1815,
      "brna": 1816,
      "yel": 1817,
      "gsog": 1818,
      "phyugs": 1819,
      "rum": 1820,
      "brtsi": 1821,
      "nod": 1822,
      "gum": 1823,
      "bying": 1824,
      "bsnye": 1825,
      "bsgos": 1826,
      "pri": 1827,
      "ogs": 1828,
      "gsho": 1829,
      "gces": 1830,
      "mgyogs": 1831,
      "lA": 1832,
      "gze": 1833,
      "tshva": 1834,
      "nI": 1835,
      "sang": 1836,
      "sbubs": 1837,
      "dgas": 1838,
      "bskos": 1839,
      "bang": 1840,
      "shun": 1841,
      "sya": 1842,
      "rgas": 1843,
      "rdzi": 1844,
      "mugs": 1845,
      "bros": 1846,
      "dhu": 1847,
      "khengs": 1848,
      "mangs": 1849,
      "gdo": 1850,
      "chur": 1851,
      "brdungs": 1852,
      "rgyug": 1853,
      "thul": 1854,
      "rgyags": 1855,
      "shtha": 1856,
      "dmu": 1857,
      "dpog": 1858,
      "rngam": 1859,
      "mdze": 1860,
      "gzhig": 1861,
      "gnyug": 1862,
      "34": 1863,
      "spyang": 1864,
      "bhu": 1865,
      "bshos": 1866,
      "phyar": 1867,
      "sbar": 1868,
      "kas": 1869,
      "dpes": 1870,
      "zu": 1871,
      "gyu": 1872,
      "brangs": 1873,
      "gdangs": 1874,
      "dzah": 1875,
      "dw": 1876,
      "shri": 1877,
      "goo": 1878,
      "bkram": 1879,
      "brdung": 1880,
      "stangs": 1881,
      "nos": 1882,
      "lud": 1883,
      "lham": 1884,
      "tshabs": 1885,
      "tsham": 1886,
      "mri": 1887,
      "AH": 1888,
      "ratna": 1889,
      "sprod": 1890,
      "blun": 1891,
      "mir": 1892,
      "spun": 1893,
      "stug": 1894,
      "bhya": 1895,
      "gsos": 1896,
      "lc": 1897,
      "ger": 1898,
      "glags": 1899,
      "phebs": 1900,
      "brku": 1901,
      "rtul": 1902,
      "stang": 1903,
      "bskyab": 1904,
      "ja": 1905,
      "dr": 1906,
      "bsnol": 1907,
      "rmugs": 1908,
      "men": 1909,
      "klad": 1910,
      "bcus": 1911,
      "///": 1912,
      "Tha": 1913,
      "rva": 1914,
      "wam": 1915,
      "smyung": 1916,
      "35": 1917,
      "dhe": 1918,
      "gsher": 1919,
      "yaM": 1920,
      "btsos": 1921,
      "....(": 1922,
      "lhor": 1923,
      "kI": 1924,
      "gdengs": 1925,
      "bslangs": 1926,
      "mj": 1927,
      "skyug": 1928,
      "pam": 1929,
      "srad": 1930,
      "brla": 1931,
      "maH": 1932,
      "u0": 1933,
      "u0f": 1934,
      "phod": 1935,
      "zhan": 1936,
      "tshegs": 1937,
      "sru": 1938,
      "dkrugs": 1939,
      "zhog": 1940,
      "bsnyad": 1941,
      "bsang": 1942,
      "bskum": 1943,
      "mtshor": 1944,
      "brug": 1945,
      "mgur": 1946,
      "tI": 1947,
      "gab": 1948,
      "ksh": 1949,
      "degs": 1950,
      "ngoms": 1951,
      "zungs": 1952,
      "mchil": 1953,
      "lhur": 1954,
      "rton": 1955,
      "smre": 1956,
      "gtod": 1957,
      "bse": 1958,
      "snyigs": 1959,
      "gom": 1960,
      "dub": 1961,
      "mjed": 1962,
      "nyA": 1963,
      "36": 1964,
      "bsko": 1965,
      "bkrol": 1966,
      "gzhang": 1967,
      "thong": 1968,
      "rm": 1969,
      "gdol": 1970,
      "sme": 1971,
      "pany": 1972,
      "gsor": 1973,
      "thigs": 1974,
      "bcangs": 1975,
      "bder": 1976,
      "khon": 1977,
      "smros": 1978,
      "ther": 1979,
      "btub": 1980,
      "bsta": 1981,
      "amp": 1982,
      "rdzun": 1983,
      "aan": 1984,
      "zhar": 1985,
      "dgar": 1986,
      "leb": 1987,
      "phrod": 1988,
      "ngor": 1989,
      "san": 1990,
      "dala": 1991,
      "lja": 1992,
      "dpyid": 1993,
      "atma": 1994,
      "ges": 1995,
      "gse": 1996,
      "mthol": 1997,
      "dwags": 1998,
      "rked": 1999,
      "yak": 2000,
      "sol": 2001,
      "rod": 2002,
      "mna": 2003,
      "tshos": 2004,
      "ljags": 2005,
      "sbed": 2006,
      "je": 2007,
      "bte": 2008,
      "gau": 2009,
      "dzA": 2010,
      "37": 2011,
      "gangs": 2012,
      "dbyen": 2013,
      "zhun": 2014,
      "doms": 2015,
      "sbra": 2016,
      "khrel": 2017,
      "aar": 2018,
      "gh": 2019,
      "tta": 2020,
      "rlon": 2021,
      "lpags": 2022,
      "bskyang": 2023,
      "brkus": 2024,
      "u0f8": 2025,
      "bslad": 2026,
      "brtsal": 2027,
      "btus": 2028,
      "autpala": 2029,
      "sarb": 2030,
      "sgrar": 2031,
      "[*": 2032,
      "bung": 2033,
      "bcabs": 2034,
      "shad": 2035,
      "khungs": 2036,
      "dgun": 2037,
      "Ur": 2038,
      "mkho": 2039,
      "som": 2040,
      "IH": 2041,
      "mchan": 2042,
      "naM": 2043,
      "rer": 2044,
      "urya": 2045,
      "mnos": 2046,
      "rtswa": 2047,
      "khril": 2048,
      "sten": 2049,
      "khebs": 2050,
      "38": 2051,
      "push": 2052,
      "mur": 2053,
      "baM": 2054,
      "bandha": 2055,
      "bltar": 2056,
      "spyin": 2057,
      "bsnan": 2058,
      "buddha": 2059,
      "shug": 2060,
      "bsg": 2061,
      "bug": 2062,
      "rtsir": 2063,
      "brdar": 2064,
      "bslus": 2065,
      "ShA": 2066,
      "chug": 2067,
      "tvam": 2068,
      "tshab": 2069,
      "gyad": 2070,
      "raM": 2071,
      "bai": 2072,
      "mra": 2073,
      "spre": 2074,
      "'//": 2075,
      "tsA": 2076,
      "pr": 2077,
      "gzhes": 2078,
      "gzod": 2079,
      "zheng": 2080,
      "gzan": 2081,
      "brtsigs": 2082,
      "rngub": 2083,
      "tram": 2084,
      "39": 2085,
      "jim": 2086,
      "mdos": 2087,
      "dgur": 2088,
      "u0f85": 2089,
      "klas": 2090,
      "gtsor": 2091,
      "tso": 2092,
      "bsangs": 2093,
      "shya": 2094,
      "40": 2095,
      "ldeng": 2096,
      "tva": 2097,
      "con": 2098,
      "gying": 2099,
      "chol": 2100,
      "thebs": 2101,
      "srab": 2102,
      "thum": 2103,
      "tsakra": 2104,
      "hoh": 2105,
      "bid": 2106,
      "spar": 2107,
      "41": 2108,
      "khyung": 2109,
      "sengge": 2110,
      "rwa": 2111,
      "bteg": 2112,
      "bslu": 2113,
      "tya": 2114,
      "satva": 2115,
      "drar": 2116,
      "dzambu": 2117,
      "nyag": 2118,
      "bI": 2119,
      "satv": 2120,
      "dmangs": 2121,
      "bsdi": 2122,
      "sog": 2123,
      "btsir": 2124,
      "rnag": 2125,
      "bdar": 2126,
      "dzaH": 2127,
      "smyo": 2128,
      "bkab": 2129,
      "42": 2130,
      "slon": 2131,
      "btso": 2132,
      "bsrel": 2133,
      "dv": 2134,
      "ain": 2135,
      "rdor": 2136,
      "shang": 2137,
      "shigs": 2138,
      "dwangs": 2139,
      "grog": 2140,
      "mis": 2141,
      "rdal": 2142,
      "dzud": 2143,
      "dharm": 2144,
      "dkrol": 2145,
      "Di": 2146,
      "wi": 2147,
      "tun": 2148,
      "NA": 2149,
      "@##": 2150,
      "tham": 2151,
      "waM": 2152,
      "dngas": 2153,
      "thibs": 2154,
      "gzengs": 2155,
      "bdog": 2156,
      "gdub": 2157,
      "kos": 2158,
      "smyon": 2159,
      "bsdigs": 2160,
      "sarbba": 2161,
      "gengs": 2162,
      "ag": 2163,
      "bklag": 2164,
      "bzhud": 2165,
      "gran": 2166,
      "khrungs": 2167,
      "gor": 2168,
      "taM": 2169,
      "rkyang": 2170,
      "dron": 2171,
      "khi": 2172,
      "skem": 2173,
      "Ti": 2174,
      "rgud": 2175,
      "tishtha": 2176,
      "bogs": 2177,
      "/...(": 2178,
      "mnyen": 2179,
      "tshags": 2180,
      "chun": 2181,
      "phub": 2182,
      "dzva": 2183,
      "gshog": 2184,
      "mr": 2185,
      "bstabs": 2186,
      "rkyal": 2187,
      "skran": 2188,
      "iT": 2189,
      "kaH": 2190,
      "tadya": 2191,
      "skus": 2192,
      "tshed": 2193,
      "hrIH": 2194,
      "dI": 2195,
      "Shu": 2196,
      "zor": 2197,
      "skong": 2198,
      "snyems": 2199,
      "shta": 2200,
      "43": 2201,
      "rdol": 2202,
      "skrod": 2203,
      "kyus": 2204,
      ";'": 2205,
      "taH": 2206,
      "hna": 2207,
      "lku": 2208,
      "nged": 2209,
      "arya": 2210,
      "khol": 2211,
      "co": 2212,
      "bklags": 2213,
      "bsdad": 2214,
      "bcag": 2215,
      "nongs": 2216,
      "khrol": 2217,
      "kor": 2218,
      "skyu": 2219,
      "khrigs": 2220,
      "pal": 2221,
      "blag": 2222,
      "smug": 2223,
      "stor": 2224,
      "bangs": 2225,
      "rtsed": 2226,
      "shor": 2227,
      "bsdam": 2228,
      "aah": 2229,
      "yus": 2230,
      "nir": 2231,
      "ren": 2232,
      "44": 2233,
      "bregs": 2234,
      "gtams": 2235,
      "kshi": 2236,
      "mngag": 2237,
      "stvam": 2238,
      "ler": 2239,
      "brkos": 2240,
      "harma": 2241,
      "rgun": 2242,
      "rngo": 2243,
      "yem": 2244,
      "glan": 2245,
      "keng": 2246,
      "nyo": 2247,
      "bhy": 2248,
      "sod": 2249,
      "bsham": 2250,
      "rkan": 2251,
      "shrI": 2252,
      "moong": 2253,
      "tre": 2254,
      "gtun": 2255,
      "yAM": 2256,
      "ging": 2257,
      "kaM": 2258,
      "tshwa": 2259,
      "gnya": 2260,
      "nyungs": 2261,
      "hI": 2262,
      "sbrel": 2263,
      "gzo": 2264,
      "khob": 2265,
      "tas": 2266,
      "khog": 2267,
      "brnab": 2268,
      "brlan": 2269,
      "snar": 2270,
      "bigs": 2271,
      "moonggal": 2272,
      "hoH": 2273,
      "lkugs": 2274,
      "glen": 2275,
      "gnyan": 2276,
      "gzas": 2277,
      "(]": 2278,
      "grul": 2279,
      "spring": 2280,
      "[)": 2281,
      "dharma": 2282,
      "btson": 2283,
      "khron": 2284,
      "skyugs": 2285,
      "nim": 2286,
      "zar": 2287,
      "brog": 2288,
      "skas": 2289,
      "gzhog": 2290,
      "bsnyems": 2291,
      "manta": 2292,
      "grwa": 2293,
      "chig": 2294,
      "tAM": 2295,
      "sle": 2296,
      "sder": 2297,
      "mandala": 2298,
      "bkye": 2299,
      "grva": 2300,
      "lcug": 2301,
      "nyil": 2302,
      "spags": 2303,
      "gyes": 2304,
      "pU": 2305,
      "45": 2306,
      "thags": 2307,
      "rtser": 2308,
      "stsogs": 2309,
      "dho": 2310,
      "run": 2311,
      "rid": 2312,
      "ata": 2313,
      "para": 2314,
      "[)]": 2315,
      "raH": 2316,
      "yag": 2317,
      "aM": 2318,
      "brtas": 2319,
      "aoo": 2320,
      "skams": 2321,
      "khom": 2322,
      "rtsad": 2323,
      "stir": 2324,
      "[(]": 2325,
      "raksha": 2326,
      "bskams": 2327,
      "ngus": 2328,
      "skyid": 2329,
      "gsus": 2330,
      "rba": 2331,
      "we": 2332,
      "tsog": 2333,
      "stengs": 2334,
      "smrig": 2335,
      "tshin": 2336,
      "chibs": 2337,
      "skrangs": 2338,
      "snyom": 2339,
      "'/": 2340,
      "zong": 2341,
      "nAM": 2342,
      "khug": 2343,
      "laM": 2344,
      "gyel": 2345,
      "bhe": 2346,
      "dush": 2347,
      "shag": 2348,
      "sI": 2349,
      "mtshang": 2350,
      "dpang": 2351,
      "skyer": 2352,
      "dkyus": 2353,
      "rdeg": 2354,
      "maN": 2355,
      "bil": 2356,
      "maud": 2357,
      "brgyas": 2358,
      "stam": 2359,
      "dgram": 2360,
      "dku": 2361,
      "spungs": 2362,
      "padmar": 2363,
      "spongs": 2364,
      "dmod": 2365,
      "rde": 2366,
      "mtshe": 2367,
      "gsham": 2368,
      "lhod": 2369,
      "dbal": 2370,
      "mid": 2371,
      "dzo": 2372,
      "gdeng": 2373,
      "bsre": 2374,
      "tshams": 2375,
      "chem": 2376,
      "sing": 2377,
      "ldem": 2378,
      "46": 2379,
      "gca": 2380,
      "them": 2381,
      "drags": 2382,
      "chings": 2383,
      "sga": 2384,
      "stongs": 2385,
      "yee": 2386,
      "im": 2387,
      "byam": 2388,
      "phrom": 2389,
      "many": 2390,
      "gzhogs": 2391,
      "lhang": 2392,
      "tt": 2393,
      "tres": 2394,
      "by": 2395,
      "bskyal": 2396,
      "sgang": 2397,
      "bres": 2398,
      "bdugs": 2399,
      "kshu": 2400,
      "ldeb": 2401,
      "khA": 2402,
      "bzhu": 2403,
      "rgyam": 2404,
      "shI": 2405,
      "tiSh": 2406,
      "skyel": 2407,
      "She": 2408,
      "tshems": 2409,
      "pang": 2410,
      "us": 2411,
      "tol": 2412,
      "mnye": 2413,
      "sngom": 2414,
      "phru": 2415,
      "ita": 2416,
      "khram": 2417,
      "siddhi": 2418,
      "gzhungs": 2419,
      "hom": 2420,
      "skyegs": 2421,
      "bags": 2422,
      "gyo": 2423,
      "aakya": 2424,
      "twa": 2425,
      "zo": 2426,
      "bsgrag": 2427,
      "yer": 2428,
      "At": 2429,
      "mthas": 2430,
      "haH": 2431,
      "gnan": 2432,
      "rlan": 2433,
      "bems": 2434,
      "gyings": 2435,
      "rting": 2436,
      "sug": 2437,
      "lim": 2438,
      "grihna": 2439,
      "DA": 2440,
      "phob": 2441,
      "rU": 2442,
      "brim": 2443,
      "rar": 2444,
      "kum": 2445,
      "lteng": 2446,
      "trag": 2447,
      "shod": 2448,
      "bgrangs": 2449,
      "dzem": 2450,
      "gseb": 2451,
      "++": 2452,
      "tug": 2453,
      "brkam": 2454,
      "bskon": 2455,
      "bhr": 2456,
      "brtol": 2457,
      "breng": 2458,
      "ron": 2459,
      "rtsib": 2460,
      "tsanda": 2461,
      "smyos": 2462,
      "snabs": 2463,
      "gtar": 2464,
      "pandi": 2465,
      "sy": 2466,
      "mjal": 2467,
      "lcang": 2468,
      "sim": 2469,
      "gzud": 2470,
      "47": 2471,
      "kla": 2472,
      "klan": 2473,
      "wAM": 2474,
      "dngang": 2475,
      "snyim": 2476,
      "NI": 2477,
      "btsud": 2478,
      "tim": 2479,
      "shra": 2480,
      "dmus": 2481,
      "snag": 2482,
      "dpyangs": 2483,
      "les": 2484,
      "Ar": 2485,
      "bsgrims": 2486,
      "zlas": 2487,
      "dbral": 2488,
      "rdzus": 2489,
      "bsgyings": 2490,
      "myed": 2491,
      "bsdoms": 2492,
      "aee": 2493,
      "khyo": 2494,
      "dya": 2495,
      "shuddha": 2496,
      "aindra": 2497,
      "maM": 2498,
      "bog": 2499,
      "dgab": 2500,
      "bstsal": 2501,
      "khaM": 2502,
      "gshibs": 2503,
      "dgung": 2504,
      "lcam": 2505,
      "dzeg": 2506,
      "rgu": 2507,
      "bkol": 2508,
      "bhyo": 2509,
      "nyed": 2510,
      "dkri": 2511,
      "rlangs": 2512,
      "/....(": 2513,
      "bsru": 2514,
      "kru": 2515,
      "sU": 2516,
      "ldong": 2517,
      "spyo": 2518,
      "gtses": 2519,
      "skrang": 2520,
      "ngogs": 2521,
      "bsdogs": 2522,
      "tsags": 2523,
      "glud": 2524,
      "autpal": 2525,
      "dring": 2526,
      "skyod": 2527,
      "kang": 2528,
      "gzhong": 2529,
      "gtubs": 2530,
      "dkrug": 2531,
      "grad": 2532,
      "bltams": 2533,
      "anta": 2534,
      "tsheg": 2535,
      "rtsar": 2536,
      "rngon": 2537,
      "bkri": 2538,
      "rtug": 2539,
      "shangs": 2540,
      "nydza": 2541,
      "mkhur": 2542,
      "shv": 2543,
      "btsags": 2544,
      "srul": 2545,
      "rmis": 2546,
      "Dal": 2547,
      "ghu": 2548,
      "cus": 2549,
      "khyam": 2550,
      "paM": 2551,
      "ngangs": 2552,
      "rlobs": 2553,
      "shinytsa": 2554,
      "dgye": 2555,
      "dhya": 2556,
      "gres": 2557,
      "brnag": 2558,
      "gsob": 2559,
      "dreg": 2560,
      "brdzi": 2561,
      "khva": 2562,
      "brdabs": 2563,
      "satwa": 2564,
      "drir": 2565,
      "48": 2566,
      "pre": 2567,
      "sgog": 2568,
      "zi": 2569,
      "badzr": 2570,
      "u0f85haM": 2571,
      "lI": 2572,
      "gcugs": 2573,
      "mgal": 2574,
      "bstun": 2575,
      "brdas": 2576,
      "yir": 2577,
      "mtshos": 2578,
      "satwA": 2579,
      "klo": 2580,
      "spra": 2581,
      "tshoms": 2582,
      "lig": 2583,
      "bgrad": 2584,
      "cham": 2585,
      "smyig": 2586,
      "bskrun": 2587,
      "sbos": 2588,
      "dbri": 2589,
      "nem": 2590,
      "\\/": 2591,
      "trA": 2592,
      "bzha": 2593,
      "lcogs": 2594,
      "spyon": 2595,
      "lcag": 2596,
      "mI": 2597,
      "sin": 2598,
      "khrung": 2599,
      "tur": 2600,
      "rlag": 2601,
      "snyun": 2602,
      "tsar": 2603,
      "dras": 2604,
      "shong": 2605,
      "badzri": 2606,
      "shur": 2607,
      "dgus": 2608,
      "zam": 2609,
      "sgrom": 2610,
      "brgyus": 2611,
      "sgoms": 2612,
      "gzims": 2613,
      "gandha": 2614,
      "dzegs": 2615,
      "mchong": 2616,
      "sdeb": 2617,
      "gsil": 2618,
      "sdes": 2619,
      "snad": 2620,
      "daM": 2621,
      "ih": 2622,
      "bkas": 2623,
      "phyur": 2624,
      "rong": 2625,
      "bkal": 2626,
      "gris": 2627,
      "gzings": 2628,
      "tsitta": 2629,
      "tish": 2630,
      "kyal": 2631,
      "brdegs": 2632,
      "brdzes": 2633,
      "mtheb": 2634,
      "pta": 2635,
      "naH": 2636,
      "dhri": 2637,
      "dzom": 2638,
      "phrug": 2639,
      "mh": 2640,
      "bshu": 2641,
      "sgyi": 2642,
      "gand": 2643,
      "lda": 2644,
      "aag": 2645,
      "big": 2646,
      "dkor": 2647,
      "mkhregs": 2648,
      "puk": 2649,
      "dros": 2650,
      "bkan": 2651,
      "srod": 2652,
      "hya": 2653,
      "ngad": 2654,
      "bho": 2655,
      "stob": 2656,
      "rko": 2657,
      "karsha": 2658,
      "dgal": 2659,
      "zhang": 2660,
      "49": 2661,
      ",]": 2662,
      "sgrubs": 2663,
      "tar": 2664,
      "sas": 2665,
      "byer": 2666,
      "rbab": 2667,
      "cur": 2668,
      "[,]": 2669,
      "mog": 2670,
      "dzas": 2671,
      "lasa": 2672,
      "bkar": 2673,
      "brtsig": 2674,
      "mchongs": 2675,
      "breg": 2676,
      "rmas": 2677,
      "brtsis": 2678,
      "has": 2679,
      "gardza": 2680,
      "glengs": 2681,
      "rme": 2682,
      "brdal": 2683,
      "basnga": 2684,
      "byA": 2685,
      "hiH": 2686,
      "chungs": 2687,
      "bzhams": 2688,
      "yams": 2689,
      "rti": 2690,
      "khyon": 2691,
      "rlog": 2692,
      "dbyu": 2693,
      "laT": 2694,
      "hur": 2695,
      "bsrings": 2696,
      "bso": 2697,
      "bkren": 2698,
      "shtsa": 2699,
      "badzre": 2700,
      "rngams": 2701,
      "skems": 2702,
      "bsnyil": 2703,
      "dzums": 2704,
      "\\)": 2705,
      "tsom": 2706,
      "meda": 2707,
      ":...(": 2708,
      "byid": 2709,
      "sgyid": 2710,
      "brab": 2711,
      "dat": 2712,
      "puSh": 2713,
      "gseg": 2714,
      "gasa": 2715,
      "bsgul": 2716,
      "sngas": 2717,
      "brtsad": 2718,
      "sgong": 2719,
      "rdung": 2720,
      "sht": 2721,
      "srol": 2722,
      "।।": 2723,
      "dpangs": 2724,
      "slan": 2725,
      "shU": 2726,
      "mgar": 2727,
      "gshol": 2728,
      "nri": 2729,
      "yaksha": 2730,
      "nyos": 2731,
      "mchid": 2732,
      "khrur": 2733,
      "tsaN": 2734,
      "gras": 2735,
      "dzab": 2736,
      "tti": 2737,
      "yata": 2738,
      "lhums": 2739,
      "ldeg": 2740,
      "gtub": 2741,
      "mnod": 2742,
      "khyog": 2743,
      "nee": 2744,
      "bin": 2745,
      "krol": 2746,
      "ty": 2747,
      "blug": 2748,
      "50": 2749,
      "ldum": 2750,
      "snas": 2751,
      "kal": 2752,
      "bgyir": 2753,
      "amo": 2754,
      "srun": 2755,
      "hrim": 2756,
      "bsro": 2757,
      "bstims": 2758,
      "hee": 2759,
      "prA": 2760,
      "gcong": 2761,
      "khus": 2762,
      "paN": 2763,
      "bgom": 2764,
      "dzugs": 2765,
      "brje": 2766,
      "nyar": 2767,
      "rnyi": 2768,
      "wan": 2769,
      "soo": 2770,
      "chogs": 2771,
      "iSh": 2772,
      "spogs": 2773,
      "myangs": 2774,
      "khad": 2775,
      "rgyangs": 2776,
      "rmig": 2777,
      "tsin": 2778,
      "rdzab": 2779,
      "shlo": 2780,
      "rya": 2781,
      "dred": 2782,
      "phyo": 2783,
      "gzon": 2784,
      "bem": 2785,
      "spha": 2786,
      "rdog": 2787,
      "gshis": 2788,
      "mee": 2789,
      "Ya": 2790,
      "khums": 2791,
      "Tu": 2792,
      "kong": 2793,
      "kshe": 2794,
      "ganga": 2795,
      "khal": 2796,
      "tshing": 2797,
      "bhan": 2798,
      "aita": 2799,
      "obs": 2800,
      "snom": 2801,
      "brah": 2802,
      "tshud": 2803,
      "bzhina": 2804,
      "snyegs": 2805,
      "bsag": 2806,
      "lces": 2807,
      "brko": 2808,
      "brags": 2809,
      "nr": 2810,
      "dongs": 2811,
      "ShI": 2812,
      "yanga": 2813,
      "bsrabs": 2814,
      "dba": 2815,
      "dhv": 2816,
      "sgri": 2817,
      "byan": 2818,
      "gtsub": 2819,
      "snal": 2820,
      "khanda": 2821,
      "mum": 2822,
      "twA": 2823,
      "dzra": 2824,
      "shti": 2825,
      "dhva": 2826,
      "bshal": 2827,
      "nytsa": 2828,
      "zabs": 2829,
      "sul": 2830,
      "thas": 2831,
      "sbrum": 2832,
      "pun": 2833,
      "dbrog": 2834,
      "btsu": 2835,
      "gdang": 2836,
      "bskam": 2837,
      "byu": 2838,
      "kta": 2839,
      "nog": 2840,
      "hra": 2841,
      "aata": 2842,
      "btsod": 2843,
      "brdab": 2844,
      "rmed": 2845,
      "Shiny": 2846,
      "yob": 2847,
      "khyor": 2848,
      "pasa": 2849,
      "lin": 2850,
      "drongs": 2851,
      "skyigs": 2852,
      "btsums": 2853,
      "brub": 2854,
      "bsung": 2855,
      ":....(": 2856,
      "rdu": 2857,
      "aat": 2858,
      "basngagasa": 2859,
      "khyogs": 2860,
      "lhug": 2861,
      "skol": 2862,
      "mtshal": 2863,
      "sgur": 2864,
      "brid": 2865,
      "lji": 2866,
      "than": 2867,
      "sth": 2868,
      "brngu": 2869,
      "mandal": 2870,
      "dgrar": 2871,
      "khyal": 2872,
      "phong": 2873,
      "khugs": 2874,
      "ldi": 2875,
      "mgor": 2876,
      "ldag": 2877,
      "dbog": 2878,
      "skyobs": 2879,
      "sre": 2880,
      "skan": 2881,
      "AHhUM": 2882,
      "dvi": 2883,
      "sr": 2884,
      "dzer": 2885,
      "phyes": 2886,
      "jud": 2887,
      "phyas": 2888,
      "bstab": 2889,
      "Ne": 2890,
      "aih": 2891,
      "Nu": 2892,
      "bsgril": 2893,
      "DUr": 2894,
      "mngags": 2895,
      "gsha": 2896,
      "choms": 2897,
      "gatstsha": 2898,
      "dgras": 2899,
      "spen": 2900,
      "pradz": 2901,
      "mnam": 2902,
      "smyug": 2903,
      "ngi": 2904,
      "kunda": 2905,
      "dzha": 2906,
      "mdzangs": 2907,
      "liT": 2908,
      "nyug": 2909,
      "phyags": 2910,
      "btsag": 2911,
      "nangs": 2912,
      "sbangs": 2913,
      "myags": 2914,
      "pog": 2915,
      "bsnyams": 2916,
      "brjes": 2917,
      "mdag": 2918,
      "panytsa": 2919,
      "ltogs": 2920,
      "mU": 2921,
      "bun": 2922,
      "harmA": 2923,
      "DI": 2924,
      "rtas": 2925,
      "bsngor": 2926,
      "aH": 2927,
      "mAM": 2928,
      "badga": 2929,
      "brgan": 2930,
      "51": 2931,
      "buddh": 2932,
      "mung": 2933,
      "gzig": 2934,
      "brus": 2935,
      "Du": 2936,
      "srub": 2937,
      "bskyangs": 2938,
      "bsrang": 2939,
      "blor": 2940,
      "mthug": 2941,
      "mdongs": 2942,
      "phugs": 2943,
      "brgyab": 2944,
      "bsnyungs": 2945,
      "dos": 2946,
      "rtsen": 2947,
      "gcal": 2948,
      "dnga": 2949,
      "yai": 2950,
      "spho": 2951,
      "drud": 2952,
      "slebs": 2953,
      "smas": 2954,
      "shru": 2955,
      "sbags": 2956,
      "dngangs": 2957,
      "kyir": 2958,
      "gats": 2959,
      "zhas": 2960,
      "ak": 2961,
      "any": 2962,
      "drub": 2963,
      "mchin": 2964,
      "nal": 2965,
      "phrugs": 2966,
      "huM": 2967,
      "samyak": 2968,
      "bhri": 2969,
      "NaM": 2970,
      "phri": 2971,
      "bhra": 2972,
      "yina": 2973,
      "rdzong": 2974,
      "bdal": 2975,
      "hva": 2976,
      "spyos": 2977,
      "klag": 2978,
      "bsgrangs": 2979,
      "skyen": 2980,
      "shma": 2981,
      "skyar": 2982,
      "hrih": 2983,
      "bsnyengs": 2984,
      "dngags": 2985,
      "dUr": 2986,
      "bsdebs": 2987,
      "gel": 2988,
      "rjen": 2989,
      "bsring": 2990,
      "tuH": 2991,
      "rakta": 2992,
      "mud": 2993,
      "rlig": 2994,
      "bsnyon": 2995,
      "mdoms": 2996,
      "sbran": 2997,
      "shuddho": 2998,
      "bsgrengs": 2999,
      "lums": 3000,
      "manda": 3001,
      "nda": 3002,
      "chor": 3003,
      "sprugs": 3004,
      "NAM": 3005,
      "sgos": 3006,
      "phyal": 3007,
      "bsrubs": 3008,
      "grA": 3009,
      "hwa": 3010,
      "drim": 3011,
      "tsun": 3012,
      "yabs": 3013,
      "tutt": 3014,
      "nyul": 3015,
      "khwa": 3016,
      "smi": 3017,
      "hril": 3018,
      "muny": 3019,
      "skos": 3020,
      "baH": 3021,
      "gaN": 3022,
      "bsnyel": 3023,
      "inya": 3024,
      "daga": 3025,
      "mnabs": 3026,
      "dzdza": 3027,
      "khrums": 3028,
      "dkur": 3029,
      "phre": 3030,
      "kul": 3031,
      "tsak": 3032,
      "spyil": 3033,
      "bkrag": 3034,
      "tshog": 3035,
      "sbur": 3036,
      "bkum": 3037,
      "yoo": 3038,
      "ltad": 3039,
      "sko": 3040,
      "sleb": 3041,
      "bstsags": 3042,
      "smrar": 3043,
      "krita": 3044,
      "vi": 3045,
      "smyan": 3046,
      "brims": 3047,
      "spror": 3048,
      "dzings": 3049,
      "rngul": 3050,
      "tir": 3051,
      "randa": 3052,
      "traM": 3053,
      "dwi": 3054,
      "hin": 3055,
      "nasa": 3056,
      "sbram": 3057,
      "byes": 3058,
      "sgros": 3059,
      "mkhrang": 3060,
      "smel": 3061,
      "shir": 3062,
      "[)]@#//": 3063,
      "dbug": 3064,
      "rkub": 3065,
      "chongs": 3066,
      "bdas": 3067,
      "zes": 3068,
      "maHsarba": 3069,
      "sngor": 3070,
      "sau": 3071,
      "phrang": 3072,
      "gcags": 3073,
      "bat": 3074,
      "shna": 3075,
      "ping": 3076,
      "shAn": 3077,
      "gI": 3078,
      "rnyings": 3079,
      "dpags": 3080,
      "shom": 3081,
      "52": 3082,
      "ika": 3083,
      "pradzny": 3084,
      "too": 3085,
      "is": 3086,
      "ldongs": 3087,
      "khogs": 3088,
      "nab": 3089,
      "mel": 3090,
      ";/": 3091,
      "gebs": 3092,
      "dzaM": 3093,
      "phol": 3094,
      "tshub": 3095,
      "shaM": 3096,
      "dzan": 3097,
      "gtse": 3098,
      "lis": 3099,
      "ber": 3100,
      "dbo": 3101,
      "glus": 3102,
      "bskyon": 3103,
      "aarg": 3104,
      "brtser": 3105,
      "tsandra": 3106,
      "shesa": 3107,
      "roo": 3108,
      "km": 3109,
      "bigh": 3110,
      "drul": 3111,
      "rnags": 3112,
      "ror": 3113,
      "aur": 3114,
      "gsong": 3115,
      "bzar": 3116,
      "gtsags": 3117,
      "ranga": 3118,
      "rtsing": 3119,
      "rka": 3120,
      "spyar": 3121,
      "bgros": 3122,
      "aN": 3123,
      "phi": 3124,
      "brlang": 3125,
      "gzhis": 3126,
      "bdo": 3127,
      "it": 3128,
      "zham": 3129,
      "grugs": 3130,
      "bcibs": 3131,
      "ShaH": 3132,
      "sgal": 3133,
      "NaH": 3134,
      "bltos": 3135,
      "kva": 3136,
      "rda": 3137,
      "gzhigs": 3138,
      "pushpe": 3139,
      "mthang": 3140,
      "pukka": 3141,
      "dzaHhUM": 3142,
      "mcher": 3143,
      "zlar": 3144,
      "siddha": 3145,
      "ldon": 3146,
      "sbrid": 3147,
      "thums": 3148,
      "btod": 3149,
      "jungs": 3150,
      "dpyas": 3151,
      "sthi": 3152,
      "bsgre": 3153,
      "sdebs": 3154,
      "kyo": 3155,
      "sumbha": 3156,
      "aahmh": 3157,
      "phem": 3158,
      "ged": 3159,
      "aang": 3160,
      "sheg": 3161,
      "@#/": 3162,
      "manydzu": 3163,
      "lhab": 3164,
      "TI": 3165,
      "byur": 3166,
      "jib": 3167,
      "rir": 3168,
      "gho": 3169,
      "rgad": 3170,
      "Thi": 3171,
      "khre": 3172,
      "gdal": 3173,
      "noo": 3174,
      "sprug": 3175,
      "grod": 3176,
      "bzhar": 3177,
      "lgang": 3178,
      "maHsa": 3179,
      "pya": 3180,
      "hanya": 3181,
      "btsong": 3182,
      "col": 3183,
      "tak": 3184,
      "duSh": 3185,
      "kim": 3186,
      "brgyu": 3187,
      "sdu": 3188,
      "hor": 3189,
      "spyor": 3190,
      "lhub": 3191,
      "bsrub": 3192,
      ":/...(": 3193,
      "sbub": 3194,
      "sdum": 3195,
      "sprang": 3196,
      "mde": 3197,
      "shus": 3198,
      "deb": 3199,
      "aarha": 3200,
      "sgril": 3201,
      "lbu": 3202,
      "brgyang": 3203,
      "bak": 3204,
      "bsgrib": 3205,
      "skyin": 3206,
      "ydza": 3207,
      "raka": 3208,
      "glad": 3209,
      "gsag": 3210,
      "hai": 3211,
      "zhor": 3212,
      "luT": 3213,
      "kak": 3214,
      "padmas": 3215,
      "brtun": 3216,
      "bstar": 3217,
      "bskyabs": 3218,
      "tat": 3219,
      "dzI": 3220,
      "bol": 3221,
      "klubs": 3222,
      "pUr": 3223,
      ":'": 3224,
      "phred": 3225,
      "drid": 3226,
      "tsoo": 3227,
      "rngan": 3228,
      "spyugs": 3229,
      "mkhal": 3230,
      "brtsan": 3231,
      "bskyar": 3232,
      "gshags": 3233,
      "ranydza": 3234,
      "kur": 3235,
      "shuddhe": 3236,
      "then": 3237,
      "gzhil": 3238,
      "bAn": 3239,
      "drungs": 3240,
      "gnu": 3241,
      "drubs": 3242,
      "slas": 3243,
      "dham": 3244,
      "star": 3245,
      "dharmma": 3246,
      "bsnyal": 3247,
      "drA": 3248,
      "trum": 3249,
      "sgreng": 3250,
      "yoH": 3251,
      "tiH": 3252,
      "zlo": 3253,
      "spyis": 3254,
      "tis": 3255,
      "gnubs": 3256,
      "lobs": 3257,
      "glal": 3258,
      "kti": 3259,
      "zhir": 3260,
      "bsgyel": 3261,
      "sye": 3262,
      "mai": 3263,
      "btse": 3264,
      "ShaM": 3265,
      "sbrus": 3266,
      "khrom": 3267,
      "jag": 3268,
      "hany": 3269,
      "bcal": 3270,
      "blags": 3271,
      "pushpa": 3272,
      "spur": 3273,
      "nut": 3274,
      "tree": 3275,
      "dzv": 3276,
      "Te": 3277,
      "ndha": 3278,
      "skyems": 3279,
      "grih": 3280,
      "dgong": 3281,
      "rnyil": 3282,
      "tshag": 3283,
      "spor": 3284,
      "wo": 3285,
      "bred": 3286,
      "tshinda": 3287,
      "&&": 3288,
      "lhogs": 3289,
      "dd": 3290,
      "tum": 3291,
      "tye": 3292,
      "aana": 3293,
      "bshus": 3294,
      "grur": 3295,
      "hye": 3296,
      "khrir": 3297,
      "dkrigs": 3298,
      "karm": 3299,
      "mkhrig": 3300,
      "sgren": 3301,
      "rtsang": 3302,
      "dabs": 3303,
      "pI": 3304,
      "snun": 3305,
      "hrI": 3306,
      "brul": 3307,
      "pala": 3308,
      "brnan": 3309,
      "aagni": 3310,
      "mdzer": 3311,
      "ch": 3312,
      "matha": 3313,
      "bsgres": 3314,
      "brdzis": 3315,
      "mching": 3316,
      "gansa": 3317,
      "gce": 3318,
      "nong": 3319,
      "tro": 3320,
      "jing": 3321,
      "loT": 3322,
      "ana": 3323,
      "tsang": 3324,
      "ait": 3325,
      "sngangs": 3326,
      "nul": 3327,
      "dpogs": 3328,
      "kad": 3329,
      "swaha": 3330,
      "moo": 3331,
      "dy": 3332,
      "spri": 3333,
      "bskyur": 3334,
      "liM": 3335,
      "bugs": 3336,
      "nta": 3337,
      "soms": 3338,
      "shre": 3339,
      "aatsa": 3340,
      "brud": 3341,
      "dama": 3342,
      "dona": 3343,
      "ab": 3344,
      "sprel": 3345,
      "badzrA": 3346,
      "garbha": 3347,
      "kAr": 3348,
      "cor": 3349,
      "rlugs": 3350,
      "dzr": 3351,
      "btsog": 3352,
      "dve": 3353,
      "pak": 3354,
      "ThA": 3355,
      "krI": 3356,
      "sbyan": 3357,
      "tstshe": 3358,
      "brtad": 3359,
      "sbyod": 3360,
      "nyang": 3361,
      "pag": 3362,
      "shn": 3363,
      "Sho": 3364,
      "aad": 3365,
      "skongs": 3366,
      "bim": 3367,
      "mgos": 3368,
      "skyang": 3369,
      "sap": 3370,
      "khrud": 3371,
      "shth": 3372,
      "jus": 3373,
      "zags": 3374,
      "boo": 3375,
      "shy": 3376,
      "bkad": 3377,
      "gtibs": 3378,
      "53": 3379,
      "bldag": 3380,
      "samyaksam": 3381,
      "mand": 3382,
      "eng": 3383,
      "sher": 3384,
      "rUM": 3385,
      "antim": 3386,
      "bda": 3387,
      "chena": 3388,
      "btsongs": 3389,
      "nger": 3390,
      "rnna": 3391,
      "dushta": 3392,
      "rmya": 3393,
      "ऽऽ": 3394,
      "khaN": 3395,
      "dbub": 3396,
      "bskangs": 3397,
      "dusht": 3398,
      "kalpa": 3399,
      "grum": 3400,
      "trig": 3401,
      "bshol": 3402,
      "stha": 3403,
      "glon": 3404,
      "saH": 3405,
      "rtses": 3406,
      "gdos": 3407,
      "lubs": 3408,
      "daH": 3409,
      "rdob": 3410,
      "rmo": 3411,
      "glod": 3412,
      "dzasa": 3413,
      "ksho": 3414,
      "bsn": 3415,
      "ubs": 3416,
      "mood": 3417,
      "ltor": 3418,
      "aud": 3419,
      "zhesa": 3420,
      "tut": 3421,
      "bub": 3422,
      "rmen": 3423,
      "phyungs": 3424,
      "chosa": 3425,
      "khrab": 3426,
      "khyug": 3427,
      "bcab": 3428,
      "rte": 3429,
      "him": 3430,
      "skyongs": 3431,
      "gdam": 3432,
      "aas": 3433,
      "shthi": 3434,
      "rmang": 3435,
      "yats": 3436,
      "pat": 3437,
      "nai": 3438,
      "sal": 3439,
      "tras": 3440,
      "spom": 3441,
      "sbre": 3442,
      "stri": 3443,
      "bcags": 3444,
      "gcog": 3445,
      "krishna": 3446,
      "//'": 3447,
      "war": 3448,
      "jil": 3449,
      "mthur": 3450,
      "dpya": 3451,
      "mkhyud": 3452,
      "brahma": 3453,
      "rmos": 3454,
      "laH": 3455,
      "lba": 3456,
      "brngos": 3457,
      "bkral": 3458,
      "rtseg": 3459,
      "rngog": 3460,
      "slang": 3461,
      "dzambha": 3462,
      "brngub": 3463,
      "danda": 3464,
      "kre": 3465,
      "bskyil": 3466,
      "grongs": 3467,
      "skegs": 3468,
      "dbyes": 3469,
      "YA": 3470,
      "atsa": 3471,
      "bsogs": 3472,
      "dznya": 3473,
      "spug": 3474,
      "muk": 3475,
      "dges": 3476,
      "sdus": 3477,
      "hiSh": 3478,
      "byongs": 3479,
      "mantra": 3480,
      "rdos": 3481,
      "kanda": 3482,
      "rany": 3483,
      "beed": 3484,
      "TaM": 3485,
      "zhin": 3486,
      "smri": 3487,
      "aahh": 3488,
      "byo": 3489,
      "sgul": 3490,
      "huT": 3491,
      "sapta": 3492,
      "shat": 3493,
      "yAH": 3494,
      "kee": 3495,
      "marga": 3496,
      "tshob": 3497,
      "sdangs": 3498,
      "46b": 3499,
      "bgad": 3500,
      "ik": 3501,
      "uSh": 3502,
      "anti": 3503,
      "47a": 3504,
      "48a": 3505,
      "kyog": 3506,
      "kvi": 3507,
      "semsa": 3508,
      "tshas": 3509,
      "131b": 3510,
      "42a": 3511,
      "45a": 3512,
      "47b": 3513,
      "btegs": 3514,
      "45b": 3515,
      "55b": 3516,
      "slongs": 3517,
      "brur": 3518,
      "113a": 3519,
      "161b": 3520,
      "52b": 3521,
      "lya": 3522,
      "sbang": 3523,
      "tiM": 3524,
      "langa": 3525,
      "116b": 3526,
      "43a": 3527,
      "49b": 3528,
      "53b": 3529,
      "112b": 3530,
      "114b": 3531,
      "178a": 3532,
      "44b": 3533,
      "46a": 3534,
      "48b": 3535,
      "49a": 3536,
      "mdas": 3537,
      "tshem": 3538,
      "dgum": 3539,
      "sgregs": 3540,
      "122a": 3541,
      "44a": 3542,
      "43b": 3543,
      "40b": 3544,
      "53a": 3545,
      "51a": 3546,
      "76a": 3547,
      "70a": 3548,
      "btag": 3549,
      "theng": 3550,
      "sir": 3551,
      "brkyangs": 3552,
      "122b": 3553,
      "162b": 3554,
      "171b": 3555,
      "175a": 3556,
      "bidy": 3557,
      "42b": 3558,
      "51b": 3559,
      "70b": 3560,
      "bcva": 3561,
      "theb": 3562,
      "120b": 3563,
      "130a": 3564,
      "196a": 3565,
      "35a": 3566,
      "56b": 3567,
      "67a": 3568,
      "68b": 3569,
      "75a": 3570,
      "kaN": 3571,
      "117a": 3572,
      "117b": 3573,
      "110a": 3574,
      "119b": 3575,
      "128b": 3576,
      "120a": 3577,
      "132a": 3578,
      "134b": 3579,
      "168b": 3580,
      "175b": 3581,
      "41b": 3582,
      "41a": 3583,
      "54b": 3584,
      "58a": 3585,
      "50a": 3586,
      "67b": 3587,
      "69a": 3588,
      "69b": 3589,
      "72a": 3590,
      "74a": 3591,
      "75b": 3592,
      "77a": 3593,
      "76b": 3594,
      "muH": 3595,
      "112a": 3596,
      "115a": 3597,
      "124a": 3598,
      "133b": 3599,
      "166a": 3600,
      "171a": 3601,
      "52a": 3602,
      "55a": 3603,
      "54a": 3604,
      "57a": 3605,
      "63b": 3606,
      "77b": 3607,
      "86a": 3608,
      "ttha": 3609,
      "118a": 3610,
      "123a": 3611,
      "123b": 3612,
      "127b": 3613,
      "163b": 3614,
      "168a": 3615,
      "62a": 3616,
      "66a": 3617,
      "79a": 3618,
      "85b": 3619,
      "yatstsha": 3620,
      "115b": 3621,
      "113b": 3622,
      "116a": 3623,
      "121b": 3624,
      "124b": 3625,
      "126a": 3626,
      "105b": 3627,
      "106b": 3628,
      "132b": 3629,
      "135b": 3630,
      "165b": 3631,
      "151a": 3632,
      "28b": 3633,
      "56a": 3634,
      "58b": 3635,
      "50b": 3636,
      "63a": 3637,
      "64b": 3638,
      "74b": 3639,
      "84a": 3640,
      "nna": 3641,
      "129b": 3642,
      "108b": 3643,
      "162a": 3644,
      "165a": 3645,
      "154a": 3646,
      "180a": 3647,
      "brngubs": 3648,
      "19b": 3649,
      "22b": 3650,
      "25b": 3651,
      "26b": 3652,
      "57b": 3653,
      "65a": 3654,
      "71b": 3655,
      "73b": 3656,
      "tsum": 3657,
      "gisa": 3658,
      "smyu": 3659,
      "118b": 3660,
      "125a": 3661,
      "128a": 3662,
      "129a": 3663,
      "121a": 3664,
      "107a": 3665,
      "134a": 3666,
      "167a": 3667,
      "166b": 3668,
      "161a": 3669,
      "156a": 3670,
      "158a": 3671,
      "159a": 3672,
      "170a": 3673,
      "170b": 3674,
      "192b": 3675,
      "bighn": 3676,
      "64a": 3677,
      "72b": 3678,
      "73a": 3679,
      "79b": 3680,
      "84b": 3681,
      "sked": 3682,
      "gun": 3683,
      "hAM": 3684,
      "114a": 3685,
      "111a": 3686,
      "135a": 3687,
      "138b": 3688,
      "130b": 3689,
      "169a": 3690,
      "154b": 3691,
      "157b": 3692,
      "150a": 3693,
      "24b": 3694,
      "59a": 3695,
      "78b": 3696,
      "92a": 3697,
      "tshir": 3698,
      "tve": 3699,
      "119a": 3700,
      "106a": 3701,
      "109a": 3702,
      "139b": 3703,
      "169b": 3704,
      "151b": 3705,
      "156b": 3706,
      "173b": 3707,
      "176a": 3708,
      "177b": 3709,
      "141a": 3710,
      "182a": 3711,
      "195b": 3712,
      "193b": 3713,
      "rngubs": 3714,
      "10a": 3715,
      "24a": 3716,
      "27b": 3717,
      "40a": 3718,
      "71a": 3719,
      "80b": 3720,
      "kwi": 3721,
      "was": 3722,
      "lhog": 3723,
      "127a": 3724,
      "126b": 3725,
      "109b": 3726,
      "133a": 3727,
      "164b": 3728,
      "160b": 3729,
      "152b": 3730,
      "172b": 3731,
      "174b": 3732,
      "177a": 3733,
      "176b": 3734,
      "179a": 3735,
      "180b": 3736,
      "193a": 3737,
      "194a": 3738,
      "23b": 3739,
      "27a": 3740,
      "65b": 3741,
      "60b": 3742,
      "78a": 3743,
      "86b": 3744,
      "88a": 3745,
      "93a": 3746,
      "\\'": 3747,
      "bta": 3748,
      "107b": 3749,
      "137b": 3750,
      "139a": 3751,
      "131a": 3752,
      "163a": 3753,
      "164a": 3754,
      "167b": 3755,
      "153a": 3756,
      "157a": 3757,
      "158b": 3758,
      "179b": 3759,
      "188b": 3760,
      "181a": 3761,
      "14a": 3762,
      "21b": 3763,
      "29b": 3764,
      "34b": 3765,
      "66b": 3766,
      "gzug": 3767,
      "104b": 3768,
      "105a": 3769,
      "108a": 3770,
      "138a": 3771,
      "159b": 3772,
      "172a": 3773,
      "147b": 3774,
      "182b": 3775,
      "197a": 3776,
      "punda": 3777,
      "12a": 3778,
      "11b": 3779,
      "19a": 3780,
      "10b": 3781,
      "11a": 3782,
      "23a": 3783,
      "61b": 3784,
      "62b": 3785,
      "68a": 3786,
      "61a": 3787,
      "87b": 3788,
      "80a": 3789,
      "81a": 3790,
      "dngar": 3791,
      "gaM": 3792,
      "grims": 3793,
      "111b": 3794,
      "110b": 3795,
      "155a": 3796,
      "143a": 3797,
      "148b": 3798,
      "148a": 3799,
      "140a": 3800,
      "181b": 3801,
      "183a": 3802,
      "184b": 3803,
      "189a": 3804,
      "195a": 3805,
      "190a": 3806,
      "26a": 3807,
      "28a": 3808,
      "30b": 3809,
      "85a": 3810,
      "89b": 3811,
      "92b": 3812,
      "91a": 3813,
      "gnong": 3814,
      "rdum": 3815,
      "dzad": 3816,
      "gciga": 3817,
      "125b": 3818,
      "103b": 3819,
      "136a": 3820,
      "137a": 3821,
      "136b": 3822,
      "152a": 3823,
      "150b": 3824,
      "174a": 3825,
      "142a": 3826,
      "141b": 3827,
      "145a": 3828,
      "185a": 3829,
      "183b": 3830,
      "186b": 3831,
      "191b": 3832,
      "196b": 3833,
      "208a": 3834,
      "29a": 3835,
      "33a": 3836,
      "36a": 3837,
      "60a": 3838,
      "81b": 3839,
      "83a": 3840,
      "83b": 3841,
      "87a": 3842,
      "89a": 3843,
      "97a": 3844,
      "rnar": 3845,
      "skyogs": 3846,
      "160a": 3847,
      "155b": 3848,
      "153b": 3849,
      "173a": 3850,
      "140b": 3851,
      "187b": 3852,
      "192a": 3853,
      "198b": 3854,
      "199a": 3855,
      "gzegs": 3856,
      "14b": 3857,
      "18b": 3858,
      "35b": 3859,
      "59b": 3860,
      "82a": 3861,
      "82b": 3862,
      "88b": 3863,
      "94a": 3864,
      "93b": 3865,
      "96b": 3866,
      "90a": 3867,
      "102b": 3868,
      "178b": 3869,
      "143b": 3870,
      "184a": 3871,
      "187a": 3872,
      "188a": 3873,
      "189b": 3874,
      "194b": 3875,
      "190b": 3876,
      "219a": 3877,
      "15b": 3878,
      "16b": 3879,
      "25a": 3880,
      "20b": 3881,
      "21a": 3882,
      "31b": 3883,
      "34a": 3884,
      "38b": 3885,
      "38a": 3886,
      "30a": 3887,
      "99a": 3888,
      "tru": 3889,
      "hak": 3890,
      "daN": 3891,
      "khral": 3892,
      "tsakshu": 3893,
      "103a": 3894,
      "104a": 3895,
      "142b": 3896,
      "146b": 3897,
      "197b": 3898,
      "191a": 3899,
      "208b": 3900,
      "209b": 3901,
      "214a": 3902,
      "32a": 3903,
      "32b": 3904,
      "94b": 3905,
      "95a": 3906,
      "thaH": 3907,
      "mAn": 3908,
      "147a": 3909,
      "149b": 3910,
      "185b": 3911,
      "186a": 3912,
      "209a": 3913,
      "211b": 3914,
      "215b": 3915,
      "17b": 3916,
      "18a": 3917,
      "22a": 3918,
      "33b": 3919,
      "91b": 3920,
      "95b": 3921,
      "96a": 3922,
      "basa": 3923,
      "pheg": 3924,
      "101b": 3925,
      "100b": 3926,
      "101a": 3927,
      "199b": 3928,
      "207a": 3929,
      "215a": 3930,
      "12b": 3931,
      "37a": 3932,
      "36b": 3933,
      "31a": 3934,
      "98b": 3935,
      "sngogs": 3936,
      "145b": 3937,
      "149a": 3938,
      "202b": 3939,
      "207b": 3940,
      "214b": 3941,
      "210a": 3942,
      "smag": 3943,
      "15a": 3944,
      "13b": 3945,
      "39a": 3946,
      "39b": 3947,
      "97b": 3948,
      "90b": 3949,
      "hring": 3950,
      "zom": 3951,
      "zum": 3952,
      "102a": 3953,
      "144b": 3954,
      "146a": 3955,
      "212a": 3956,
      "210b": 3957,
      "dzahmh": 3958,
      "20a": 3959,
      "37b": 3960,
      "100a": 3961,
      "205a": 3962,
      "16a": 3963,
      "itstsha": 3964,
      "bsdud": 3965,
      "144a": 3966,
      "211a": 3967,
      "17a": 3968,
      "98a": 3969,
      "99b": 3970,
      "lur": 3971,
      "sne": 3972,
      "pul": 3973,
      "204b": 3974,
      "204a": 3975,
      "203b": 3976,
      "201a": 3977,
      "217a": 3978,
      "216b": 3979,
      "217b": 3980,
      "13a": 3981,
      "hau": 3982,
      "sur": 3983,
      "198a": 3984,
      "202a": 3985,
      "203a": 3986,
      "205b": 3987,
      "200a": 3988,
      "219b": 3989,
      "pro": 3990,
      "rtsab": 3991,
      "rkyong": 3992,
      "gtsubs": 3993,
      "200b": 3994,
      "212b": 3995,
      "213b": 3996,
      "218b": 3997,
      "zol": 3998,
      "tstshinda": 3999,
      "ben": 4000,
      "201b": 4001,
      "206a": 4002,
      "218a": 4003,
      "221a": 4004,
      "bsnyegs": 4005,
      "tma": 4006,
      "206b": 4007,
      "213a": 4008,
      "216a": 4009,
      "kyur": 4010,
      "ngesa": 4011,
      "brod": 4012,
      "220a": 4013,
      "kita": 4014,
      "gandhe": 4015,
      "223a": 4016,
      "bsgrim": 4017,
      "dhvam": 4018,
      "dngo": 4019,
      "rau": 4020,
      "221b": 4021,
      "aarka": 4022,
      "ghan": 4023,
      "ree": 4024,
      "222a": 4025,
      "220b": 4026,
      "bzhus": 4027,
      "bklubs": 4028,
      "kem": 4029,
      "224b": 4030,
      "rub": 4031,
      "nyaham": 4032,
      "222b": 4033,
      "223b": 4034,
      "daka": 4035,
      "aartha": 4036,
      "rbud": 4037,
      "224a": 4038,
      "aargha": 4039,
      "aka": 4040,
      "sregs": 4041,
      "rgyob": 4042,
      "phying": 4043,
      "kshm": 4044,
      "aagna": 4045,
      "uta": 4046,
      "hma": 4047,
      "khy": 4048,
      "sbyongs": 4049,
      "aarga": 4050,
      "225a": 4051,
      "biSh": 4052,
      "shol": 4053,
      "aT": 4054,
      "gtums": 4055,
      "parni": 4056,
      "ngom": 4057,
      "225b": 4058,
      "mthongs": 4059,
      "bskums": 4060,
      "227b": 4061,
      "gzeb": 4062,
      "jebs": 4063,
      "mungga": 4064,
      "gazha": 4065,
      "226a": 4066,
      "226b": 4067,
      "sindhu": 4068,
      "aSh": 4069,
      "dana": 4070,
      "shasa": 4071,
      "228b": 4072,
      "240a": 4073,
      "lak": 4074,
      "thii": 4075,
      "khegs": 4076,
      "237b": 4077,
      "231a": 4078,
      "jol": 4079,
      "gogs": 4080,
      "brdzus": 4081,
      "238b": 4082,
      "230a": 4083,
      "rnyis": 4084,
      "228a": 4085,
      "242a": 4086,
      "241b": 4087,
      "ghi": 4088,
      "hv": 4089,
      "tsau": 4090,
      "229b": 4091,
      "234b": 4092,
      "233b": 4093,
      "241a": 4094,
      "brgyugs": 4095,
      "gdeg": 4096,
      "ner": 4097,
      "bham": 4098,
      "bhaksha": 4099,
      "pir": 4100,
      "227a": 4101,
      "229a": 4102,
      "232a": 4103,
      "231b": 4104,
      "232b": 4105,
      "239a": 4106,
      "230b": 4107,
      "244b": 4108,
      "243b": 4109,
      "mnyams": 4110,
      "dpyang": 4111,
      "238a": 4112,
      "244a": 4113,
      "karmma": 4114,
      "phyam": 4115,
      "mthor": 4116,
      "gzhibs": 4117,
      "bsab": 4118,
      "236a": 4119,
      "bsdeb": 4120,
      "skag": 4121,
      "btsams": 4122,
      "233a": 4123,
      "235a": 4124,
      "237a": 4125,
      "245a": 4126,
      "245b": 4127,
      "246b": 4128,
      "247b": 4129,
      "248b": 4130,
      "Ata": 4131,
      "bsdos": 4132,
      "tsag": 4133,
      "dhy": 4134,
      "234a": 4135,
      "239b": 4136,
      "240b": 4137,
      "dzul": 4138,
      "dzahh": 4139,
      "steg": 4140,
      "242b": 4141,
      "243a": 4142,
      "246a": 4143,
      "blas": 4144,
      "ldas": 4145,
      "tau": 4146,
      "shyo": 4147,
      "236b": 4148,
      "249a": 4149,
      "No": 4150,
      "cas": 4151,
      "aaka": 4152,
      "248a": 4153,
      "253a": 4154,
      "hy": 4155,
      "nis": 4156,
      "dbung": 4157,
      "235b": 4158,
      "srubs": 4159,
      "kle": 4160,
      "tstshi": 4161,
      "snyod": 4162,
      "247a": 4163,
      "smai": 4164,
      "aanta": 4165,
      "iH": 4166,
      "kin": 4167,
      "yau": 4168,
      "kaR": 4169,
      "250a": 4170,
      "250b": 4171,
      "trug": 4172,
      "niSh": 4173,
      "suM": 4174,
      "shags": 4175,
      "249b": 4176,
      "255a": 4177,
      "251a": 4178,
      "bhee": 4179,
      "trAM": 4180,
      "bl": 4181,
      "gaH": 4182,
      "255b": 4183,
      "256b": 4184,
      "yI": 4185,
      "254b": 4186,
      "256a": 4187,
      "257a": 4188,
      "257b": 4189,
      "twaM": 4190,
      "bswe": 4191,
      "darsha": 4192,
      "252a": 4193,
      "bsros": 4194,
      "phyan": 4195,
      "bltam": 4196,
      "251b": 4197,
      "marda": 4198,
      "252b": 4199,
      "254a": 4200,
      "253b": 4201,
      "klus": 4202,
      "rasmee": 4203,
      "brA": 4204,
      "aama": 4205,
      "260b": 4206,
      "cer": 4207,
      "258b": 4208,
      "258a": 4209,
      "duH": 4210,
      "259a": 4211,
      "259b": 4212,
      "sphu": 4213,
      "bto": 4214,
      "rika": 4215,
      "dig": 4216,
      "dkyel": 4217,
      "260a": 4218,
      "lU": 4219,
      "blan": 4220,
      "dak": 4221,
      "gasnga": 4222,
      "arka": 4223,
      "rud": 4224,
      "buddhe": 4225,
      ";;": 4226,
      "kwa": 4227,
      "261a": 4228,
      "slobs": 4229,
      "ljid": 4230,
      "sbyi": 4231,
      "nanta": 4232,
      "lings": 4233,
      "261b": 4234,
      "phatah": 4235,
      "ljin": 4236,
      "dzya": 4237,
      "spru": 4238,
      "grung": 4239,
      "auta": 4240,
      "dzina": 4241,
      "kulle": 4242,
      "byab": 4243,
      "ljan": 4244,
      "\\/)": 4245,
      "shaH": 4246,
      "De": 4247,
      "str": 4248,
      "skyor": 4249,
      "phabs": 4250,
      "trai": 4251,
      "dhrik": 4252,
      "raN": 4253,
      "sgyug": 4254,
      "262a": 4255,
      "gazhana": 4256,
      "bba": 4257,
      "bagyi": 4258,
      "tstsh": 4259,
      "265b": 4260,
      "mnal": 4261,
      "?'": 4262,
      "ldir": 4263,
      "dapa": 4264,
      "gzhar": 4265,
      "lundha": 4266,
      "dpen": 4267,
      "262b": 4268,
      "rdugs": 4269,
      "265a": 4270,
      "ig": 4271,
      "tyu": 4272,
      "spris": 4273,
      "rtar": 4274,
      "chir": 4275,
      "263b": 4276,
      "yat": 4277,
      "thamsa": 4278,
      "gems": 4279,
      "pid": 4280,
      "263a": 4281,
      "264b": 4282,
      "chums": 4283,
      "shtri": 4284,
      "bel": 4285,
      "stis": 4286,
      "267a": 4287,
      "dwe": 4288,
      "pum": 4289,
      "dzika": 4290,
      "sbreng": 4291,
      "glos": 4292,
      "264a": 4293,
      "266a": 4294,
      "bseng": 4295,
      "kl": 4296,
      "mat": 4297,
      "gtol": 4298,
      "mtshog": 4299,
      "skyol": 4300,
      "bhanydza": 4301,
      "sgyus": 4302,
      "spus": 4303,
      "bhandha": 4304,
      "chems": 4305,
      "aeng": 4306,
      "266b": 4307,
      "268b": 4308,
      "spas": 4309,
      "tantra": 4310,
      "smyugs": 4311,
      "268a": 4312,
      "271a": 4313,
      "ry": 4314,
      "273a": 4315,
      "gnye": 4316,
      "yuSh": 4317,
      "smyin": 4318,
      "ahhum": 4319,
      "autta": 4320,
      "269a": 4321,
      "270a": 4322,
      "anya": 4323,
      "gna": 4324,
      "pin": 4325,
      "zhwa": 4326,
      "nau": 4327,
      "tsI": 4328,
      "267b": 4329,
      "tshubs": 4330,
      "gses": 4331,
      "dol": 4332,
      "rtsam": 4333,
      "274a": 4334,
      "shve": 4335,
      "sno": 4336,
      "semas": 4337,
      "khos": 4338,
      "rtsabs": 4339,
      "glur": 4340,
      "269b": 4341,
      "dU": 4342,
      "272a": 4343,
      "271b": 4344,
      "270b": 4345,
      "dbon": 4346,
      "ondi": 4347,
      "272b": 4348,
      "khres": 4349,
      "bzos": 4350,
      "274b": 4351,
      "275a": 4352,
      "273b": 4353,
      "ama": 4354,
      "yU": 4355,
      "karka": 4356,
      "bgres": 4357,
      "phyad": 4358,
      "tin": 4359,
      "bstu": 4360,
      "dpyi": 4361,
      "ghasma": 4362,
      "rdze": 4363,
      "276a": 4364,
      "277a": 4365,
      "brgyangs": 4366,
      "grim": 4367,
      "275b": 4368,
      "rdi": 4369,
      "stems": 4370,
      "276b": 4371,
      "shrad": 4372,
      "rmel": 4373,
      "btsem": 4374,
      "bshan": 4375,
      "gzhib": 4376,
      "hrIHSh": 4377,
      "maha": 4378,
      "bsnor": 4379,
      "gums": 4380,
      "278a": 4381,
      "gyin": 4382,
      "lga": 4383,
      "hasma": 4384,
      "yom": 4385,
      "280b": 4386,
      "ShuH": 4387,
      "paH": 4388,
      "shata": 4389,
      "gyus": 4390,
      "281a": 4391,
      "।।।।": 4392,
      "rdub": 4393,
      "hoo": 4394,
      "skyas": 4395,
      "ltan": 4396,
      "rtab": 4397,
      "grir": 4398,
      "bhinda": 4399,
      "280a": 4400,
      "adi": 4401,
      "mnol": 4402,
      "277b": 4403,
      "279a": 4404,
      "kah": 4405,
      "thib": 4406,
      "rtsigs": 4407,
      "278b": 4408,
      "279b": 4409,
      "281b": 4410,
      "takki": 4411,
      "khyA": 4412,
      "gril": 4413,
      "(/": 4414,
      "ghe": 4415,
      "mdang": 4416,
      "stAM": 4417,
      "bsos": 4418,
      "sab": 4419,
      "bande": 4420,
      "282a": 4421,
      "282b": 4422,
      "284a": 4423,
      "changs": 4424,
      "dme": 4425,
      "rnge": 4426,
      "rbod": 4427,
      "wI": 4428,
      "rke": 4429,
      "kyee": 4430,
      "kli": 4431,
      "mme": 4432,
      "sbun": 4433,
      "283a": 4434,
      "285b": 4435,
      "ghram": 4436,
      "snyams": 4437,
      "rem": 4438,
      "shtu": 4439,
      "tshA": 4440,
      "rtsangs": 4441,
      "gcus": 4442,
      "yaHphaT": 4443,
      "dvangs": 4444,
      "ddha": 4445,
      "khyags": 4446,
      "/)...": 4447,
      "285a": 4448,
      "thud": 4449,
      "snon": 4450,
      "284b": 4451,
      "283b": 4452,
      "287a": 4453,
      "rams": 4454,
      "rom": 4455,
      "suH": 4456,
      "zhil": 4457,
      "sogas": 4458,
      "sngan": 4459,
      "ghri": 4460,
      "tsug": 4461,
      "shubs": 4462,
      "grihn": 4463,
      "mina": 4464,
      "bcar": 4465,
      "bir": 4466,
      "skyibs": 4467,
      "gazhi": 4468,
      "286a": 4469,
      "286b": 4470,
      "TAM": 4471,
      "oo": 4472,
      "bcum": 4473,
      "buddhi": 4474,
      "spud": 4475,
      "sros": 4476,
      "munytsa": 4477,
      "btogs": 4478,
      "aun": 4479,
      "btsam": 4480,
      "myi": 4481,
      "gsur": 4482,
      "rtogsa": 4483,
      "blong": 4484,
      "snyol": 4485,
      "288a": 4486,
      "his": 4487,
      "kuN": 4488,
      "287b": 4489,
      "kauN": 4490,
      "stambha": 4491,
      "brlags": 4492,
      "gee": 4493,
      "zhur": 4494,
      "288b": 4495,
      "bsgrigs": 4496,
      "dzaHhU": 4497,
      "mthonga": 4498,
      "yAta": 4499,
      "289a": 4500,
      "oda": 4501,
      "shab": 4502,
      "kakko": 4503,
      "margad": 4504,
      "shakya": 4505,
      "yasta": 4506,
      "drwa": 4507,
      "ppa": 4508,
      "kka": 4509,
      "bsgrod": 4510,
      "289b": 4511,
      "290a": 4512,
      "smar": 4513,
      "sbron": 4514,
      "snron": 4515,
      "gzags": 4516,
      "mjing": 4517,
      "raba": 4518,
      "skon": 4519,
      "spyong": 4520,
      "sgyed": 4521,
      "dhve": 4522,
      "hIH": 4523,
      "stA": 4524,
      "hub": 4525,
      "gup": 4526,
      "spod": 4527,
      "urba": 4528,
      "glong": 4529,
      "tee": 4530,
      "rur": 4531,
      "TaH": 4532,
      "ghra": 4533,
      "hral": 4534,
      "sdar": 4535,
      "mag": 4536,
      "phrigs": 4537,
      "brgyags": 4538,
      "dmas": 4539,
      "gtug": 4540,
      "290b": 4541,
      "291a": 4542,
      "hoHzhes": 4543,
      "nva": 4544,
      "shnu": 4545,
      "gtos": 4546,
      "bsngosa": 4547,
      "panna": 4548,
      "292b": 4549,
      "arga": 4550,
      "lcog": 4551,
      "landha": 4552,
      "291b": 4553,
      "293a": 4554,
      "bau": 4555,
      "yuH": 4556,
      "292a": 4557,
      "gnyags": 4558,
      "dzoms": 4559,
      "pheb": 4560,
      "rngus": 4561,
      "bshigs": 4562,
      "dyu": 4563,
      "sgrim": 4564,
      "294a": 4565,
      "doo": 4566,
      "chel": 4567,
      "shak": 4568,
      "badzro": 4569,
      "294b": 4570,
      "dzahhum": 4571,
      "nish": 4572,
      "nyags": 4573,
      "num": 4574,
      "damsh": 4575,
      "bzhos": 4576,
      "iTa": 4577,
      "supa": 4578,
      "koondi": 4579,
      "293b": 4580,
      "kshya": 4581,
      "aksha": 4582,
      "thuH": 4583,
      "staM": 4584,
      "bshor": 4585,
      "drus": 4586,
      "pod": 4587,
      "sangsa": 4588,
      "thems": 4589,
      "mchims": 4590,
      "sdoms": 4591,
      "297a": 4592,
      "AM": 4593,
      "295a": 4594,
      "296a": 4595,
      "gseng": 4596,
      "heem": 4597,
      "datta": 4598,
      "grams": 4599,
      "badzrod": 4600,
      "hla": 4601,
      "bcer": 4602,
      "rtol": 4603,
      "295b": 4604,
      "tte": 4605,
      "ytsa": 4606,
      "aak": 4607,
      "Ang": 4608,
      "rlab": 4609,
      "sbras": 4610,
      "artha": 4611,
      "296b": 4612,
      "297b": 4613,
      "snyen": 4614,
      "doda": 4615,
      "smr": 4616,
      "hAH": 4617,
      "yAm": 4618,
      "ap": 4619,
      "srel": 4620,
      "bsdo": 4621,
      "cal": 4622,
      "brngas": 4623,
      "bing": 4624,
      "tIts": 4625,
      "#//": 4626,
      "bsog": 4627,
      "adsa": 4628,
      "nanda": 4629,
      "298b": 4630,
      "298a": 4631,
      "302a": 4632,
      "shvad": 4633,
      "tyam": 4634,
      "hiM": 4635,
      "bsnur": 4636,
      "zhigs": 4637,
      "gzha": 4638,
      "dhar": 4639,
      "hriM": 4640,
      "299a": 4641,
      "301b": 4642,
      "rdzdza": 4643,
      "khyims": 4644,
      "brir": 4645,
      "299b": 4646,
      "302b": 4647,
      "mahsarba": 4648,
      "303a": 4649,
      "300a": 4650,
      "300b": 4651,
      "pushpam": 4652,
      "\\/...(": 4653,
      "aNa": 4654,
      "baksha": 4655,
      "shap": 4656,
      "lingga": 4657,
      "dabnga": 4658,
      "gyos": 4659,
      "ishta": 4660,
      "ante": 4661,
      "gtur": 4662,
      "303b": 4663,
      "301a": 4664,
      "yoda": 4665,
      "bhur": 4666,
      "kram": 4667,
      "tshogas": 4668,
      "305a": 4669,
      "306a": 4670,
      "304b": 4671,
      "To": 4672,
      "wad": 4673,
      "cam": 4674,
      "gsuma": 4675,
      "chum": 4676,
      "sgrin": 4677,
      "304a": 4678,
      "305b": 4679,
      "307a": 4680,
      "306b": 4681,
      "snoms": 4682,
      "esh": 4683,
      "bskyungs": 4684,
      "309b": 4685,
      "310a": 4686,
      "pushtim": 4687,
      "bsdom": 4688,
      "phyen": 4689,
      "dbhy": 4690,
      "padme": 4691,
      "dzahdzah": 4692,
      "nti": 4693,
      "snol": 4694,
      "tpa": 4695,
      "laksha": 4696,
      "sped": 4697,
      "bzas": 4698,
      "gyong": 4699,
      "dita": 4700,
      "zhom": 4701,
      "307b": 4702,
      "iM": 4703,
      "ldugs": 4704,
      "ntu": 4705,
      "308b": 4706,
      "309a": 4707,
      "311b": 4708,
      "311a": 4709,
      "ThaH": 4710,
      "ksham": 4711,
      "phyangs": 4712,
      "gsheg": 4713,
      "lid": 4714,
      "shoo": 4715,
      "ShAM": 4716,
      "sram": 4717,
      "bcwa": 4718,
      "308a": 4719,
      "312b": 4720,
      "314a": 4721,
      "310b": 4722,
      "agro": 4723,
      "gyang": 4724,
      "hn": 4725,
      "rita": 4726,
      "312a": 4727,
      "aargham": 4728,
      "khora": 4729,
      "kama": 4730,
      "rnyogs": 4731,
      "sboms": 4732,
      "bsnyung": 4733,
      "bsel": 4734,
      "riga": 4735,
      "313a": 4736,
      "niry": 4737,
      "shvi": 4738,
      "glongs": 4739,
      "phrig": 4740,
      "skyengs": 4741,
      "aashta": 4742,
      "gsing": 4743,
      "thing": 4744,
      "ary": 4745,
      "nAn": 4746,
      "siddhya": 4747,
      "atra": 4748,
      "tsya": 4749,
      "gcung": 4750,
      "sgre": 4751,
      "yanti": 4752,
      "dzar": 4753,
      "ahhu": 4754,
      "313b": 4755,
      "rmu": 4756,
      "tsyee": 4757,
      "matsha": 4758,
      "rgha": 4759,
      "pheM": 4760,
      "tAH": 4761,
      "smee": 4762,
      "aanda": 4763,
      "krA": 4764,
      "barna": 4765,
      "dems": 4766,
      "rogs": 4767,
      "dharme": 4768,
      "zed": 4769,
      "wAn": 4770,
      "lcibs": 4771,
      "314b": 4772,
      "315a": 4773,
      "UM": 4774,
      "trI": 4775,
      "baca": 4776,
      "waH": 4777,
      "khum": 4778,
      "bsgru": 4779,
      "phyer": 4780,
      "dngosa": 4781,
      "thongs": 4782,
      "krinya": 4783,
      "ul": 4784,
      "yoh": 4785,
      "skri": 4786,
      "krod": 4787,
      "snyil": 4788,
      "tshiga": 4789,
      "nutta": 4790,
      "316a": 4791,
      "bsus": 4792,
      "kU": 4793,
      "bsrangs": 4794,
      "lots": 4795,
      "aaksha": 4796,
      "king": 4797,
      "kshna": 4798,
      "jur": 4799,
      "mchad": 4800,
      "yuM": 4801,
      "tal": 4802,
      "gyir": 4803,
      "315b": 4804,
      "yanta": 4805,
      "pUrba": 4806,
      "hir": 4807,
      "niH": 4808,
      "gcu": 4809,
      "317a": 4810,
      "u0f85ham": 4811,
      "lkug": 4812,
      "rdeb": 4813,
      "mchus": 4814,
      "rdebs": 4815,
      "bsnyun": 4816,
      "phrol": 4817,
      "snrel": 4818,
      "tsir": 4819,
      "Wa": 4820,
      "jom": 4821,
      "zhiga": 4822,
      "bkrabs": 4823,
      "tAm": 4824,
      "bandhe": 4825,
      "bzor": 4826,
      "btsug": 4827,
      "316b": 4828,
      "grvar": 4829,
      "[]": 4830,
      "sub": 4831,
      "shro": 4832,
      "ash": 4833,
      "hasta": 4834,
      "puN": 4835,
      "konyaham": 4836,
      "sIr": 4837,
      "yaN": 4838,
      "phad": 4839,
      "tsee": 4840,
      "u0f85k": 4841,
      "gzhugs": 4842,
      "bskyud": 4843,
      "zegs": 4844,
      "snyeg": 4845,
      "myogs": 4846,
      "phyong": 4847,
      "bkong": 4848,
      "britta": 4849,
      "shen": 4850,
      "320b": 4851,
      "tIr": 4852,
      "&&&": 4853,
      "sbrengs": 4854,
      "zlogs": 4855,
      "shwA": 4856,
      "319a": 4857,
      "rdungs": 4858,
      "tasa": 4859,
      "thoga": 4860,
      "thus": 4861,
      "nama": 4862,
      "smA": 4863,
      "gzhus": 4864,
      "phuH": 4865,
      "rasmai": 4866,
      "bsdur": 4867,
      "aika": 4868,
      "319b": 4869,
      "325b": 4870,
      "320a": 4871,
      "dee": 4872,
      "pash": 4873,
      "shwe": 4874,
      "garbhe": 4875,
      "btsum": 4876,
      "bcil": 4877,
      "glor": 4878,
      "kAH": 4879,
      "321b": 4880,
      "325a": 4881,
      "harmAH": 4882,
      "bac": 4883,
      "hasti": 4884,
      "bardzu": 4885,
      "323b": 4886,
      "321a": 4887,
      "dbhi": 4888,
      "kai": 4889,
      "stim": 4890,
      "317b": 4891,
      "318b": 4892,
      "318a": 4893,
      "323a": 4894,
      "322a": 4895,
      "mnog": 4896,
      "bsnam": 4897,
      "bsnyags": 4898,
      "huH": 4899,
      "rakshi": 4900,
      "dharmm": 4901,
      "sgu": 4902,
      "sbud": 4903,
      "yisa": 4904,
      "kyin": 4905,
      "phrum": 4906,
      "tsaM": 4907,
      "tshando": 4908,
      "322b": 4909,
      "324b": 4910,
      "326b": 4911,
      "krid": 4912,
      "sni": 4913,
      "brti": 4914,
      "shvattha": 4915,
      "324a": 4916,
      "327a": 4917,
      "gshong": 4918,
      "kshum": 4919,
      "pram": 4920,
      "twe": 4921,
      "anga": 4922,
      "mngas": 4923,
      "328a": 4924,
      "brlams": 4925,
      "uM": 4926,
      "mash": 4927,
      "barla": 4928,
      "brdol": 4929,
      "karko": 4930,
      "hAr": 4931,
      "stva": 4932,
      "btsems": 4933,
      "+-": 4934,
      "lat": 4935,
      "phA": 4936,
      "stes": 4937,
      "brtod": 4938,
      "326a": 4939,
      "bkyi": 4940,
      "gsangs": 4941,
      "danta": 4942,
      "tsartsi": 4943,
      "brun": 4944,
      "AHhU": 4945,
      "rdib": 4946,
      "yAn": 4947,
      "327b": 4948,
      "://": 4949,
      "DU": 4950,
      "bsdongs": 4951,
      "tsaH": 4952,
      "lits": 4953,
      "aushma": 4954,
      "tsinta": 4955,
      "dwA": 4956,
      "its": 4957,
      "hen": 4958,
      "dzir": 4959,
      "rmma": 4960,
      "sgribs": 4961,
      "byaM": 4962,
      "rigas": 4963,
      "phyogsa": 4964,
      "cen": 4965,
      "aim": 4966,
      "dumw": 4967,
      "mara": 4968,
      "ShaT": 4969,
      "tsittam": 4970,
      "rkur": 4971,
      "329a": 4972,
      "grwar": 4973,
      "drab": 4974,
      "rdzogsa": 4975,
      "gham": 4976,
      "tshims": 4977,
      "Am": 4978,
      "dbha": 4979,
      "shAm": 4980,
      "thAM": 4981,
      "328b": 4982,
      "329b": 4983,
      "dye": 4984,
      "gl": 4985,
      "byabs": 4986,
      "thaM": 4987,
      "334b": 4988,
      "330a": 4989,
      "//)": 4990,
      "rgyugs": 4991,
      "bltab": 4992,
      "334a": 4993,
      "ttam": 4994,
      "desa": 4995,
      "rai": 4996,
      "mthud": 4997,
      "shtsi": 4998,
      "rngur": 4999,
      "335a": 5000,
      "bskong": 5001,
      "aanydza": 5002,
      "gribs": 5003,
      "shub": 5004,
      "puM": 5005,
      "336a": 5006,
      "rngom": 5007,
      "bldags": 5008,
      "bgags": 5009,
      "sbyad": 5010,
      "brnangs": 5011,
      "gnyig": 5012,
      "lhad": 5013,
      "langka": 5014,
      "sarbA": 5015,
      "snubs": 5016,
      "336b": 5017,
      "phrem": 5018,
      "Nar": 5019,
      "ina": 5020,
      "yana": 5021,
      "amra": 5022,
      "shoms": 5023,
      "332a": 5024,
      "337b": 5025,
      "330b": 5026,
      "duh": 5027,
      "mau": 5028,
      "bshe": 5029,
      "barsha": 5030,
      "mAH": 5031,
      "331b": 5032,
      "nv": 5033,
      "cana": 5034,
      "barjo": 5035,
      "dzri": 5036,
      "bzlos": 5037,
      "shwi": 5038,
      "aagn": 5039,
      "rAM": 5040,
      "332b": 5041,
      "335b": 5042,
      "337a": 5043,
      "338a": 5044,
      "dzaHzhes": 5045,
      "mngo": 5046,
      "haN": 5047,
      "padm": 5048,
      "mut": 5049,
      "bzhen": 5050,
      "sdums": 5051,
      "ltang": 5052,
      "ndi": 5053,
      "sngos": 5054,
      "pud": 5055,
      "333b": 5056,
      "331a": 5057,
      "mtsher": 5058,
      "apa": 5059,
      "spung": 5060,
      "kana": 5061,
      "tits": 5062,
      "338b": 5063,
      "339a": 5064,
      "basngala": 5065,
      "daR": 5066,
      "shwat": 5067,
      "333a": 5068,
      "340a": 5069,
      "lcer": 5070,
      "Ad": 5071,
      "rash": 5072,
      "tik": 5073,
      "badzras": 5074,
      "339b": 5075,
      "340b": 5076,
      "aal": 5077,
      "ghr": 5078,
      "zhva": 5079,
      "den": 5080,
      "shtam": 5081,
      "mukta": 5082,
      "swAhA": 5083,
      "341a": 5084,
      "durga": 5085,
      "bunya": 5086,
      "snams": 5087,
      "warma": 5088,
      "aits": 5089,
      "shinyts": 5090,
      "gdus": 5091,
      "skras": 5092,
      "sgrags": 5093,
      "lcid": 5094,
      "dhoo": 5095,
      "bU": 5096,
      "poo": 5097,
      "dzub": 5098,
      "khras": 5099,
      "lot": 5100,
      "mdzo": 5101,
      "nyamsa": 5102,
      "bsdums": 5103,
      "hrul": 5104,
      "nanya": 5105,
      "yah": 5106,
      "tsU": 5107,
      "dzug": 5108,
      "bzur": 5109,
      "zhung": 5110,
      "traH": 5111,
      "Thanya": 5112,
      "ddh": 5113,
      "sral": 5114,
      "baR": 5115,
      "esa": 5116,
      "mchoga": 5117,
      "bhyam": 5118,
      "brnags": 5119,
      "klags": 5120,
      "mbha": 5121,
      "ngasa": 5122,
      "bash": 5123,
      "shakti": 5124,
      "sAM": 5125,
      "342a": 5126,
      "klod": 5127,
      "kwipa": 5128,
      "rtha": 5129,
      "yaka": 5130,
      "bardha": 5131,
      "bardzi": 5132,
      "ruH": 5133,
      "bzlums": 5134,
      "beb": 5135,
      "hrIM": 5136,
      "Do": 5137,
      "[\\": 5138,
      "barta": 5139,
      "kuna": 5140,
      "bcun": 5141,
      "bit": 5142,
      "iN": 5143,
      "yuk": 5144,
      "tus": 5145,
      "dzy": 5146,
      "bhring": 5147,
      "ais": 5148,
      "344b": 5149,
      "343b": 5150,
      "pingka": 5151,
      "ashta": 5152,
      "brin": 5153,
      "uts": 5154,
      "dzh": 5155,
      "bungs": 5156,
      "spr": 5157,
      "shm": 5158,
      "sril": 5159,
      "aapa": 5160,
      "lir": 5161,
      "mushti": 5162,
      "samba": 5163,
      "341b": 5164,
      "u0f7": 5165,
      "yanya": 5166,
      "sbod": 5167,
      "khud": 5168,
      "342b": 5169,
      "345a": 5170,
      "bsnyer": 5171,
      "tana": 5172,
      "rubs": 5173,
      "dznyo": 5174,
      "brad": 5175,
      "tvi": 5176,
      "343a": 5177,
      "344a": 5178,
      "dzahs": 5179,
      "('": 5180,
      "WA": 5181,
      "mUr": 5182,
      "sbong": 5183,
      "khregs": 5184,
      "karna": 5185,
      "sbe": 5186,
      "tsita": 5187,
      "spubs": 5188,
      "bidya": 5189,
      "ldana": 5190,
      "kahthoga": 5191,
      "blar": 5192,
      "Tak": 5193,
      "346a": 5194,
      "347a": 5195,
      "mngona": 5196,
      "ker": 5197,
      "ldab": 5198,
      "myug": 5199,
      "nra": 5200,
      "sting": 5201,
      "bshugs": 5202,
      "thom": 5203,
      "sana": 5204,
      "dhut": 5205,
      "kshim": 5206,
      "trang": 5207,
      "tsong": 5208,
      "tsab": 5209,
      "khun": 5210,
      "349a": 5211,
      "ldar": 5212,
      "mnyed": 5213,
      "gasla": 5214,
      "mtshun": 5215,
      "phror": 5216,
      "air": 5217,
      "rAH": 5218,
      "345b": 5219,
      "346b": 5220,
      "zugs": 5221,
      "grungs": 5222,
      "shaka": 5223,
      "lika": 5224,
      "dhishthi": 5225,
      "atta": 5226,
      "oms": 5227,
      "dzapa": 5228,
      "phubs": 5229,
      "bsdum": 5230,
      "350b": 5231,
      "bdzra": 5232,
      "gye": 5233,
      "dakshi": 5234,
      "thoms": 5235,
      "skugs": 5236,
      "348b": 5237,
      "Yu": 5238,
      "lendra": 5239,
      "byil": 5240,
      "lAM": 5241,
      "350a": 5242,
      "[:": 5243,
      "agre": 5244,
      "ii": 5245,
      "nd": 5246,
      "tron": 5247,
      "see": 5248,
      "adya": 5249,
      "shring": 5250,
      "347b": 5251,
      "348a": 5252,
      "[*'": 5253,
      "bzhug": 5254,
      "bardzusa": 5255,
      "rgur": 5256,
      "gcun": 5257,
      "ant": 5258,
      "jab": 5259,
      "Thaka": 5260,
      "352a": 5261,
      "phum": 5262,
      "phres": 5263,
      "bardz": 5264,
      "kany": 5265,
      "mthos": 5266,
      "shtr": 5267,
      "karni": 5268,
      "wu": 5269,
      "mom": 5270,
      "gsud": 5271,
      "shid": 5272,
      "rtsas": 5273,
      "dumb": 5274,
      "bantu": 5275,
      "rdzings": 5276,
      "349b": 5277,
      "TiM": 5278,
      "gcam": 5279,
      "bsgrun": 5280,
      "rdzogas": 5281,
      "aushn": 5282,
      "351b": 5283,
      "353b": 5284,
      "351a": 5285,
      "muHzhes": 5286,
      "pull": 5287,
      "duhkha": 5288,
      "cong": 5289,
      "lva": 5290,
      "bazla": 5291,
      "gshes": 5292,
      "zhis": 5293,
      "grar": 5294,
      "snrubs": 5295,
      "phrags": 5296,
      "liH": 5297,
      "sgye": 5298,
      "kroSh": 5299,
      "rtis": 5300,
      "phigs": 5301,
      "rtun": 5302,
      "wal": 5303,
      "jas": 5304,
      "tud": 5305,
      "shambhi": 5306,
      "shuddh": 5307,
      "glag": 5308,
      "nogs": 5309,
      "shni": 5310,
      "phus": 5311,
      "gshig": 5312,
      "brdzangs": 5313,
      "autp": 5314,
      "kshma": 5315,
      "rnama": 5316,
      "amb": 5317,
      "skum": 5318,
      "rkor": 5319,
      "bandu": 5320,
      "bti": 5321,
      "bged": 5322,
      "hro": 5323,
      "rsha": 5324,
      "twi": 5325,
      "sbyir": 5326,
      "lcong": 5327,
      "354a": 5328,
      "355b": 5329,
      "ngana": 5330,
      "dpong": 5331,
      "ltong": 5332,
      "sitsa": 5333,
      "355a": 5334,
      "gyangs": 5335,
      "barti": 5336,
      "thol": 5337,
      "tsarma": 5338,
      "banti": 5339,
      "352b": 5340,
      "353a": 5341,
      "354b": 5342,
      "358a": 5343,
      "359a": 5344,
      "mnams": 5345,
      "hat": 5346,
      "barda": 5347,
      "loga": 5348,
      "sardza": 5349,
      "dbyingsa": 5350,
      "drer": 5351,
      "356a": 5352,
      "kon": 5353,
      "kAn": 5354,
      "rakto": 5355,
      "siddhe": 5356,
      "356b": 5357,
      "358b": 5358,
      "shvadtha": 5359,
      "ee": 5360,
      "batt": 5361,
      "hing": 5362,
      "lokya": 5363,
      "dzags": 5364,
      "briksha": 5365,
      "aing": 5366,
      "kAR": 5367,
      "bIr": 5368,
      "lh": 5369,
      "hab": 5370,
      "bzu": 5371,
      "gdar": 5372,
      "aus": 5373,
      "357a": 5374,
      "357b": 5375,
      "hrIHlas": 5376,
      "kol": 5377,
      "myo": 5378,
      "nyol": 5379,
      "tU": 5380,
      "dira": 5381,
      "shim": 5382,
      "spal": 5383,
      "bsting": 5384,
      "yongas": 5385,
      "spyangs": 5386,
      "bsngams": 5387,
      "siM": 5388,
      "yAt": 5389,
      "tseg": 5390,
      "359b": 5391,
      "360a": 5392,
      "360b": 5393,
      "361a": 5394,
      "anytsa": 5395,
      "grig": 5396,
      "yasa": 5397,
      "phy": 5398,
      "khasa": 5399,
      "shita": 5400,
      "chil": 5401,
      "badzrI": 5402,
      "kis": 5403,
      "yAd": 5404,
      "aosa": 5405,
      "mnyel": 5406,
      "rit": 5407,
      "bskyung": 5408,
      "sgyel": 5409,
      "362a": 5410,
      "hrihsh": 5411,
      "kasha": 5412,
      "chis": 5413,
      "asma": 5414,
      "bany": 5415,
      "duna": 5416,
      "tong": 5417,
      "dgog": 5418,
      "364b": 5419,
      "hrIHyig": 5420,
      "dyo": 5421,
      "tsur": 5422,
      "lun": 5423,
      "shau": 5424,
      "sig": 5425,
      "rlogs": 5426,
      "brtseg": 5427,
      "[?]/": 5428,
      "rdzis": 5429,
      "361b": 5430,
      "365a": 5431,
      "haHsarba": 5432,
      "matshana": 5433,
      "IM": 5434,
      "ashtha": 5435,
      "gyer": 5436,
      "riSh": 5437,
      "brU": 5438,
      "chams": 5439,
      "tsai": 5440,
      "brash": 5441,
      "muSh": 5442,
      "bishta": 5443,
      "grems": 5444,
      "364a": 5445,
      "363b": 5446,
      "santa": 5447,
      "krin": 5448,
      "riH": 5449,
      "ruM": 5450,
      "suT": 5451,
      "zher": 5452,
      "gtsugs": 5453,
      "gcis": 5454,
      "363a": 5455,
      "trim": 5456,
      "bsor": 5457,
      "rongs": 5458,
      "snyung": 5459,
      "snyon": 5460,
      "brengs": 5461,
      "pim": 5462,
      "365b": 5463,
      "367a": 5464,
      "367b": 5465,
      "pt": 5466,
      "laTa": 5467,
      "rtsegs": 5468,
      "362b": 5469,
      "ghn": 5470,
      "bkyigs": 5471,
      "gdag": 5472,
      "lle": 5473,
      "bser": 5474,
      "bsgrang": 5475,
      "tardza": 5476,
      "skr": 5477,
      "brnga": 5478,
      "lena": 5479,
      "sgral": 5480,
      "shto": 5481,
      "shrim": 5482,
      "mus": 5483,
      "brgyug": 5484,
      "bata": 5485,
      "skrun": 5486,
      "karta": 5487,
      "bzlogs": 5488,
      "yany": 5489,
      "shrA": 5490,
      "biM": 5491,
      "bhru": 5492,
      "mchur": 5493,
      "zul": 5494,
      "369a": 5495,
      "hni": 5496,
      "bsgongs": 5497,
      "366a": 5498,
      "rendra": 5499,
      "barjoda": 5500,
      "byul": 5501,
      "parna": 5502,
      "dpyal": 5503,
      "shran": 5504,
      "britti": 5505,
      "gshor": 5506,
      "366b": 5507,
      "bshung": 5508,
      "brAh": 5509,
      "a0": 5510,
      "rni": 5511,
      "skang": 5512,
      "lotstsha": 5513,
      "kash": 5514,
      "thabsa": 5515,
      "muN": 5516,
      "368b": 5517,
      "368a": 5518,
      "tsunda": 5519,
      "bgrungs": 5520,
      "ter": 5521,
      "dagu": 5522,
      "dkan": 5523,
      "dhishth": 5524,
      "373a": 5525,
      "374b": 5526,
      "375a": 5527,
      "371a": 5528,
      "hram": 5529,
      "jum": 5530,
      "mngan": 5531,
      "slag": 5532,
      "ush": 5533,
      "pau": 5534,
      "bsnyag": 5535,
      "phyon": 5536,
      "sbrin": 5537,
      "aina": 5538,
      "DaM": 5539,
      "369b": 5540,
      "371b": 5541,
      "370a": 5542,
      "sbrags": 5543,
      "hrem": 5544,
      "mye": 5545,
      "pras": 5546,
      "tyad": 5547,
      "urn": 5548,
      "ciga": 5549,
      "dings": 5550,
      "sany": 5551,
      "yongsa": 5552,
      "ast": 5553,
      "372a": 5554,
      "372b": 5555,
      "375b": 5556,
      "376a": 5557,
      "377b": 5558,
      "370b": 5559,
      "kaddhya": 5560,
      "bdung": 5561,
      "gU": 5562,
      "kt": 5563,
      "bstang": 5564,
      "pora": 5565,
      "zhos": 5566,
      "sbug": 5567,
      "374a": 5568,
      "373b": 5569,
      "376b": 5570,
      "blings": 5571,
      "ky": 5572,
      "zon": 5573,
      "taksha": 5574,
      "brdos": 5575,
      "shka": 5576,
      "sambha": 5577,
      "dhr": 5578,
      "svasti": 5579,
      "DaH": 5580,
      "dombi": 5581,
      "377a": 5582,
      "aHzhes": 5583,
      "ls": 5584,
      "bskyad": 5585,
      "marka": 5586,
      "drishti": 5587,
      "thugsa": 5588,
      "bkyed": 5589,
      "phogs": 5590,
      "kantha": 5591,
      "378a": 5592,
      "379a": 5593,
      "ghut": 5594,
      "Shan": 5595,
      "hwA": 5596,
      "mba": 5597,
      "rla": 5598,
      "tna": 5599,
      "thoba": 5600,
      "bdena": 5601,
      "dbur": 5602,
      "shli": 5603,
      "sgyogs": 5604,
      "arti": 5605,
      "kiM": 5606,
      "sanni": 5607,
      "mkhos": 5608,
      "spyoms": 5609,
      "Ita": 5610,
      "sph": 5611,
      "dau": 5612,
      "madza": 5613,
      "nyir": 5614,
      "thAH": 5615,
      "380b": 5616,
      "dzoo": 5617,
      "ara": 5618,
      "aos": 5619,
      "bdungs": 5620,
      "tyee": 5621,
      "kung": 5622,
      "tsaka": 5623,
      "slos": 5624,
      "sarbam": 5625,
      "urb": 5626,
      "kir": 5627,
      "juga": 5628,
      "378b": 5629,
      "379b": 5630,
      "380a": 5631,
      "bsgags": 5632,
      "tata": 5633,
      "gcom": 5634,
      "%/": 5635,
      "arg": 5636,
      "gzur": 5637,
      "numa": 5638,
      "aardza": 5639,
      "gtsos": 5640,
      "arsh": 5641,
      "zhogs": 5642,
      "dzeng": 5643,
      "mryum": 5644,
      "nutpanna": 5645,
      ")@#//": 5646,
      "apta": 5647,
      "ly": 5648,
      "srum": 5649,
      "nak": 5650,
      "yama": 5651,
      "tstshu": 5652,
      "tsos": 5653,
      "bsgag": 5654,
      "danti": 5655,
      "myag": 5656,
      "khyir": 5657,
      "grI": 5658,
      "382a": 5659,
      "dhrika": 5660,
      "hre": 5661,
      "nU": 5662,
      "ndra": 5663,
      "dzyo": 5664,
      "spub": 5665,
      "shye": 5666,
      "gzhin": 5667,
      "dhuta": 5668,
      "381b": 5669,
      "382b": 5670,
      "383a": 5671,
      "384b": 5672,
      "385a": 5673,
      "384a": 5674,
      "383b": 5675,
      "386a": 5676,
      "adu": 5677,
      "em": 5678,
      "ktv": 5679,
      "rtan": 5680,
      "mathe": 5681,
      "subs": 5682,
      "chugs": 5683,
      "bdes": 5684,
      "mthuna": 5685,
      "shogs": 5686,
      "harme": 5687,
      "dzahhu": 5688,
      "381a": 5689,
      "grigs": 5690,
      "lli": 5691,
      "zim": 5692,
      "yida": 5693,
      "bsrul": 5694,
      "lamba": 5695,
      "drel": 5696,
      "385b": 5697,
      "NuH": 5698,
      "ShU": 5699,
      "lwa": 5700,
      "tangs": 5701,
      "bston": 5702,
      "huk": 5703,
      "cada": 5704,
      "khrun": 5705,
      "raksh": 5706,
      "389a": 5707,
      "bhoo": 5708,
      "skoms": 5709,
      "basha": 5710,
      "dzim": 5711,
      "kAM": 5712,
      "drum": 5713,
      "ats": 5714,
      "dmad": 5715,
      "grengs": 5716,
      "mma": 5717,
      "stags": 5718,
      "masa": 5719,
      "posa": 5720,
      "shyam": 5721,
      "shwad": 5722,
      "aardzu": 5723,
      "kit": 5724,
      "rAk": 5725,
      "yAs": 5726,
      "387a": 5727,
      "388a": 5728,
      "gcen": 5729,
      "hroom": 5730,
      "ada": 5731,
      "bgam": 5732,
      "nyu": 5733,
      "yadz": 5734,
      "mata": 5735,
      "yushma": 5736,
      "brling": 5737,
      "rtsoms": 5738,
      "yantu": 5739,
      "aatta": 5740,
      "padmor": 5741,
      "dzasra": 5742,
      "386b": 5743,
      "387b": 5744,
      "396b": 5745,
      "dzhi": 5746,
      "rnyid": 5747,
      "syee": 5748,
      "gshang": 5749,
      "bsran": 5750,
      "geg": 5751,
      "sbru": 5752,
      "dmig": 5753,
      "sdogs": 5754,
      "shasra": 5755,
      "tAn": 5756,
      "bAM": 5757,
      "392b": 5758,
      "ddhi": 5759,
      "krum": 5760,
      "ldud": 5761,
      "tstshan": 5762,
      "tshis": 5763,
      "bskongs": 5764,
      "khyag": 5765,
      "rkya": 5766,
      "spad": 5767,
      "asta": 5768,
      "dhye": 5769,
      "389b": 5770,
      "394b": 5771,
      "395b": 5772,
      "397b": 5773,
      "390a": 5774,
      "kvipa": 5775,
      "nn": 5776,
      "tka": 5777,
      "hos": 5778,
      "bsgrol": 5779,
      "rata": 5780,
      "saR": 5781,
      "tsampa": 5782,
      "shum": 5783,
      "sarbe": 5784,
      "bkus": 5785,
      "bsngogs": 5786,
      "388b": 5787,
      "393b": 5788,
      "390b": 5789,
      "391a": 5790,
      "nirti": 5791,
      "hvags": 5792,
      "gtul": 5793,
      "lla": 5794,
      "paksha": 5795,
      "dzye": 5796,
      "dzal": 5797,
      "dusa": 5798,
      "brtses": 5799,
      "landa": 5800,
      "brubs": 5801,
      "tsig": 5802,
      "rASh": 5803,
      "392a": 5804,
      "391b": 5805,
      "395a": 5806,
      "394a": 5807,
      "396a": 5808,
      "397a": 5809,
      "407a": 5810,
      "409a": 5811,
      "418a": 5812,
      "1dang": 5813,
      "ipa": 5814,
      "mdar": 5815,
      "nyog": 5816,
      "rmog": 5817,
      "sUr": 5818,
      "urna": 5819,
      "sbyon": 5820,
      "thengs": 5821,
      "skabsa": 5822,
      "ltod": 5823,
      "shee": 5824,
      "tsid": 5825,
      "AHbadzra": 5826,
      "393a": 5827,
      "403b": 5828,
      "409b": 5829,
      "411b": 5830,
      "416b": 5831,
      "417b": 5832,
      "423a": 5833,
      "420a": 5834,
      "shuddhonyaham": 5835,
      "bsnyod": 5836,
      "Th": 5837,
      "sdon": 5838,
      "hik": 5839,
      "amba": 5840,
      "brinya": 5841,
      "gragsa": 5842,
      "398a": 5843,
      "402a": 5844,
      "401b": 5845,
      "405b": 5846,
      "406a": 5847,
      "406b": 5848,
      "407b": 5849,
      "408b": 5850,
      "408a": 5851,
      "412a": 5852,
      "410a": 5853,
      "bgod": 5854,
      "dums": 5855,
      "barnna": 5856,
      "dpyis": 5857,
      "rtsengs": 5858,
      "phungs": 5859,
      "stree": 5860,
      "398b": 5861,
      "399a": 5862,
      "399b": 5863,
      "403a": 5864,
      "404b": 5865,
      "405a": 5866,
      "404a": 5867,
      "400a": 5868,
      "400b": 5869,
      "401a": 5870,
      "413a": 5871,
      "416a": 5872,
      "417a": 5873,
      "418b": 5874,
      "419a": 5875,
      "gundhe": 5876,
      "myigs": 5877,
      "dmyigs": 5878,
      "bargya": 5879,
      "sai": 5880,
      "smrang": 5881,
      "phrar": 5882,
      "khyig": 5883,
      "bita": 5884,
      "anda": 5885,
      "dzik": 5886,
      "yaHswA": 5887,
      "402b": 5888,
      "412b": 5889,
      "414b": 5890,
      "413b": 5891,
      "419b": 5892,
      "410b": 5893,
      "411a": 5894,
      "424b": 5895,
      "425a": 5896,
      "420b": 5897,
      "ldangs": 5898,
      "rb": 5899,
      "snyid": 5900,
      "ngun": 5901,
      "brdeb": 5902,
      "kus": 5903,
      "zal": 5904,
      "tsandi": 5905,
      "dhra": 5906,
      "mAr": 5907,
      "hohs": 5908,
      "415a": 5909,
      "414a": 5910,
      "415b": 5911,
      "426a": 5912,
      "madzada": 5913,
      "ikshna": 5914,
      "dai": 5915,
      "phyod": 5916,
      "loTa": 5917,
      "khyar": 5918,
      "astu": 5919,
      "asti": 5920,
      "sarbi": 5921,
      "trar": 5922,
      "gandi": 5923,
      "u0f85ha": 5924,
      "424a": 5925,
      "425b": 5926,
      "421a": 5927,
      "dhvi": 5928,
      "+'": 5929,
      "As": 5930,
      "yadza": 5931,
      "yona": 5932,
      "tshogsa": 5933,
      "kyapa": 5934,
      "421b": 5935,
      "422b": 5936,
      "hrihtha": 5937,
      "woo": 5938,
      "patsa": 5939,
      "brdebs": 5940,
      "beng": 5941,
      "siddh": 5942,
      "422a": 5943,
      "423b": 5944,
      "duHkha": 5945,
      "bstad": 5946,
      "songs": 5947,
      "tsas": 5948,
      "lit": 5949,
      "wau": 5950,
      "swaH": 5951,
      "AHyig": 5952,
      "428b": 5953,
      "bacasa": 5954,
      "mno": 5955,
      "rina": 5956,
      "rishta": 5957,
      "sprus": 5958,
      "shinga": 5959,
      "dmigas": 5960,
      "brtsom": 5961,
      "bed": 5962,
      "ratn": 5963,
      "NiH": 5964,
      "tsAr": 5965,
      "ksam": 5966,
      "myongs": 5967,
      "bsri": 5968,
      "tap": 5969,
      "barlanga": 5970,
      "rtod": 5971,
      "drishta": 5972,
      "mchir": 5973,
      "thI": 5974,
      "427a": 5975,
      "426b": 5976,
      "427b": 5977,
      "428a": 5978,
      "daMSh": 5979,
      "aagne": 5980,
      "roksh": 5981,
      "riM": 5982,
      "thaka": 5983,
      "garga": 5984,
      "brnya": 5985,
      "tipa": 5986,
      "dgongas": 5987,
      "thega": 5988,
      "aats": 5989,
      "btsad": 5990,
      "dwI": 5991,
      "429a": 5992,
      "430a": 5993,
      "bshums": 5994,
      "tsint": 5995,
      "YaH": 5996,
      "Nau": 5997,
      "drol": 5998,
      "gregs": 5999,
      "lpa": 6000,
      "zir": 6001,
      "nash": 6002,
      "chagas": 6003,
      "gcang": 6004,
      "kIr": 6005,
      "430b": 6006,
      "aR": 6007,
      "gyal": 6008,
      "ldam": 6009,
      "sgrung": 6010,
      "yush": 6011,
      "mit": 6012,
      "khyis": 6013,
      "lod": 6014,
      "brnogs": 6015,
      "kuny": 6016,
      "yante": 6017,
      "aasht": 6018,
      "bishnu": 6019,
      "gsola": 6020,
      "429b": 6021,
      "431b": 6022,
      "bzungs": 6023,
      "YaM": 6024,
      "pru": 6025,
      "rmod": 6026,
      "snya": 6027,
      "sgam": 6028,
      "zhad": 6029,
      "bste": 6030,
      "lob": 6031,
      "spya": 6032,
      "kurba": 6033,
      "sak": 6034,
      "litstsha": 6035,
      "bish": 6036,
      "autstsha": 6037,
      "tsand": 6038,
      "Shau": 6039,
      "lumbi": 6040,
      "ranta": 6041,
      "irsha": 6042,
      "hrIHzhes": 6043,
      "432a": 6044,
      "433b": 6045,
      "431a": 6046,
      "90": 6047,
      "mnon": 6048,
      "napa": 6049,
      "hana": 6050,
      "kyii": 6051,
      "spyug": 6052,
      "kub": 6053,
      "svam": 6054,
      "sib": 6055,
      "432b": 6056,
      "hoHsa": 6057,
      "gdud": 6058,
      "bazha": 6059,
      "hah": 6060,
      "bsrun": 6061,
      "tai": 6062,
      "cinga": 6063,
      "chong": 6064,
      "karn": 6065,
      "slonga": 6066,
      "purna": 6067,
      "bhar": 6068,
      "bandhu": 6069,
      "433a": 6070,
      "hl": 6071,
      "paR": 6072,
      "data": 6073,
      "tstsa": 6074,
      "ltab": 6075,
      "chon": 6076,
      "tshus": 6077,
      "gub": 6078,
      "shts": 6079,
      "mantha": 6080,
      "aanytsa": 6081,
      "tsande": 6082,
      "rngad": 6083,
      "banda": 6084,
      "bhikshu": 6085,
      "ShuM": 6086,
      "434b": 6087,
      "bardzisa": 6088,
      "ura": 6089,
      "lakshm": 6090,
      "bsnyan": 6091,
      "gzong": 6092,
      "nuH": 6093,
      "Shar": 6094,
      "ganda": 6095,
      "aanti": 6096,
      "435b": 6097,
      "\\/....(": 6098,
      "gnos": 6099,
      "snyes": 6100,
      "gshag": 6101,
      "gongs": 6102,
      "kyisa": 6103,
      "kuT": 6104,
      "kut": 6105,
      "bzhan": 6106,
      "thegs": 6107,
      "btagsa": 6108,
      "ldems": 6109,
      "zanga": 6110,
      "435a": 6111,
      "434a": 6112,
      "437a": 6113,
      "438b": 6114,
      "shraddh": 6115,
      "ll": 6116,
      "rmug": 6117,
      "sngang": 6118,
      "nat": 6119,
      "dbyang": 6120,
      "bzi": 6121,
      "slog": 6122,
      "aasma": 6123,
      "zhol": 6124,
      "thangs": 6125,
      "dhishtha": 6126,
      "ratne": 6127,
      "pee": 6128,
      "436a": 6129,
      "drog": 6130,
      "gcag": 6131,
      "jar": 6132,
      "rmyang": 6133,
      "barje": 6134,
      "skyal": 6135,
      "sidha": 6136,
      "dhru": 6137,
      "436b": 6138,
      "437b": 6139,
      "438a": 6140,
      "442a": 6141,
      "441a": 6142,
      "tastha": 6143,
      "bshegs": 6144,
      "sbeg": 6145,
      "Amra": 6146,
      "urnna": 6147,
      "tser": 6148,
      "marta": 6149,
      "khyur": 6150,
      "khyugs": 6151,
      "loo": 6152,
      "kat": 6153,
      "cesa": 6154,
      "dzak": 6155,
      "zhub": 6156,
      "pusti": 6157,
      "439a": 6158,
      "441b": 6159,
      "tsarya": 6160,
      "tishthi": 6161,
      "ldabs": 6162,
      "IT": 6163,
      "atstsha": 6164,
      "besh": 6165,
      "eta": 6166,
      "lder": 6167,
      "tsor": 6168,
      "nig": 6169,
      "brabs": 6170,
      "intam": 6171,
      "nud": 6172,
      "spabs": 6173,
      "nagna": 6174,
      "shodha": 6175,
      "prats": 6176,
      "kartri": 6177,
      "bhrum": 6178,
      "nytsi": 6179,
      "snyem": 6180,
      "baiDUr": 6181,
      "442b": 6182,
      "443a": 6183,
      "440a": 6184,
      "bkrir": 6185,
      "AT": 6186,
      "asa": 6187,
      "dyam": 6188,
      "gred": 6189,
      "rmar": 6190,
      "rola": 6191,
      "dbhya": 6192,
      "shina": 6193,
      "sams": 6194,
      "inti": 6195,
      "bkrongs": 6196,
      "mul": 6197,
      "rasmi": 6198,
      "karti": 6199,
      "ShaSh": 6200,
      "439b": 6201,
      "444b": 6202,
      "440b": 6203,
      "kangka": 6204,
      "linda": 6205,
      "aihth": 6206,
      "dhan": 6207,
      "isha": 6208,
      "dada": 6209,
      "dape": 6210,
      "khadga": 6211,
      "kud": 6212,
      "smyur": 6213,
      "chib": 6214,
      "warna": 6215,
      "shukla": 6216,
      "tAs": 6217,
      "gzab": 6218,
      "rIH": 6219,
      "tshvar": 6220,
      "444a": 6221,
      "443b": 6222,
      "munydza": 6223,
      "iHwi": 6224,
      "bdam": 6225,
      "gsig": 6226,
      "sora": 6227,
      "nyaH": 6228,
      "sihla": 6229,
      "tshvas": 6230,
      "panytsi": 6231,
      "sbrar": 6232,
      "446a": 6233,
      "mbi": 6234,
      "myog": 6235,
      "pung": 6236,
      "rlang": 6237,
      "rmA": 6238,
      "unya": 6239,
      "bskyis": 6240,
      "bsur": 6241,
      "rnas": 6242,
      "chada": 6243,
      "omu": 6244,
      "rigsa": 6245,
      "thee": 6246,
      "cuomu": 6247,
      "dhyam": 6248,
      "rngabs": 6249,
      "krit": 6250,
      "bsdig": 6251,
      "glas": 6252,
      "prI": 6253,
      "sngun": 6254,
      "bazanga": 6255,
      "lau": 6256,
      "bstangs": 6257,
      "tasta": 6258,
      "rgga": 6259,
      "thabas": 6260,
      "khI": 6261,
      "gosa": 6262,
      "khabs": 6263,
      "shiSh": 6264,
      "sama": 6265,
      "tshen": 6266,
      "gupta": 6267,
      "gtog": 6268,
      "lanta": 6269,
      "spog": 6270,
      "ltem": 6271,
      "airti": 6272,
      "hriH": 6273,
      "[?]//": 6274,
      "445a": 6275,
      "445b": 6276,
      "gnyes": 6277,
      "gwa": 6278,
      "ghanya": 6279,
      "nin": 6280,
      "bartta": 6281,
      "sed": 6282,
      "seg": 6283,
      "piN": 6284,
      "aeta": 6285,
      "irya": 6286,
      "dzaHdzaH": 6287,
      "447a": 6288,
      "446b": 6289,
      "adzny": 6290,
      "dda": 6291,
      "ipta": 6292,
      "py": 6293,
      "gsigs": 6294,
      "parba": 6295,
      "dznye": 6296,
      "springs": 6297,
      "nanga": 6298,
      "bskyos": 6299,
      "yantra": 6300,
      "mandi": 6301,
      "linga": 6302,
      "ralli": 6303,
      "byir": 6304,
      "Shata": 6305,
      "shAM": 6306,
      "AHzhes": 6307,
      "447b": 6308,
      "448b": 6309,
      "448a": 6310,
      "449a": 6311,
      "450a": 6312,
      "/....('": 6313,
      "kongkana": 6314,
      "ShISh": 6315,
      "damara": 6316,
      "Than": 6317,
      "ardza": 6318,
      "gyogs": 6319,
      "yib": 6320,
      "her": 6321,
      "bslan": 6322,
      "skA": 6323,
      "tuM": 6324,
      "kaD": 6325,
      "brasa": 6326,
      "sata": 6327,
      "shai": 6328,
      "aasthi": 6329,
      "zhugsa": 6330,
      "liTa": 6331,
      "gco": 6332,
      "gzhob": 6333,
      "bet": 6334,
      "triM": 6335,
      "brom": 6336,
      "bsnyeg": 6337,
      "datte": 6338,
      "dzanma": 6339,
      "sbrebs": 6340,
      "harmAHswa": 6341,
      "glA": 6342,
      "patti": 6343,
      "tub": 6344,
      "khag": 6345,
      "snyogs": 6346,
      "sih": 6347,
      "gandhi": 6348,
      "bstir": 6349,
      "bhunydza": 6350,
      "kIs": 6351,
      "aarbu": 6352,
      "pushta": 6353,
      "gtags": 6354,
      "mnas": 6355,
      "sbrag": 6356,
      "stv": 6357,
      "dabye": 6358,
      "nirma": 6359,
      "bsgrad": 6360,
      "sogsa": 6361,
      "chul": 6362,
      "noH": 6363,
      "nAH": 6364,
      "bAH": 6365,
      "shany": 6366,
      "449b": 6367,
      "aatma": 6368,
      "hraH": 6369,
      "lye": 6370,
      "syu": 6371,
      "lagas": 6372,
      "yaNa": 6373,
      "tsvi": 6374,
      "yula": 6375,
      "kats": 6376,
      "rdzongs": 6377,
      "muh": 6378,
      "pratstsha": 6379,
      "ShiM": 6380,
      "sandhi": 6381,
      "tsakre": 6382,
      "[\\]": 6383,
      "a8": 6384,
      "ashtsa": 6385,
      "dbar": 6386,
      "rbha": 6387,
      "tring": 6388,
      "bsla": 6389,
      "rgyad": 6390,
      "phyid": 6391,
      "moksha": 6392,
      "jiga": 6393,
      "rdzes": 6394,
      "lita": 6395,
      "wAka": 6396,
      "nyts": 6397,
      "ahma": 6398,
      "sbams": 6399,
      "irti": 6400,
      "nyAn": 6401,
      "bshul": 6402,
      "shloka": 6403,
      "dhvan": 6404,
      "dyan": 6405,
      "iSha": 6406,
      "ps": 6407,
      "plu": 6408,
      "sli": 6409,
      "phyos": 6410,
      "barj": 6411,
      "sup": 6412,
      "dzrim": 6413,
      "legas": 6414,
      "tshug": 6415,
      "gzugsa": 6416,
      "samya": 6417,
      "mtshul": 6418,
      "hAn": 6419,
      "gloo": 6420,
      "TAn": 6421,
      "dAM": 6422,
      "452a": 6423,
      "451b": 6424,
      "452b": 6425,
      "450b": 6426,
      "451a": 6427,
      "bstud": 6428,
      "gy": 6429,
      "itsa": 6430,
      "krang": 6431,
      "rbi": 6432,
      "sdun": 6433,
      "snge": 6434,
      "phril": 6435,
      "sanytsa": 6436,
      "gsungsa": 6437,
      "smye": 6438,
      "rtabs": 6439,
      "shtsanda": 6440,
      "spangsa": 6441,
      "lugsa": 6442,
      "kASh": 6443,
      "girti": 6444,
      "pem": 6445,
      "tIk": 6446,
      "453a": 6447,
      "kiny": 6448,
      "adz": 6449,
      "aTa": 6450,
      "itra": 6451,
      "sgar": 6452,
      "rgyo": 6453,
      "khamas": 6454,
      "lub": 6455,
      "bzlugs": 6456,
      "sarwa": 6457,
      "mtshur": 6458,
      "hUH": 6459,
      "klungs": 6460,
      "lingka": 6461,
      "pAM": 6462,
      "satk": 6463,
      "AHhrIH": 6464,
      "454b": 6465,
      "455a": 6466,
      "454a": 6467,
      "phreM": 6468,
      "ardzu": 6469,
      "syan": 6470,
      "paT": 6471,
      "tuSh": 6472,
      "gangga": 6473,
      "bcod": 6474,
      "brdul": 6475,
      "bkon": 6476,
      "rloms": 6477,
      "pippa": 6478,
      "thya": 6479,
      "trUM": 6480,
      "khyus": 6481,
      "yaHsarba": 6482,
      "gshogs": 6483,
      "rmm": 6484,
      "ShAn": 6485,
      "singga": 6486,
      "[\\[]": 6487,
      "Tar": 6488,
      "gni": 6489,
      "hyam": 6490,
      "ish": 6491,
      "krim": 6492,
      "mb": 6493,
      "nt": 6494,
      "trin": 6495,
      "twAM": 6496,
      "sob": 6497,
      "shiga": 6498,
      "slod": 6499,
      "bsgor": 6500,
      "khrog": 6501,
      "slab": 6502,
      "thil": 6503,
      "rnyongs": 6504,
      "sgrigs": 6505,
      "sdor": 6506,
      "sve": 6507,
      "lcib": 6508,
      "dAn": 6509,
      "panyts": 6510,
      "455b": 6511,
      "453b": 6512,
      "456a": 6513,
      "458b": 6514,
      "krAn": 6515,
      "[\\]]": 6516,
      "nte": 6517,
      "mahA": 6518,
      "bsigs": 6519,
      "sgrig": 6520,
      "aitsa": 6521,
      "arsha": 6522,
      "457a": 6523,
      "tshindha": 6524,
      "dushtam": 6525,
      "binda": 6526,
      "ldad": 6527,
      "haT": 6528,
      "dzheem": 6529,
      "gama": 6530,
      "muM": 6531,
      "gzing": 6532,
      "hUr": 6533,
      "urti": 6534,
      "bhram": 6535,
      "banta": 6536,
      "brong": 6537,
      "hrish": 6538,
      "456b": 6539,
      "457b": 6540,
      "459b": 6541,
      "bindha": 6542,
      "anytsi": 6543,
      "irgha": 6544,
      "mkhon": 6545,
      "rdus": 6546,
      "sbag": 6547,
      "taN": 6548,
      "bart": 6549,
      "noom": 6550,
      "gruba": 6551,
      "lee": 6552,
      "shabda": 6553,
      "sgrag": 6554,
      "dgosa": 6555,
      "manga": 6556,
      "bsabs": 6557,
      "khrum": 6558,
      "sengges": 6559,
      "antam": 6560,
      "santi": 6561,
      "458a": 6562,
      "459a": 6563,
      "barjesa": 6564,
      "pyA": 6565,
      "pyam": 6566,
      "rmon": 6567,
      "bsts": 6568,
      "pasang": 6569,
      "rjud": 6570,
      "tsat": 6571,
      "srings": 6572,
      "kyai": 6573,
      "btums": 6574,
      "brtabs": 6575,
      "u0f90": 6576,
      "460a": 6577,
      "'-": 6578,
      "Nal": 6579,
      "aung": 6580,
      "sbor": 6581,
      "baza": 6582,
      "nita": 6583,
      "madz": 6584,
      "hanti": 6585,
      "gardzdza": 6586,
      "rangga": 6587,
      "tanta": 6588,
      "byangs": 6589,
      "andha": 6590,
      "piM": 6591,
      "dzis": 6592,
      "shambha": 6593,
      "gzag": 6594,
      "u0fa": 6595,
      "yakshe": 6596,
      "aardha": 6597,
      "gnyar": 6598,
      "464a": 6599,
      "bardzesa": 6600,
      "/[": 6601,
      "ThI": 6602,
      "gno": 6603,
      "sl": 6604,
      "lana": 6605,
      "dubs": 6606,
      "phyor": 6607,
      "khrin": 6608,
      "jibs": 6609,
      "rjesa": 6610,
      "snyug": 6611,
      "gtstsha": 6612,
      "stobsa": 6613,
      "brtagsa": 6614,
      "aushni": 6615,
      "kIrti": 6616,
      "bzhags": 6617,
      "bashada": 6618,
      "AR": 6619,
      "Dom": 6620,
      "agla": 6621,
      "bgag": 6622,
      "dbya": 6623,
      "nyor": 6624,
      "rnang": 6625,
      "sprog": 6626,
      "brn": 6627,
      "kuk": 6628,
      "bze": 6629,
      "dash": 6630,
      "dram": 6631,
      "bskyel": 6632,
      "aakshi": 6633,
      "bshas": 6634,
      "kAny": 6635,
      "palla": 6636,
      "463a": 6637,
      "465a": 6638,
      "461a": 6639,
      "hasmi": 6640,
      "mathara": 6641,
      "DUR": 6642,
      "hata": 6643,
      "kying": 6644,
      "radz": 6645,
      "rima": 6646,
      "runga": 6647,
      "nora": 6648,
      "khaD": 6649,
      "gzugas": 6650,
      "nuta": 6651,
      "bcugs": 6652,
      "wak": 6653,
      "bits": 6654,
      "tran": 6655,
      "grangsa": 6656,
      "kraM": 6657,
      "AHdang": 6658,
      "drU": 6659,
      "aarti": 6660,
      "462a": 6661,
      "463b": 6662,
      "460b": 6663,
      "ghuta": 6664,
      "1pa": 6665,
      "a9": 6666,
      "bb": 6667,
      "byog": 6668,
      "lcu": 6669,
      "slangs": 6670,
      "sbad": 6671,
      "srA": 6672,
      "hok": 6673,
      "mana": 6674,
      "bsen": 6675,
      "gala": 6676,
      "thosa": 6677,
      "brte": 6678,
      "drad": 6679,
      "snags": 6680,
      "biH": 6681,
      "bis": 6682,
      "sAr": 6683,
      "rkus": 6684,
      "461b": 6685,
      "462b": 6686,
      "464b": 6687,
      "ldib": 6688,
      "yushmad": 6689,
      "u0fa4": 6690,
      "kv": 6691,
      "ngita": 6692,
      "hast": 6693,
      "dera": 6694,
      "tstsho": 6695,
      "lota": 6696,
      "jin": 6697,
      "sarga": 6698,
      "aanya": 6699,
      "anna": 6700,
      "swaM": 6701,
      "bAr": 6702,
      "466a": 6703,
      "kinna": 6704,
      "Nam": 6705,
      "mthangs": 6706,
      "psa": 6707,
      "ryam": 6708,
      "pata": 6709,
      "lata": 6710,
      "haka": 6711,
      "rnamas": 6712,
      "bzhig": 6713,
      "dip": 6714,
      "mok": 6715,
      "tshongs": 6716,
      "smang": 6717,
      "bkris": 6718,
      "dgongsa": 6719,
      "bruM": 6720,
      "gtib": 6721,
      "ShaN": 6722,
      "rAn": 6723,
      "shAs": 6724,
      "atm": 6725,
      "dIr": 6726,
      "nimba": 6727,
      "465b": 6728,
      "gandham": 6729,
      "sgyigs": 6730,
      "bazhaga": 6731,
      "enga": 6732,
      "bade": 6733,
      "yaSh": 6734,
      "byaH": 6735,
      "bsrab": 6736,
      "nyida": 6737,
      "barma": 6738,
      "dipa": 6739,
      "buka": 6740,
      "khyos": 6741,
      "moM": 6742,
      "khaH": 6743,
      "dbyugs": 6744,
      "gen": 6745,
      "nush": 6746,
      "rkyan": 6747,
      "gzim": 6748,
      "ainda": 6749,
      "shIng": 6750,
      "sgrims": 6751,
      "smigs": 6752,
      "kony": 6753,
      "An": 6754,
      "Shad": 6755,
      "apra": 6756,
      "ldes": 6757,
      "sgru": 6758,
      "yya": 6759,
      "yoM": 6760,
      "rgo": 6761,
      "sker": 6762,
      "dznoom": 6763,
      "karnna": 6764,
      "trat": 6765,
      "aenga": 6766,
      "panda": 6767,
      "satya": 6768,
      "granthi": 6769,
      "[,]'": 6770,
      "briddha": 6771,
      "lhangs": 6772,
      "hrig": 6773,
      "ldo": 6774,
      "stra": 6775,
      "thU": 6776,
      "zog": 6777,
      "yash": 6778,
      "huny": 6779,
      "minga": 6780,
      "cid": 6781,
      "ngaga": 6782,
      "jings": 6783,
      "sag": 6784,
      "nuka": 6785,
      "chagsa": 6786,
      "rkos": 6787,
      "aany": 6788,
      "aasth": 6789,
      "osra": 6790,
      "kart": 6791,
      "skrar": 6792,
      "btungs": 6793,
      "sanna": 6794,
      "467a": 6795,
      "466b": 6796,
      "468b": 6797,
      "shIn": 6798,
      "brnyogs": 6799,
      "';": 6800,
      "atsha": 6801,
      "kris": 6802,
      "rbA": 6803,
      "datt": 6804,
      "tswi": 6805,
      "toSh": 6806,
      "buH": 6807,
      "mol": 6808,
      "thoo": 6809,
      "gyisa": 6810,
      "shit": 6811,
      "tib": 6812,
      "bskyam": 6813,
      "phras": 6814,
      "sdings": 6815,
      "brdze": 6816,
      "raksham": 6817,
      "bgor": 6818,
      "drums": 6819,
      "shunthi": 6820,
      "dwagsa": 6821,
      "467b": 6822,
      "adza": 6823,
      "kte": 6824,
      "ldom": 6825,
      "gshu": 6826,
      "hed": 6827,
      "hig": 6828,
      "bsnyes": 6829,
      "dib": 6830,
      "brnyed": 6831,
      "stos": 6832,
      "lik": 6833,
      "dhas": 6834,
      "urbba": 6835,
      "aetsa": 6836,
      "gzeng": 6837,
      "aantastha": 6838,
      "gzob": 6839,
      "468a": 6840,
      "kumbha": 6841,
      "472a": 6842,
      "bhrinya": 6843,
      "mashtsanda": 6844,
      "abra": 6845,
      "gyol": 6846,
      "usa": 6847,
      "bah": 6848,
      "baka": 6849,
      "hish": 6850,
      "sungs": 6851,
      "rjee": 6852,
      "dger": 6853,
      "sngagsa": 6854,
      "khamsa": 6855,
      "drisht": 6856,
      "yant": 6857,
      "dzau": 6858,
      "bcir": 6859,
      "ltebs": 6860,
      "mund": 6861,
      "glebs": 6862,
      "ShAH": 6863,
      "[(]'": 6864,
      "469a": 6865,
      "469b": 6866,
      "tsumba": 6867,
      "apha": 6868,
      "grin": 6869,
      "hm": 6870,
      "mm": 6871,
      "srag": 6872,
      "yuT": 6873,
      "dzol": 6874,
      "lungs": 6875,
      "lusa": 6876,
      "kata": 6877,
      "bzlum": 6878,
      "damna": 6879,
      "gshegas": 6880,
      "bskyas": 6881,
      "zaba": 6882,
      "drish": 6883,
      "narbh": 6884,
      "tsitra": 6885,
      "dzing": 6886,
      "kroshtu": 6887,
      "sbugs": 6888,
      "missing": 6889,
      "bilba": 6890,
      "gnyal": 6891,
      "hta": 6892,
      "rtna": 6893,
      "sbam": 6894,
      "sgegs": 6895,
      "rana": 6896,
      "dzhal": 6897,
      "mora": 6898,
      "mudga": 6899,
      "gzhur": 6900,
      "shung": 6901,
      "bshar": 6902,
      "nems": 6903,
      "balla": 6904,
      "kanta": 6905,
      "rIn": 6906,
      "snyig": 6907,
      "Nita": 6908,
      "dAH": 6909,
      "472b": 6910,
      "473a": 6911,
      "473b": 6912,
      "470a": 6913,
      "bindu": 6914,
      "rdubs": 6915,
      "lcugs": 6916,
      "Ama": 6917,
      "Tan": 6918,
      "dli": 6919,
      "rlubs": 6920,
      "yaT": 6921,
      "skogs": 6922,
      "tuta": 6923,
      "brlar": 6924,
      "sben": 6925,
      "sngagas": 6926,
      "padmos": 6927,
      "gcug": 6928,
      "bodhi": 6929,
      "sbungs": 6930,
      "aamba": 6931,
      "aandha": 6932,
      "dzAM": 6933,
      "dIp": 6934,
      "aahdamara": 6935,
      "471b": 6936,
      "470b": 6937,
      "sphot": 6938,
      "ThaM": 6939,
      "bdan": 6940,
      "glar": 6941,
      "iksha": 6942,
      "kko": 6943,
      "my": 6944,
      "ndu": 6945,
      "ota": 6946,
      "rri": 6947,
      "thes": 6948,
      "zun": 6949,
      "naksha": 6950,
      "tes": 6951,
      "yurdzny": 6952,
      "sut": 6953,
      "dandi": 6954,
      "gnyisa": 6955,
      "tshengs": 6956,
      "rtsog": 6957,
      "rkka": 6958,
      "thin": 6959,
      "bhyas": 6960,
      "arba": 6961,
      "tAr": 6962,
      "mAng": 6963,
      "irtis": 6964,
      "gdongs": 6965,
      "maHzhes": 6966,
      "dIpa": 6967,
      "476a": 6968,
      "476b": 6969,
      "kruny": 6970,
      "shirsha": 6971,
      "btabs": 6972,
      "konyham": 6973,
      ";;/": 6974,
      "hangs": 6975,
      "nvi": 6976,
      "trog": 6977,
      "dapala": 6978,
      "hid": 6979,
      "diSh": 6980,
      "gzang": 6981,
      "khren": 6982,
      "dantu": 6983,
      "iny": 6984,
      "rtstsa": 6985,
      "aaksho": 6986,
      "mdong": 6987,
      "bkyal": 6988,
      "mukti": 6989,
      "buddho": 6990,
      "pit": 6991,
      "bcoma": 6992,
      "sraM": 6993,
      "bAka": 6994,
      "bhin": 6995,
      "shuddhi": 6996,
      "bzhogs": 6997,
      "bsnubs": 6998,
      "mjes": 6999,
      "474a": 7000,
      "475b": 7001,
      "477a": 7002,
      "471a": 7003,
      "shUl": 7004,
      "dakara": 7005,
      "lhwam": 7006,
      "/]": 7007,
      "The": 7008,
      "jen": 7009,
      "mkhun": 7010,
      "ona": 7011,
      "pli": 7012,
      "plaksha": 7013,
      "lams": 7014,
      "gshub": 7015,
      "kutta": 7016,
      "luH": 7017,
      "zhed": 7018,
      "gshen": 7019,
      "aasmad": 7020,
      "bkyon": 7021,
      "muts": 7022,
      "sarti": 7023,
      "drong": 7024,
      "tsandr": 7025,
      "munda": 7026,
      "srabs": 7027,
      "irtti": 7028,
      "baidur": 7029,
      "477b": 7030,
      "478a": 7031,
      "skandha": 7032,
      "ghande": 7033,
      "।।।।।।।।": 7034,
      "00": 7035,
      "bduna": 7036,
      "mw": 7037,
      "rngos": 7038,
      "rdug": 7039,
      "sdog": 7040,
      "tp": 7041,
      "nid": 7042,
      "bsnyam": 7043,
      "rasa": 7044,
      "skyung": 7045,
      "gin": 7046,
      "dzdzi": 7047,
      "dzrI": 7048,
      "brala": 7049,
      "sbyo": 7050,
      "leg": 7051,
      "shpa": 7052,
      "brtsod": 7053,
      "warnna": 7054,
      "nantu": 7055,
      "benya": 7056,
      "sarbaM": 7057,
      "khanya": 7058,
      "arbu": 7059,
      "thka": 7060,
      "swar": 7061,
      "kran": 7062,
      "bhis": 7063,
      "kampa": 7064,
      "lAH": 7065,
      "hohzhesa": 7066,
      "474b": 7067,
      "475a": 7068,
      "bldad": 7069,
      "bhringga": 7070,
      "hreM": 7071,
      "byong": 7072,
      "dkyi": 7073,
      "ddhe": 7074,
      "gtab": 7075,
      "smen": 7076,
      "snyag": 7077,
      "swe": 7078,
      "bats": 7079,
      "tsyu": 7080,
      "nishth": 7081,
      "bsgugs": 7082,
      "miga": 7083,
      "dzAH": 7084,
      "mosa": 7085,
      "thobs": 7086,
      "brngo": 7087,
      "kaSh": 7088,
      "dasa": 7089,
      "klur": 7090,
      "svi": 7091,
      "tsandal": 7092,
      "stas": 7093,
      "panti": 7094,
      ":/....(": 7095,
      "dwai": 7096,
      "pAr": 7097,
      "gAH": 7098,
      "AHlas": 7099,
      "dvoo": 7100,
      "prAp": 7101,
      ":/...(/": 7102,
      "woH": 7103,
      "bsnyugs": 7104,
      "ghanda": 7105,
      "hve": 7106,
      "btad": 7107,
      "ltog": 7108,
      "nni": 7109,
      "rdar": 7110,
      "paksh": 7111,
      "hem": 7112,
      "tsy": 7113,
      "tsad": 7114,
      "barlo": 7115,
      "kasma": 7116,
      "smyen": 7117,
      "mant": 7118,
      "brtsol": 7119,
      "brtsir": 7120,
      "warta": 7121,
      "prad": 7122,
      "bhye": 7123,
      "trU": 7124,
      "dAt": 7125,
      "478b": 7126,
      "sappa": 7127,
      "bardzanga": 7128,
      "]/": 7129,
      "bdu": 7130,
      "brga": 7131,
      "bdams": 7132,
      "tyo": 7133,
      "tyak": 7134,
      "tpanna": 7135,
      "ukshma": 7136,
      "vam": 7137,
      "yuta": 7138,
      "tama": 7139,
      "phyog": 7140,
      "barba": 7141,
      "cin": 7142,
      "dim": 7143,
      "dit": 7144,
      "dzU": 7145,
      "gada": 7146,
      "brI": 7147,
      "kurma": 7148,
      "kag": 7149,
      "mdzum": 7150,
      "snA": 7151,
      "rkong": 7152,
      "langtha": 7153,
      "dzaksha": 7154,
      "khul": 7155,
      "masta": 7156,
      "khyem": 7157,
      "traT": 7158,
      "krosht": 7159,
      "bsubs": 7160,
      "mahsa": 7161,
      "maHswA": 7162,
      "481a": 7163,
      ":....('": 7164,
      "hwags": 7165,
      "u0f7f": 7166,
      "jor": 7167,
      "krig": 7168,
      "kring": 7169,
      "kki": 7170,
      "gsab": 7171,
      "bsnos": 7172,
      "suta": 7173,
      "stom": 7174,
      "kundu": 7175,
      "rne": 7176,
      "phyem": 7177,
      "pheem": 7178,
      "beSh": 7179,
      "bcosa": 7180,
      "srogs": 7181,
      "panth": 7182,
      "kIrtis": 7183,
      "TiH": 7184,
      "482a": 7185,
      "kom": 7186,
      "klam": 7187,
      "mnags": 7188,
      "tth": 7189,
      "uk": 7190,
      "tel": 7191,
      "rge": 7192,
      "sud": 7193,
      "sem": 7194,
      "dzdz": 7195,
      "dzhee": 7196,
      "gzhad": 7197,
      "kanya": 7198,
      "basgo": 7199,
      "rkom": 7200,
      "buddhya": 7201,
      "karmA": 7202,
      "phulla": 7203,
      "piSh": 7204,
      "ainya": 7205,
      "gtems": 7206,
      "swah": 7207,
      "dzee": 7208,
      "manydza": 7209,
      "siddhim": 7210,
      "479a": 7211,
      "479b": 7212,
      "481b": 7213,
      "483a": 7214,
      "480a": 7215,
      "480b": 7216,
      "ldings": 7217,
      "bstsol": 7218,
      "2dang": 7219,
      "Nan": 7220,
      "akshi": 7221,
      "bhum": 7222,
      "bldabs": 7223,
      "pla": 7224,
      "makhasa": 7225,
      "rok": 7226,
      "gyid": 7227,
      "kara": 7228,
      "kunydza": 7229,
      "satvam": 7230,
      "thel": 7231,
      "aasti": 7232,
      "rtsid": 7233,
      "britt": 7234,
      "rastu": 7235,
      "bsar": 7236,
      "zhug": 7237,
      "bek": 7238,
      "aik": 7239,
      "khel": 7240,
      "hrinya": 7241,
      "bighna": 7242,
      "([": 7243,
      "aksh": 7244,
      "btog": 7245,
      "ken": 7246,
      "klI": 7247,
      "sthu": 7248,
      "srig": 7249,
      "hasa": 7250,
      "nirga": 7251,
      "toshn": 7252,
      "khyol": 7253,
      "lom": 7254,
      "spe": 7255,
      "dbh": 7256,
      "kuM": 7257,
      "phana": 7258,
      "sbel": 7259,
      "graM": 7260,
      "tika": 7261,
      "zhena": 7262,
      "aartsi": 7263,
      "mchig": 7264,
      "waka": 7265,
      "sarbo": 7266,
      "lhungs": 7267,
      "mundi": 7268,
      "aira": 7269,
      "thy": 7270,
      "hrid": 7271,
      "mahs": 7272,
      "gshongs": 7273,
      "twAta": 7274,
      "ghanta": 7275,
      "dapaga": 7276,
      "mUrti": 7277,
      "`/": 7278,
      "drI": 7279,
      "lyam": 7280,
      "batta": 7281,
      "bslas": 7282,
      "gara": 7283,
      "dand": 7284,
      "gsug": 7285,
      "nyab": 7286,
      "kaT": 7287,
      "kab": 7288,
      "kastu": 7289,
      "spyings": 7290,
      "bhrim": 7291,
      "dzig": 7292,
      "aem": 7293,
      "mArga": 7294,
      "bkrur": 7295,
      "sparsha": 7296,
      "satve": 7297,
      "hIM": 7298,
      "485b": 7299,
      "hrauM": 7300,
      "anydza": 7301,
      "pulli": 7302,
      "Adz": 7303,
      "ghum": 7304,
      "pug": 7305,
      "rdang": 7306,
      "rmong": 7307,
      "zod": 7308,
      "maT": 7309,
      "ritstsha": 7310,
      "dika": 7311,
      "dzang": 7312,
      "shil": 7313,
      "phram": 7314,
      "gtser": 7315,
      "mdoga": 7316,
      "mangga": 7317,
      "btsang": 7318,
      "skyab": 7319,
      "tsanta": 7320,
      "thk": 7321,
      "dzus": 7322,
      "drUM": 7323,
      "mendra": 7324,
      "u0f88": 7325,
      "482b": 7326,
      "484a": 7327,
      "483b": 7328,
      "rmeg": 7329,
      "smim": 7330,
      "tsakli": 7331,
      "tattva": 7332,
      "mru": 7333,
      "mbu": 7334,
      "ntim": 7335,
      "smes": 7336,
      "batsa": 7337,
      "baSh": 7338,
      "mada": 7339,
      "rnab": 7340,
      "tot": 7341,
      "bartti": 7342,
      "bura": 7343,
      "mongas": 7344,
      "not": 7345,
      "bongs": 7346,
      "rtsu": 7347,
      "praM": 7348,
      "arthi": 7349,
      "bandh": 7350,
      "kheng": 7351,
      "trya": 7352,
      "aota": 7353,
      "AHoM": 7354,
      "u0f89": 7355,
      "484b": 7356,
      "485a": 7357,
      "486a": 7358,
      "wanta": 7359,
      "bighnam": 7360,
      "mukte": 7361,
      "aham": 7362,
      "krog": 7363,
      "ktam": 7364,
      "kke": 7365,
      "ntra": 7366,
      "rmangs": 7367,
      "sdur": 7368,
      "pakshi": 7369,
      "ying": 7370,
      "yot": 7371,
      "gyii": 7372,
      "thara": 7373,
      "rgyag": 7374,
      "sphar": 7375,
      "kushtha": 7376,
      "draM": 7377,
      "mdzed": 7378,
      "dundu": 7379,
      "snel": 7380,
      "hAnya": 7381,
      "ngud": 7382,
      "prat": 7383,
      "gsogs": 7384,
      "konya": 7385,
      "zhod": 7386,
      "tAtra": 7387,
      "yaHku": 7388,
      "dAk": 7389,
      "kshme": 7390,
      "yakshi": 7391,
      "shIR": 7392,
      "487a": 7393,
      "486b": 7394,
      "487b": 7395,
      "488a": 7396,
      "dattam": 7397,
      "aadhi": 7398,
      "bshed": 7399,
      "adzdza": 7400,
      "gyas": 7401,
      "rdeng": 7402,
      "syam": 7403,
      "swo": 7404,
      "uh": 7405,
      "haR": 7406,
      "tash": 7407,
      "tasmin": 7408,
      "tardzdza": 7409,
      "skyos": 7410,
      "sung": 7411,
      "dzham": 7412,
      "gat": 7413,
      "kug": 7414,
      "adma": 7415,
      "dmigsa": 7416,
      "garba": 7417,
      "bisma": 7418,
      "byamsa": 7419,
      "prah": 7420,
      "dgha": 7421,
      "krong": 7422,
      "111": 7423,
      "swasti": 7424,
      "bAk": 7425,
      "shantu": 7426,
      "489b": 7427,
      "490a": 7428,
      "ljib": 7429,
      "suHsogs": 7430,
      "bardzangasa": 7431,
      "57": 7432,
      "aod": 7433,
      "artsi": 7434,
      "bhang": 7435,
      "dyoo": 7436,
      "jos": 7437,
      "pti": 7438,
      "win": 7439,
      "yiSh": 7440,
      "baT": 7441,
      "tsen": 7442,
      "hong": 7443,
      "nishtha": 7444,
      "bsto": 7445,
      "togs": 7446,
      "barngana": 7447,
      "jigas": 7448,
      "bskyes": 7449,
      "khror": 7450,
      "phobs": 7451,
      "zera": 7452,
      "praSh": 7453,
      "nganga": 7454,
      "gshib": 7455,
      "bzheng": 7456,
      "tsitt": 7457,
      "gzeg": 7458,
      "sangas": 7459,
      "u0f84": 7460,
      "hoHb": 7461,
      "488b": 7462,
      "489a": 7463,
      "।।।": 7464,
      "mummu": 7465,
      "aangga": 7466,
      "phyva": 7467,
      "rlabsa": 7468,
      "]@##": 7469,
      "aya": 7470,
      "kto": 7471,
      "lri": 7472,
      "myA": 7473,
      "rbu": 7474,
      "rdha": 7475,
      "ngA": 7476,
      "yashtsa": 7477,
      "yuka": 7478,
      "yuTa": 7479,
      "dzhu": 7480,
      "dbe": 7481,
      "geng": 7482,
      "katstsha": 7483,
      "dgad": 7484,
      "rtstsha": 7485,
      "guh": 7486,
      "shl": 7487,
      "shte": 7488,
      "thims": 7489,
      "briksh": 7490,
      "astri": 7491,
      "blangsa": 7492,
      "bhras": 7493,
      "kAN": 7494,
      "AHni": 7495,
      "aantra": 7496,
      "krunytsa": 7497,
      "mIs": 7498,
      "490b": 7499,
      "akki": 7500,
      "bkyig": 7501,
      "bcan": 7502,
      "hrud": 7503,
      "yushm": 7504,
      "ringa": 7505,
      "gshegsa": 7506,
      "bskye": 7507,
      "alpa": 7508,
      "galpo": 7509,
      "shpe": 7510,
      "span": 7511,
      "rnyang": 7512,
      "rnyong": 7513,
      "badzram": 7514,
      "puka": 7515,
      "jogs": 7516,
      "trata": 7517,
      "nyI": 7518,
      "kharba": 7519,
      "tshantu": 7520,
      "aambu": 7521,
      "....('": 7522,
      "panydza": 7523,
      "btong": 7524,
      "shapda": 7525,
      "rmus": 7526,
      "gnoda": 7527,
      "Tau": 7528,
      "aug": 7529,
      "aer": 7530,
      "cug": 7531,
      "ldags": 7532,
      "mring": 7533,
      "tli": 7534,
      "mak": 7535,
      "yut": 7536,
      "phring": 7537,
      "ltam": 7538,
      "bubs": 7539,
      "hanta": 7540,
      "gai": 7541,
      "gayasa": 7542,
      "tsaR": 7543,
      "bastu": 7544,
      "shapa": 7545,
      "dpu": 7546,
      "dkas": 7547,
      "gtsod": 7548,
      "nandi": 7549,
      "dkrogs": 7550,
      "tsandre": 7551,
      "kharsa": 7552,
      "tvo": 7553,
      "thAs": 7554,
      "ghas": 7555,
      "bzhog": 7556,
      "sarbb": 7557,
      "dushtan": 7558,
      "492a": 7559,
      "491b": 7560,
      "491a": 7561,
      "wantu": 7562,
      "ऽऽऽऽ": 7563,
      "apt": 7564,
      "aphagas": 7565,
      "acha": 7566,
      "bgas": 7567,
      "mp": 7568,
      "mdon": 7569,
      "skyis": 7570,
      "ssa": 7571,
      "sres": 7572,
      "uN": 7573,
      "pakshu": 7574,
      "tstshando": 7575,
      "bstong": 7576,
      "miH": 7577,
      "dzur": 7578,
      "stoo": 7579,
      "shams": 7580,
      "shtsu": 7581,
      "mantu": 7582,
      "aap": 7583,
      "asmad": 7584,
      "astra": 7585,
      "mastu": 7586,
      "mtshungsa": 7587,
      "beg": 7588,
      "kyes": 7589,
      "tsinya": 7590,
      "byibs": 7591,
      "bgrongs": 7592,
      "sunda": 7593,
      "bAt": 7594,
      "bhir": 7595,
      "druga": 7596,
      "bslur": 7597,
      "tshwar": 7598,
      "495a": 7599,
      "aanga": 7600,
      "dvee": 7601,
      "pindo": 7602,
      "/])": 7603,
      "dwang": 7604,
      "etsa": 7605,
      "hraM": 7606,
      "mtshogs": 7607,
      "sgugs": 7608,
      "pai": 7609,
      "pakshya": 7610,
      "baha": 7611,
      "naga": 7612,
      "heM": 7613,
      "bsnub": 7614,
      "rashtsa": 7615,
      "phyil": 7616,
      "gzangs": 7617,
      "gzhen": 7618,
      "gomas": 7619,
      "chabs": 7620,
      "rkam": 7621,
      "byeda": 7622,
      "dkrung": 7623,
      "joga": 7624,
      "prahma": 7625,
      "ngasi": 7626,
      "bhyasta": 7627,
      "skyom": 7628,
      "nyham": 7629,
      "dhyee": 7630,
      "btubs": 7631,
      "//////": 7632,
      "dzems": 7633,
      "stum": 7634,
      "gAM": 7635,
      "aindr": 7636,
      "agni": 7637,
      "hrIHswA": 7638,
      "[)]'": 7639,
      "shIr": 7640,
      "492b": 7641,
      "493a": 7642,
      "brahm": 7643,
      "khrem": 7644,
      "haiM": 7645,
      "bstungs": 7646,
      "ShuHsogs": 7647,
      "60": 7648,
      "aha": 7649,
      "aes": 7650,
      "bes": 7651,
      "hrom": 7652,
      "kyA": 7653,
      "sthe": 7654,
      "tyanta": 7655,
      "nabs": 7656,
      "deH": 7657,
      "bsnyi": 7658,
      "bsub": 7659,
      "tatta": 7660,
      "rot": 7661,
      "thanya": 7662,
      "tany": 7663,
      "tsata": 7664,
      "aae": 7665,
      "aash": 7666,
      "warti": 7667,
      "mtsham": 7668,
      "gzis": 7669,
      "sdoma": 7670,
      "rtagsa": 7671,
      "auna": 7672,
      "rmigs": 7673,
      "bhre": 7674,
      "dhma": 7675,
      "snur": 7676,
      "aamh": 7677,
      "dzahd": 7678,
      "501a": 7679,
      "smryum": 7680,
      "dznyoom": 7681,
      "pasang36": 7682,
      "Ir": 7683,
      "bdi": 7684,
      "bhag": 7685,
      "cos": 7686,
      "gbhy": 7687,
      "ira": 7688,
      "kk": 7689,
      "yra": 7690,
      "nata": 7691,
      "yadznya": 7692,
      "tstshin": 7693,
      "hil": 7694,
      "tashtsa": 7695,
      "teH": 7696,
      "dagga": 7697,
      "toH": 7698,
      "rut": 7699,
      "dznyi": 7700,
      "khreg": 7701,
      "brnyen": 7702,
      "lugas": 7703,
      "bob": 7704,
      "aab": 7705,
      "brela": 7706,
      "mtshona": 7707,
      "lany": 7708,
      "brita": 7709,
      "bidhi": 7710,
      "dgugs": 7711,
      "hAs": 7712,
      "aishtha": 7713,
      "thl": 7714,
      "sraH": 7715,
      "bhishinytsa": 7716,
      "shwasta": 7717,
      "skeg": 7718,
      "aoom": 7719,
      "yaHsa": 7720,
      "jums": 7721,
      "lAm": 7722,
      "dzahzhesa": 7723,
      "rvas": 7724,
      "raHsogs": 7725,
      "aeem": 7726,
      "494b": 7727,
      "494a": 7728,
      "495b": 7729,
      "493b": 7730,
      "496a": 7731,
      "tsunde": 7732,
      "pUrbA": 7733,
      "kurb": 7734,
      "nutpa": 7735,
      "kolla": 7736,
      "kod": 7737,
      "lhe": 7738,
      "mrgad": 7739,
      "tyan": 7740,
      "yiga": 7741,
      "naT": 7742,
      "nana": 7743,
      "gsa": 7744,
      "del": 7745,
      "hit": 7746,
      "yuh": 7747,
      "tats": 7748,
      "rgh": 7749,
      "barn": 7750,
      "longas": 7751,
      "gsungas": 7752,
      "khoms": 7753,
      "smyang": 7754,
      "mdzoda": 7755,
      "bskyong": 7756,
      "shada": 7757,
      "guhya": 7758,
      "bsan": 7759,
      "bishti": 7760,
      "sharka": 7761,
      "lceb": 7762,
      "dgyed": 7763,
      "sipa": 7764,
      "gtig": 7765,
      "balka": 7766,
      "kheb": 7767,
      "khen": 7768,
      "bhiksha": 7769,
      "sAm": 7770,
      "shvasta": 7771,
      "kamba": 7772,
      "sendha": 7773,
      "pritstsha": 7774,
      "lArka": 7775,
      "aantar": 7776,
      "nirb": 7777,
      "497a": 7778,
      "496b": 7779,
      "497b": 7780,
      "498b": 7781,
      "498a": 7782,
      "499a": 7783,
      "499b": 7784,
      "502a": 7785,
      "501b": 7786,
      "503a": 7787,
      "504b": 7788,
      "503b": 7789,
      "500a": 7790,
      "500b": 7791,
      "patn": 7792,
      "rashmi": 7793,
      "urnnu": 7794,
      "argam": 7795,
      "3dang": 7796,
      "NAH": 7797,
      "hnu": 7798,
      "hyasta": 7799,
      "kyong": 7800,
      "ldis": 7801,
      "mn": 7802,
      "rye": 7803,
      "stab": 7804,
      "tris": 7805,
      "twI": 7806,
      "angga": 7807,
      "namaH": 7808,
      "soH": 7809,
      "ruta": 7810,
      "dany": 7811,
      "bora": 7812,
      "sbro": 7813,
      "sbri": 7814,
      "gragas": 7815,
      "tista": 7816,
      "smyag": 7817,
      "shmi": 7818,
      "thed": 7819,
      "gnangs": 7820,
      "rnn": 7821,
      "hAR": 7822,
      "chesa": 7823,
      "bhas": 7824,
      "tAta": 7825,
      "sAn": 7826,
      "satye": 7827,
      "ghna": 7828,
      "tshwas": 7829,
      "tishth": 7830,
      "502b": 7831,
      "505a": 7832,
      "504a": 7833,
      "aadya": 7834,
      "2km": 7835,
      "Ag": 7836,
      "Thu": 7837,
      "Ye": 7838,
      "awa": 7839,
      "blus": 7840,
      "knu": 7841,
      "krug": 7842,
      "pna": 7843,
      "yri": 7844,
      "ymryum": 7845,
      "pats": 7846,
      "padmi": 7847,
      "bahni": 7848,
      "yati": 7849,
      "yashti": 7850,
      "heT": 7851,
      "tsUr": 7852,
      "mathu": 7853,
      "bsrad": 7854,
      "raT": 7855,
      "rah": 7856,
      "tasm": 7857,
      "cings": 7858,
      "moda": 7859,
      "sbrug": 7860,
      "tsakr": 7861,
      "tshums": 7862,
      "damra": 7863,
      "rdzog": 7864,
      "spag": 7865,
      "bkoda": 7866,
      "phed": 7867,
      "nany": 7868,
      "prashtha": 7869,
      "aura": 7870,
      "skyog": 7871,
      "arha": 7872,
      "nyva": 7873,
      "Nama": 7874,
      "nAm": 7875,
      "gArg": 7876,
      "jams": 7877,
      "kshra": 7878,
      "sbrad": 7879,
      "aindri": 7880,
      "byU": 7881,
      "shvam": 7882,
      "bhanda": 7883,
      "siddham": 7884,
      "damshta": 7885,
      "63": 7886,
      "Ipra": 7887,
      "arta": 7888,
      "gtsag": 7889,
      "nde": 7890,
      "oga": 7891,
      "rtu": 7892,
      "patta": 7893,
      "latsa": 7894,
      "makha": 7895,
      "phrim": 7896,
      "gsunga": 7897,
      "kuSh": 7898,
      "adha": 7899,
      "shiT": 7900,
      "shib": 7901,
      "mdzas": 7902,
      "zada": 7903,
      "aashma": 7904,
      "myaM": 7905,
      "snyog": 7906,
      "snyomsa": 7907,
      "puts": 7908,
      "kartA": 7909,
      "thrig": 7910,
      "sbobs": 7911,
      "aet": 7912,
      "Napra": 7913,
      "sngona": 7914,
      "dzuH": 7915,
      "dmul": 7916,
      "sarbbam": 7917,
      "dvang": 7918,
      "grantha": 7919,
      "nimpa": 7920,
      "siddhimme": 7921,
      "zina": 7922,
      "506a": 7923,
      "TuH": 7924,
      "damsht": 7925,
      "hAHsarba": 7926,
      "aalpa": 7927,
      "u0f71": 7928,
      "dzalpa": 7929,
      "bslaba": 7930,
      "adb": 7931,
      "aja": 7932,
      "jugs": 7933,
      "kshan": 7934,
      "pyaM": 7935,
      "rnye": 7936,
      "rngas": 7937,
      "troo": 7938,
      "tses": 7939,
      "yeta": 7940,
      "byany": 7941,
      "bsgro": 7942,
      "taka": 7943,
      "rgi": 7944,
      "tos": 7945,
      "dzyam": 7946,
      "gams": 7947,
      "tanda": 7948,
      "spA": 7949,
      "nyee": 7950,
      "shana": 7951,
      "rkyag": 7952,
      "manra": 7953,
      "rasta": 7954,
      "skyabsa": 7955,
      "prash": 7956,
      "trak": 7957,
      "dumba": 7958,
      "shAH": 7959,
      "rngar": 7960,
      "gAng": 7961,
      "hrIHha": 7962,
      "hrIHdmar": 7963,
      "tasthi": 7964,
      "bzhur": 7965,
      "sUR": 7966,
      "505b": 7967,
      "batte": 7968,
      "proksha": 7969,
      "pinda": 7970,
      "phywa": 7971,
      "dbyam": 7972,
      "ddhya": 7973,
      "inga": 7974,
      "prag": 7975,
      "rnyag": 7976,
      "snyags": 7977,
      "bazhi": 7978,
      "naSh": 7979,
      "hot": 7980,
      "nishtsa": 7981,
      "yub": 7982,
      "rih": 7983,
      "spran": 7984,
      "khatv": 7985,
      "bom": 7986,
      "graha": 7987,
      "shash": 7988,
      "shram": 7989,
      "sris": 7990,
      "byee": 7991,
      "byenya": 7992,
      "bltabs": 7993,
      "sdeng": 7994,
      "gtogsa": 7995,
      "ngasra": 7996,
      "antu": 7997,
      "pita": 7998,
      "stad": 7999,
      "balcag": 8000,
      "ShaD": 8001,
      "Shas": 8002,
      "krodha": 8003,
      "dwau": 8004,
      "swab": 8005,
      "gzem": 8006,
      "sIta": 8007,
      "bshub": 8008,
      "liny": 8009,
      "ToM": 8010,
      "Uta": 8011,
      "Yo": 8012,
      "asht": 8013,
      "dtha": 8014,
      "dhanya": 8015,
      "hwe": 8016,
      "ip": 8017,
      "pen": 8018,
      "rlu": 8019,
      "urta": 8020,
      "nipa": 8021,
      "tada": 8022,
      "teg": 8023,
      "rgham": 8024,
      "tom": 8025,
      "totka": 8026,
      "ruSh": 8027,
      "rushka": 8028,
      "supra": 8029,
      "pasth": 8030,
      "dant": 8031,
      "dante": 8032,
      "mtshes": 8033,
      "rtso": 8034,
      "shkam": 8035,
      "btsom": 8036,
      "nanti": 8037,
      "drem": 8038,
      "sbyangsa": 8039,
      "drogs": 8040,
      "gamli": 8041,
      "urbe": 8042,
      "tsik": 8043,
      "bkrar": 8044,
      "stims": 8045,
      "dhir": 8046,
      "gandh": 8047,
      "rtsvas": 8048,
      "dAr": 8049,
      "sandha": 8050,
      "bsgrig": 8051,
      "sISh": 8052,
      "tsarka": 8053,
      "507a": 8054,
      "506b": 8055,
      "507b": 8056,
      "508a": 8057,
      "kalpe": 8058,
      "bldab": 8059,
      "/).../": 8060,
      "phuHphuH": 8061,
      "snig": 8062,
      "drishtv": 8063,
      "byen": 8064,
      "blcag": 8065,
      "gcar": 8066,
      "ghee": 8067,
      "hrA": 8068,
      "myen": 8069,
      "wangs": 8070,
      "badza": 8071,
      "banytsa": 8072,
      "bargga": 8073,
      "bshud": 8074,
      "yuny": 8075,
      "hus": 8076,
      "rgon": 8077,
      "ronya": 8078,
      "rik": 8079,
      "din": 8080,
      "buM": 8081,
      "dando": 8082,
      "dbangs": 8083,
      "bzlar": 8084,
      "tsana": 8085,
      "tsaksha": 8086,
      "rdzod": 8087,
      "sngag": 8088,
      "nuSh": 8089,
      "shla": 8090,
      "shwo": 8091,
      "srida": 8092,
      "mante": 8093,
      "brtsen": 8094,
      "dbyib": 8095,
      "phon": 8096,
      "gdabs": 8097,
      "rnA": 8098,
      "gcoda": 8099,
      "hAN": 8100,
      "aul": 8101,
      "lter": 8102,
      "dhm": 8103,
      "tAma": 8104,
      "brdzu": 8105,
      "stub": 8106,
      "stya": 8107,
      "prishta": 8108,
      "AHdmar": 8109,
      "u0f85s": 8110,
      "Dita": 8111,
      "kumbhi": 8112,
      "508b": 8113,
      "509a": 8114,
      "ldibs": 8115,
      "skanda": 8116,
      "1km": 8117,
      "ark": 8118,
      "bgreng": 8119,
      "htam": 8120,
      "irnna": 8121,
      "kkha": 8122,
      "lv": 8123,
      "ldogs": 8124,
      "myul": 8125,
      "nyod": 8126,
      "snong": 8127,
      "natte": 8128,
      "niR": 8129,
      "maung": 8130,
      "byag": 8131,
      "raSh": 8132,
      "barsh": 8133,
      "bzhiin": 8134,
      "ngab": 8135,
      "brer": 8136,
      "sbyugs": 8137,
      "kunta": 8138,
      "bastra": 8139,
      "mchoda": 8140,
      "leng": 8141,
      "titstsha": 8142,
      "bskyo": 8143,
      "nuT": 8144,
      "manti": 8145,
      "myak": 8146,
      "myaksam": 8147,
      "rkyend": 8148,
      "waSh": 8149,
      "brit": 8150,
      "bib": 8151,
      "bik": 8152,
      "gcud": 8153,
      "kosko": 8154,
      "arth": 8155,
      "thlim": 8156,
      "yAtra": 8157,
      "pAH": 8158,
      "pAn": 8159,
      "shvan": 8160,
      "ShiH": 8161,
      "bsegs": 8162,
      "aarya": 8163,
      "tvat": 8164,
      "bkyer": 8165,
      "kruM": 8166,
      "aihls": 8167,
      "krem": 8168,
      "truM": 8169,
      "ghante": 8170,
      "matshamas": 8171,
      "59": 8172,
      "com": 8173,
      "hli": 8174,
      "hmryum": 8175,
      "ib": 8176,
      "kwan": 8177,
      "ndo": 8178,
      "sda": 8179,
      "sbya": 8180,
      "slus": 8181,
      "tthi": 8182,
      "ngha": 8183,
      "baga": 8184,
      "nada": 8185,
      "parsha": 8186,
      "matta": 8187,
      "rgang": 8188,
      "thaga": 8189,
      "bartma": 8190,
      "suma": 8191,
      "khrim": 8192,
      "hanra": 8193,
      "luM": 8194,
      "kap": 8195,
      "sbros": 8196,
      "zaga": 8197,
      "lngan": 8198,
      "numra": 8199,
      "riny": 8200,
      "marma": 8201,
      "spying": 8202,
      "shuk": 8203,
      "btsogs": 8204,
      "birya": 8205,
      "resh": 8206,
      "bskar": 8207,
      "..(": 8208,
      "nywa": 8209,
      "kyar": 8210,
      "brdzod": 8211,
      "raktas": 8212,
      "krishta": 8213,
      "sAd": 8214,
      "gAr": 8215,
      "kshnu": 8216,
      "kshmryum": 8217,
      "hrIHhUM": 8218,
      "nirya": 8219,
      "rngod": 8220,
      "509b": 8221,
      "kalpi": 8222,
      "510a": 8223,
      "karmm": 8224,
      "ThAH": 8225,
      "ऽऽऽ": 8226,
      "bsgrungs": 8227,
      "lubdha": 8228,
      "brngod": 8229,
      "1bcas": 8230,
      "Ik": 8231,
      "hha": 8232,
      "hyan": 8233,
      "myes": 8234,
      "rdegs": 8235,
      "syo": 8236,
      "yatra": 8237,
      "dem": 8238,
      "madzdza": 8239,
      "bskyi": 8240,
      "bstung": 8241,
      "dora": 8242,
      "roH": 8243,
      "skha": 8244,
      "tutta": 8245,
      "longa": 8246,
      "chuba": 8247,
      "grug": 8248,
      "dampa": 8249,
      "shle": 8250,
      "bsngam": 8251,
      "aasa": 8252,
      "aawa": 8253,
      "gtsig": 8254,
      "munya": 8255,
      "spron": 8256,
      "sgrod": 8257,
      "dhaka": 8258,
      "bramhi": 8259,
      "karme": 8260,
      "anma": 8261,
      "rlod": 8262,
      "traka": 8263,
      "bhat": 8264,
      "kyag": 8265,
      "sron": 8266,
      "yAstAM": 8267,
      "phalgu": 8268,
      "rakshantu": 8269,
      "gzabs": 8270,
      "khyamsa": 8271,
      "atpa": 8272,
      "atpra": 8273,
      "pushka": 8274,
      "rundha": 8275,
      "spyom": 8276,
      "bshug": 8277,
      "bshubs": 8278,
      "kalp": 8279,
      "tsintya": 8280,
      "linydza": 8281,
      "dzantu": 8282,
      "bighnan": 8283,
      "bolla": 8284,
      "grihnantu": 8285,
      "achi": 8286,
      "drig": 8287,
      "mchos": 8288,
      "rha": 8289,
      "rman": 8290,
      "rlug": 8291,
      "sbab": 8292,
      "snos": 8293,
      "yadra": 8294,
      "yaksh": 8295,
      "daksha": 8296,
      "hoM": 8297,
      "bsgron": 8298,
      "bsnyo": 8299,
      "yukta": 8300,
      "thai": 8301,
      "lash": 8302,
      "ltara": 8303,
      "dishta": 8304,
      "tuka": 8305,
      "gzor": 8306,
      "khkh": 8307,
      "mot": 8308,
      "motta": 8309,
      "brdubs": 8310,
      "nyatha": 8311,
      "kashtsa": 8312,
      "rega": 8313,
      "tih": 8314,
      "aatt": 8315,
      "sampra": 8316,
      "shoondi": 8317,
      "dresa": 8318,
      "aurba": 8319,
      "autstshi": 8320,
      "narba": 8321,
      "aii": 8322,
      "nynita": 8323,
      "yAr": 8324,
      "tsuM": 8325,
      "dhur": 8326,
      "dzahl": 8327,
      "sant": 8328,
      "dzaHswA": 8329,
      "hrIHb": 8330,
      "aHaH": 8331,
      "512a": 8332,
      "511b": 8333,
      "512b": 8334,
      "513a": 8335,
      "514a": 8336,
      "513b": 8337,
      "510b": 8338,
      "511a": 8339,
      "520a": 8340,
      "DoM": 8341,
      "ShoH": 8342,
      "Shany": 8343,
      "dmos": 8344,
      "gdegs": 8345,
      "kyas": 8346,
      "klor": 8347,
      "mchen": 8348,
      "ntam": 8349,
      "rbe": 8350,
      "sdags": 8351,
      "page": 8352,
      "natti": 8353,
      "lai": 8354,
      "heH": 8355,
      "madra": 8356,
      "tapta": 8357,
      "yangku": 8358,
      "doH": 8359,
      "songa": 8360,
      "gyil": 8361,
      "ruk": 8362,
      "suk": 8363,
      "khangs": 8364,
      "pasma": 8365,
      "sprid": 8366,
      "adre": 8367,
      "sngam": 8368,
      "guH": 8369,
      "myam": 8370,
      "bida": 8371,
      "khanga": 8372,
      "gcor": 8373,
      "pusta": 8374,
      "anra": 8375,
      "andi": 8376,
      "aig": 8377,
      "wAH": 8378,
      "bAdz": 8379,
      "pAk": 8380,
      "rantu": 8381,
      "gdoda": 8382,
      "gyura": 8383,
      "jags": 8384,
      "u0fb": 8385,
      "kshmam": 8386,
      "phinya": 8387,
      "pUrbe": 8388,
      "matte": 8389,
      "shraddha": 8390,
      "ldob": 8391,
      "atshala": 8392,
      "58": 8393,
      "]//": 8394,
      "bhal": 8395,
      "dbad": 8396,
      "lcig": 8397,
      "osa": 8398,
      "rming": 8399,
      "swi": 8400,
      "batra": 8401,
      "nah": 8402,
      "parya": 8403,
      "made": 8404,
      "mado": 8405,
      "bsno": 8406,
      "bsgrogs": 8407,
      "teng": 8408,
      "gyim": 8409,
      "tosh": 8410,
      "suka": 8411,
      "dipra": 8412,
      "khrang": 8413,
      "ambu": 8414,
      "shiM": 8415,
      "tit": 8416,
      "skungs": 8417,
      "shthe": 8418,
      "uny": 8419,
      "brtsoms": 8420,
      "sampu": 8421,
      "asth": 8422,
      "tshya": 8423,
      "baddha": 8424,
      "lcebs": 8425,
      "siSh": 8426,
      "aid": 8427,
      "tsiN": 8428,
      "kiH": 8429,
      "bsnamsa": 8430,
      "rakt": 8431,
      "harsha": 8432,
      "zums": 8433,
      "pushp": 8434,
      "agga": 8435,
      "hoHbadzra": 8436,
      "shvo": 8437,
      "bsoda": 8438,
      "514b": 8439,
      "515a": 8440,
      "515b": 8441,
      "516a": 8442,
      "520b": 8443,
      "521a": 8444,
      "pakt": 8445,
      "NoH": 8446,
      "eshta": 8447,
      "sbegs": 8448,
      "bzunga": 8449,
      "4dang": 8450,
      "78": 8451,
      "brig": 8452,
      "byungs": 8453,
      "dgrongs": 8454,
      "gtag": 8455,
      "hmo": 8456,
      "hrAM": 8457,
      "ktva": 8458,
      "ltu": 8459,
      "rnu": 8460,
      "rdur": 8461,
      "tsts": 8462,
      "duga": 8463,
      "maR": 8464,
      "bsi": 8465,
      "phyongs": 8466,
      "doga": 8467,
      "caga": 8468,
      "rji": 8469,
      "brnog": 8470,
      "tishta": 8471,
      "smu": 8472,
      "zasa": 8473,
      "lamb": 8474,
      "lambi": 8475,
      "shatha": 8476,
      "shyan": 8477,
      "aasmin": 8478,
      "legsa": 8479,
      "langkar": 8480,
      "dzany": 8481,
      "wat": 8482,
      "sambuddhi": 8483,
      "jomas": 8484,
      "andhi": 8485,
      "narte": 8486,
      "bhakta": 8487,
      "bhasmi": 8488,
      "urtti": 8489,
      "shastra": 8490,
      "nAr": 8491,
      "krish": 8492,
      "bhid": 8493,
      "ghatta": 8494,
      "santo": 8495,
      "hrIHa": 8496,
      "kshipta": 8497,
      "hoHyig": 8498,
      "rundh": 8499,
      "tarka": 8500,
      "dzhala": 8501,
      "piny": 8502,
      "pashtsa": 8503,
      "dzrIM": 8504,
      "tthddh": 8505,
      ")...": 8506,
      "1kama": 8507,
      "56": 8508,
      "64": 8509,
      "kil": 8510,
      "rnges": 8511,
      "smed": 8512,
      "sdad": 8513,
      "sming": 8514,
      "baN": 8515,
      "nakti": 8516,
      "parn": 8517,
      "parnna": 8518,
      "parnn": 8519,
      "tsye": 8520,
      "tswa": 8521,
      "maho": 8522,
      "bsra": 8523,
      "bsug": 8524,
      "phyol": 8525,
      "mitte": 8526,
      "riT": 8527,
      "cil": 8528,
      "dzram": 8529,
      "cheda": 8530,
      "dande": 8531,
      "dbrag": 8532,
      "brnyar": 8533,
      "bobs": 8534,
      "shishta": 8535,
      "phaka": 8536,
      "tshungs": 8537,
      "damba": 8538,
      "shara": 8539,
      "rtson": 8540,
      "sny": 8541,
      "shsh": 8542,
      "yastu": 8543,
      "lagsa": 8544,
      "things": 8545,
      "muna": 8546,
      "spob": 8547,
      "bitta": 8548,
      "ansa": 8549,
      "bhyu": 8550,
      "bhrid": 8551,
      "tsany": 8552,
      "shasta": 8553,
      "kanti": 8554,
      "yAma": 8555,
      "dzamb": 8556,
      "pAN": 8557,
      "svabh": 8558,
      "shvar": 8559,
      "stun": 8560,
      "aoor": 8561,
      "bzoda": 8562,
      "glau": 8563,
      "kshl": 8564,
      "aanna": 8565,
      "gsera": 8566,
      "u0f85b": 8567,
      "rdel": 8568,
      "DApa": 8569,
      "ihbi": 8570,
      "519a": 8571,
      "519b": 8572,
      "btams": 8573,
      "sindhur": 8574,
      "bacada": 8575,
      "u0f72": 8576,
      "0ra": 8577,
      "5km": 8578,
      "TU": 8579,
      "Tas": 8580,
      "bhad": 8581,
      "iksh": 8582,
      "jon": 8583,
      "jong": 8584,
      "kyor": 8585,
      "llu": 8586,
      "mle": 8587,
      "myir": 8588,
      "mchams": 8589,
      "pte": 8590,
      "sdam": 8591,
      "narta": 8592,
      "namaHsarba": 8593,
      "matsho": 8594,
      "dogas": 8595,
      "hun": 8596,
      "mitstsha": 8597,
      "risa": 8598,
      "sobs": 8599,
      "bzhira": 8600,
      "buN": 8601,
      "rjai": 8602,
      "jir": 8603,
      "brlas": 8604,
      "brlangs": 8605,
      "brtab": 8606,
      "lunga": 8607,
      "grola": 8608,
      "grogas": 8609,
      "sags": 8610,
      "rdzar": 8611,
      "tiR": 8612,
      "smAta": 8613,
      "nuTa": 8614,
      "shtim": 8615,
      "bkras": 8616,
      "tshaH": 8617,
      "khub": 8618,
      "phuT": 8619,
      "garbh": 8620,
      "brittam": 8621,
      "sheng": 8622,
      "rdzub": 8623,
      "khanti": 8624,
      "svee": 8625,
      "lhongs": 8626,
      "rmongsa": 8627,
      "tsim": 8628,
      "bcoms": 8629,
      "ShIH": 8630,
      "sbogs": 8631,
      "rAdz": 8632,
      "brdzang": 8633,
      "bandi": 8634,
      "gandho": 8635,
      "gcigs": 8636,
      "tvad": 8637,
      "bAR": 8638,
      "sAts": 8639,
      "gAn": 8640,
      "tsurna": 8641,
      "gdona": 8642,
      "shtham": 8643,
      "AHswA": 8644,
      "aante": 8645,
      "runda": 8646,
      "sUk": 8647,
      "zings": 8648,
      "bhany": 8649,
      "517b": 8650,
      "518b": 8651,
      "smina": 8652,
      "kurban": 8653,
      "kurbantu": 8654,
      "bhurbhu": 8655,
      "+'+": 8656,
      "tapte": 8657,
      "syanda": 8658,
      "theshtam": 8659,
      "99": 8660,
      "Atra": 8661,
      "We": 8662,
      "glung": 8663,
      "jang": 8664,
      "ldebs": 8665,
      "myig": 8666,
      "nsa": 8667,
      "onga": 8668,
      "pye": 8669,
      "rtA": 8670,
      "snub": 8671,
      "upa": 8672,
      "yiin": 8673,
      "tson": 8674,
      "byakta": 8675,
      "bsnon": 8676,
      "rama": 8677,
      "rgA": 8678,
      "barlinga": 8679,
      "tushta": 8680,
      "stee": 8681,
      "bcung": 8682,
      "khat": 8683,
      "dbi": 8684,
      "luTa": 8685,
      "kadzdza": 8686,
      "mtshangs": 8687,
      "sardzi": 8688,
      "tinga": 8689,
      "smres": 8690,
      "bskungs": 8691,
      "shukra": 8692,
      "samA": 8693,
      "samr": 8694,
      "rnel": 8695,
      "sharba": 8696,
      "brungs": 8697,
      "bkums": 8698,
      "dror": 8699,
      "gomsa": 8700,
      "tsiH": 8701,
      "rmal": 8702,
      "dziSh": 8703,
      "keg": 8704,
      "krishn": 8705,
      "?]/": 8706,
      "larka": 8707,
      "ranti": 8708,
      "Ship": 8709,
      "panydzi": 8710,
      "bsgyangs": 8711,
      "aahls": 8712,
      "[)]@#/": 8713,
      "bzhun": 8714,
      "shUn": 8715,
      "pradznye": 8716,
      "517a": 8717,
      "516b": 8718,
      "tsuny": 8719,
      "phir": 8720,
      ":/...('": 8721,
      "kshoo": 8722,
      "hvam": 8723,
      "yanytsoo": 8724,
      "beshta": 8725,
      "shambhala": 8726,
      "bhrasdza": 8727,
      "bsnyigs": 8728,
      "1la": 8729,
      "3km": 8730,
      "MH": 8731,
      "abru": 8732,
      "dban": 8733,
      "grab": 8734,
      "irn": 8735,
      "mdu": 8736,
      "nma": 8737,
      "nes": 8738,
      "sbus": 8739,
      "ttra": 8740,
      "paSh": 8741,
      "hash": 8742,
      "tsli": 8743,
      "yeSh": 8744,
      "byanydza": 8745,
      "phyu": 8746,
      "skrad": 8747,
      "bzhing": 8748,
      "buSh": 8749,
      "khr": 8750,
      "khaT": 8751,
      "khatstshe": 8752,
      "tsara": 8753,
      "saha": 8754,
      "sakta": 8755,
      "shashti": 8756,
      "rtsogs": 8757,
      "rtsags": 8758,
      "yanytsa": 8759,
      "onda": 8760,
      "shyanti": 8761,
      "rksha": 8762,
      "jigsa": 8763,
      "wana": 8764,
      "tanga": 8765,
      "sarw": 8766,
      "tshI": 8767,
      "sgrengs": 8768,
      "sdongs": 8769,
      "nant": 8770,
      "begs": 8771,
      "zeg": 8772,
      "dgyer": 8773,
      "drob": 8774,
      "darshi": 8775,
      "sidhya": 8776,
      "bhyi": 8777,
      "tsantra": 8778,
      "shAka": 8779,
      "btum": 8780,
      "TAH": 8781,
      "kAs": 8782,
      "lcis": 8783,
      "tshanda": 8784,
      "pAny": 8785,
      "sAH": 8786,
      "stU": 8787,
      "grem": 8788,
      "shanta": 8789,
      "dzahb": 8790,
      "tsoH": 8791,
      "harmaH": 8792,
      "ghurna": 8793,
      "bshur": 8794,
      "TuM": 8795,
      "kshee": 8796,
      "518a": 8797,
      "shuddhonyham": 8798,
      "521b": 8799,
      "dzanm": 8800,
      "kvip": 8801,
      "shambhir": 8802,
      "5dang": 8803,
      "bbi": 8804,
      "gnyag": 8805,
      "iNa": 8806,
      "lbal": 8807,
      "mmi": 8808,
      "ob": 8809,
      "rdam": 8810,
      "rlags": 8811,
      "syad": 8812,
      "srus": 8813,
      "swam": 8814,
      "baba": 8815,
      "haste": 8816,
      "haSha": 8817,
      "mab": 8818,
      "phrel": 8819,
      "roksha": 8820,
      "ruN": 8821,
      "skangs": 8822,
      "bzhibs": 8823,
      "diH": 8824,
      "dzlum": 8825,
      "tantu": 8826,
      "spi": 8827,
      "brka": 8828,
      "brdza": 8829,
      "kashi": 8830,
      "kark": 8831,
      "kaiH": 8832,
      "bzh": 8833,
      "shik": 8834,
      "tsaksh": 8835,
      "saka": 8836,
      "rdzang": 8837,
      "rdzir": 8838,
      "tikshna": 8839,
      "mthob": 8840,
      "bskya": 8841,
      "shashthi": 8842,
      "skung": 8843,
      "yansa": 8844,
      "aara": 8845,
      "aaksh": 8846,
      "bkog": 8847,
      "bkogs": 8848,
      "thir": 8849,
      "khyigs": 8850,
      "shuH": 8851,
      "rnnu": 8852,
      "sarpi": 8853,
      "zhab": 8854,
      "phroM": 8855,
      "auk": 8856,
      "autstshu": 8857,
      "gshigs": 8858,
      "tsandras": 8859,
      "nydzi": 8860,
      "bhindha": 8861,
      "tsitte": 8862,
      "svapna": 8863,
      "satta": 8864,
      "aot": 8865,
      "stI": 8866,
      "snyeng": 8867,
      "druM": 8868,
      "drya": 8869,
      "dhem": 8870,
      "bstana": 8871,
      "aantu": 8872,
      "pushkar": 8873,
      "u0f85n": 8874,
      "shangga": 8875,
      "tunte": 8876,
      "shISha": 8877,
      "sindh": 8878,
      "kalba": 8879,
      "line": 8880,
      "ngit": 8881,
      "522a": 8882,
      "bstus": 8883,
      "nishtsi": 8884,
      "bashagas": 8885,
      "dhvansa": 8886,
      "6dang": 8887,
      "=//": 8888,
      "Apra": 8889,
      "bli": 8890,
      "gcing": 8891,
      "gdings": 8892,
      "idz": 8893,
      "kma": 8894,
      "kshr": 8895,
      "rlam": 8896,
      "uka": 8897,
      "yada": 8898,
      "duM": 8899,
      "hod": 8900,
      "bslong": 8901,
      "tastu": 8902,
      "pon": 8903,
      "mim": 8904,
      "rish": 8905,
      "thana": 8906,
      "skyangs": 8907,
      "dik": 8908,
      "dzod": 8909,
      "dzdzha": 8910,
      "dbyid": 8911,
      "kasm": 8912,
      "tsakri": 8913,
      "mdzos": 8914,
      "shah": 8915,
      "shapta": 8916,
      "chigs": 8917,
      "gnyos": 8918,
      "shunya": 8919,
      "garda": 8920,
      "astha": 8921,
      "rnni": 8922,
      "bisha": 8923,
      "kartu": 8924,
      "aush": 8925,
      "sings": 8926,
      "bhl": 8927,
      "kirti": 8928,
      "Shai": 8929,
      "gleg": 8930,
      "yASh": 8931,
      "khee": 8932,
      "slud": 8933,
      "shamba": 8934,
      "dAnya": 8935,
      "shriM": 8936,
      "shrinya": 8937,
      "dhee": 8938,
      "pUng": 8939,
      "ShIta": 8940,
      "byunga": 8941,
      "rkad": 8942,
      "phig": 8943,
      "kalpaH": 8944,
      "yauH": 8945,
      "।।।।।।": 8946,
      "bashtsa": 8947,
      "YuH": 8948,
      "shtom": 8949,
      ")/": 8950,
      "54": 8951,
      "70": 8952,
      "77": 8953,
      "Ri": 8954,
      "Ung": 8955,
      "ardz": 8956,
      "brnal": 8957,
      "dmang": 8958,
      "ht": 8959,
      "iD": 8960,
      "kyad": 8961,
      "lp": 8962,
      "ped": 8963,
      "rli": 8964,
      "rtta": 8965,
      "rtti": 8966,
      "syur": 8967,
      "tto": 8968,
      "yiH": 8969,
      "nap": 8970,
      "lama": 8971,
      "yapa": 8972,
      "dut": 8973,
      "bsig": 8974,
      "taT": 8975,
      "goga": 8976,
      "gaza": 8977,
      "gardzu": 8978,
      "tandu": 8979,
      "dbhu": 8980,
      "sats": 8981,
      "mchon": 8982,
      "mardha": 8983,
      "mthung": 8984,
      "srib": 8985,
      "aada": 8986,
      "aasm": 8987,
      "muta": 8988,
      "btsi": 8989,
      "btsangs": 8990,
      "samb": 8991,
      "sampa": 8992,
      "samyaka": 8993,
      "puH": 8994,
      "punya": 8995,
      "pusha": 8996,
      "bkugs": 8997,
      "karyam": 8998,
      "ausa": 8999,
      "grogsa": 9000,
      "bhakti": 9001,
      "arthe": 9002,
      "sroga": 9003,
      "sadya": 9004,
      "swan": 9005,
      "svan": 9006,
      "rnol": 9007,
      "rnos": 9008,
      "satwe": 9009,
      "ghasmar": 9010,
      "tsuH": 9011,
      "mjad": 9012,
      "hohgan": 9013,
      "aoota": 9014,
      "tatpa": 9015,
      "mukt": 9016,
      "aunm": 9017,
      "apti": 9018,
      "ashtar": 9019,
      "tstshanda": 9020,
      "nashtsa": 9021,
      "muhs": 9022,
      "a84": 9023,
      "2kama": 9024,
      "55": 9025,
      "6km": 9026,
      "Ak": 9027,
      "dbag": 9028,
      "gli": 9029,
      "iti": 9030,
      "kwin": 9031,
      "lw": 9032,
      "ppe": 9033,
      "rban": 9034,
      "sdan": 9035,
      "tl": 9036,
      "tral": 9037,
      "lap": 9038,
      "gsam": 9039,
      "tsil": 9040,
      "manya": 9041,
      "yegs": 9042,
      "bsgegs": 9043,
      "bsing": 9044,
      "tala": 9045,
      "sudzdza": 9046,
      "dindi": 9047,
      "tuN": 9048,
      "dzre": 9049,
      "rja": 9050,
      "brdo": 9051,
      "kush": 9052,
      "chain": 9053,
      "thugas": 9054,
      "drana": 9055,
      "bskrus": 9056,
      "bsgoma": 9057,
      "spaR": 9058,
      "aasta": 9059,
      "khrong": 9060,
      "gne": 9061,
      "phoT": 9062,
      "mush": 9063,
      "tshaM": 9064,
      "phut": 9065,
      "sambi": 9066,
      "biT": 9067,
      "bista": 9068,
      "sgug": 9069,
      "dhat": 9070,
      "skyag": 9071,
      "karba": 9072,
      "kartr": 9073,
      "aub": 9074,
      "audgha": 9075,
      "urtta": 9076,
      "tsis": 9077,
      "dhram": 9078,
      "glum": 9079,
      "aees": 9080,
      "tamba": 9081,
      "mAp": 9082,
      "kAl": 9083,
      "bkrum": 9084,
      "bAg": 9085,
      "shwas": 9086,
      "harba": 9087,
      "tsush": 9088,
      "khrar": 9089,
      "..../": 9090,
      "Shing": 9091,
      "shanti": 9092,
      "maHsaM": 9093,
      "aarth": 9094,
      "bIta": 9095,
      "dvam": 9096,
      "hastA": 9097,
      "meem": 9098,
      "mUrta": 9099,
      "522b": 9100,
      "nutpan": 9101,
      "kaddha": 9102,
      "gzhags": 9103,
      "matshara": 9104,
      "shrantha": 9105,
      "shanytsi": 9106,
      "61": 9107,
      "Al": 9108,
      "ITa": 9109,
      "asmA": 9110,
      "bp": 9111,
      "dngan": 9112,
      "gcir": 9113,
      "hmi": 9114,
      "iha": 9115,
      "ida": 9116,
      "iShi": 9117,
      "klogs": 9118,
      "mre": 9119,
      "mram": 9120,
      "prab": 9121,
      "srug": 9122,
      "uT": 9123,
      "yy": 9124,
      "batti": 9125,
      "laksh": 9126,
      "tslum": 9127,
      "mashtsa": 9128,
      "bsong": 9129,
      "tah": 9130,
      "tadra": 9131,
      "phris": 9132,
      "yonya": 9133,
      "rishtha": 9134,
      "bardza": 9135,
      "bartsi": 9136,
      "ngams": 9137,
      "rjogs": 9138,
      "gana": 9139,
      "spyur": 9140,
      "sprig": 9141,
      "kuta": 9142,
      "luta": 9143,
      "bosa": 9144,
      "sah": 9145,
      "sara": 9146,
      "satshu": 9147,
      "rdzau": 9148,
      "gzus": 9149,
      "tshel": 9150,
      "bskyor": 9151,
      "dgags": 9152,
      "snyong": 9153,
      "shraM": 9154,
      "shresh": 9155,
      "blad": 9156,
      "mantri": 9157,
      "skada": 9158,
      "mutstsha": 9159,
      "dzana": 9160,
      "gzigas": 9161,
      "bishya": 9162,
      "budhya": 9163,
      "shon": 9164,
      "dkos": 9165,
      "lcagsa": 9166,
      "kotta": 9167,
      "bhakshi": 9168,
      "uryas": 9169,
      "tsing": 9170,
      "shastu": 9171,
      "mAs": 9172,
      "kriSh": 9173,
      "shwan": 9174,
      "sger": 9175,
      "thAm": 9176,
      "shvat": 9177,
      "gauH": 9178,
      "aarba": 9179,
      "murti": 9180,
      "aindha": 9181,
      "DiN": 9182,
      "stamba": 9183,
      "shloo": 9184,
      "hrihpad": 9185,
      "yatstshantu": 9186,
      "warsha": 9187,
      "tyuktv": 9188,
      "hIHlas": 9189,
      "hIHyig": 9190,
      "damshtr": 9191,
      "bakaga": 9192,
      "bduda": 9193,
      "4km": 9194,
      "7km": 9195,
      "Yany": 9196,
      "[×": 9197,
      "ay": 9198,
      "bUr": 9199,
      "dta": 9200,
      "eM": 9201,
      "gde": 9202,
      "gdas": 9203,
      "gnub": 9204,
      "gbhi": 9205,
      "kes": 9206,
      "kras": 9207,
      "klongs": 9208,
      "ktri": 9209,
      "kril": 9210,
      "lko": 9211,
      "ntha": 9212,
      "rl": 9213,
      "rnyan": 9214,
      "srangs": 9215,
      "trer": 9216,
      "tyoo": 9217,
      "tstshindha": 9218,
      "hiShiny": 9219,
      "mardza": 9220,
      "bsda": 9221,
      "bshag": 9222,
      "tara": 9223,
      "pong": 9224,
      "hup": 9225,
      "mits": 9226,
      "rob": 9227,
      "tonya": 9228,
      "skyungs": 9229,
      "dzma": 9230,
      "gonga": 9231,
      "jis": 9232,
      "brngam": 9233,
      "kadz": 9234,
      "sbrugs": 9235,
      "samanta": 9236,
      "rdzangs": 9237,
      "tsheng": 9238,
      "draH": 9239,
      "smyor": 9240,
      "snan": 9241,
      "yantsa": 9242,
      "chim": 9243,
      "sribs": 9244,
      "mandu": 9245,
      "aatra": 9246,
      "skaM": 9247,
      "dbying": 9248,
      "mchim": 9249,
      "lip": 9250,
      "thiH": 9251,
      "muka": 9252,
      "wata": 9253,
      "labdha": 9254,
      "bitstsha": 9255,
      "tshangas": 9256,
      "karbu": 9257,
      "sidhi": 9258,
      "urnu": 9259,
      "ltems": 9260,
      "pib": 9261,
      "aisa": 9262,
      "nytsoo": 9263,
      "neer": 9264,
      "glee": 9265,
      "dhis": 9266,
      "snums": 9267,
      "rakkha": 9268,
      "swap": 9269,
      "krU": 9270,
      "lAk": 9271,
      "AHhu": 9272,
      "kIR": 9273,
      "u0f85d": 9274,
      "rwas": 9275,
      "tunna": 9276,
      "sindu": 9277,
      "hiHzhes": 9278,
      "kongka": 9279,
      "anytsir": 9280,
      "shuddhonya": 9281,
      "tsundas": 9282,
      "523a": 9283,
      "524b": 9284,
      "525a": 9285,
      "524a": 9286,
      "523b": 9287,
      "dzanti": 9288,
      "kakka": 9289,
      "margata": 9290,
      "brinda": 9291,
      "hraHhraH": 9292,
      "ldoga": 9293,
      "62": 9294,
      "76": 9295,
      "7dang": 9296,
      "aba": 9297,
      "a46": 9298,
      "brgyur": 9299,
      "dbyed": 9300,
      "gga": 9301,
      "gtung": 9302,
      "gyar": 9303,
      "isht": 9304,
      "mnor": 9305,
      "mrA": 9306,
      "tm": 9307,
      "utra": 9308,
      "ऽं": 9309,
      "baid": 9310,
      "harga": 9311,
      "dula": 9312,
      "nii": 9313,
      "makshi": 9314,
      "byai": 9315,
      "bsnya": 9316,
      "bsdor": 9317,
      "yutsa": 9318,
      "thata": 9319,
      "barbri": 9320,
      "phyig": 9321,
      "khrad": 9322,
      "brton": 9323,
      "grums": 9324,
      "kyanga": 9325,
      "shishtha": 9326,
      "phaTa": 9327,
      "tsarmma": 9328,
      "sadz": 9329,
      "mthod": 9330,
      "shashtha": 9331,
      "smram": 9332,
      "rtsan": 9333,
      "mongsa": 9334,
      "mantr": 9335,
      "yasmin": 9336,
      "namsa": 9337,
      "mastri": 9338,
      "sgrel": 9339,
      "putstsha": 9340,
      "praH": 9341,
      "prapta": 9342,
      "darba": 9343,
      "koSh": 9344,
      "durba": 9345,
      "malli": 9346,
      "thv": 9347,
      "Shat": 9348,
      "tambu": 9349,
      "triH": 9350,
      "bant": 9351,
      "bhisa": 9352,
      "svardzi": 9353,
      "purba": 9354,
      "mnab": 9355,
      "tsAR": 9356,
      "tundi": 9357,
      "khim": 9358,
      "mrda": 9359,
      "dIng": 9360,
      "aahs": 9361,
      "ghurnna": 9362,
      "kalpo": 9363,
      "tsakrA": 9364,
      "525b": 9365,
      "527a": 9366,
      "526b": 9367,
      "527b": 9368,
      "528a": 9369,
      "haiH": 9370,
      "drAk": 9371,
      "brlagsa": 9372,
      "pashtsi": 9373,
      "brind": 9374,
      "kanydzi": 9375,
      "barloba": 9376,
      "dpungs": 9377,
      "(/'": 9378,
      ".-": 9379,
      "9km": 9380,
      "Shang": 9381,
      "ktsi": 9382,
      "mla": 9383,
      "mnag": 9384,
      "pl": 9385,
      "pyi": 9386,
      "pyu": 9387,
      "rdab": 9388,
      "rbba": 9389,
      "smo": 9390,
      "stung": 9391,
      "two": 9392,
      "ve": 9393,
      "bams": 9394,
      "bakshi": 9395,
      "yadzny": 9396,
      "msa": 9397,
      "kyiis": 9398,
      "taste": 9399,
      "phr": 9400,
      "bzhib": 9401,
      "ses": 9402,
      "tupa": 9403,
      "tuma": 9404,
      "dzangs": 9405,
      "dzen": 9406,
      "chera": 9407,
      "gany": 9408,
      "tantr": 9409,
      "spy": 9410,
      "nyaM": 9411,
      "shiksha": 9412,
      "dastu": 9413,
      "kundi": 9414,
      "tsaNa": 9415,
      "tsakshi": 9416,
      "basla": 9417,
      "bskom": 9418,
      "lambe": 9419,
      "nushtu": 9420,
      "gupa": 9421,
      "sgram": 9422,
      "shnytsa": 9423,
      "aaya": 9424,
      "aabhi": 9425,
      "aatstsha": 9426,
      "skab": 9427,
      "rtsel": 9428,
      "bishtha": 9429,
      "sdiga": 9430,
      "zhaga": 9431,
      "sgreg": 9432,
      "hAka": 9433,
      "shongs": 9434,
      "puSha": 9435,
      "nanytsa": 9436,
      "dkona": 9437,
      "karman": 9438,
      "auts": 9439,
      "aushna": 9440,
      "autstsh": 9441,
      "sit": 9442,
      "lhong": 9443,
      "urdha": 9444,
      "pishta": 9445,
      "aishnu": 9446,
      "stau": 9447,
      "ball": 9448,
      "rAr": 9449,
      "shAg": 9450,
      "mAt": 9451,
      "krosh": 9452,
      "mcheda": 9453,
      "tsushma": 9454,
      "gren": 9455,
      "maHhi": 9456,
      "maHtsaN": 9457,
      "tsAM": 9458,
      "nirbA": 9459,
      "shrIH": 9460,
      "dushti": 9461,
      "aihsh": 9462,
      "526a": 9463,
      "528b": 9464,
      "529a": 9465,
      "bhandhar": 9466,
      "kanytsi": 9467,
      "kinytsi": 9468,
      "Dau": 9469,
      "NU": 9470,
      "RI": 9471,
      "aen": 9472,
      "bhud": 9473,
      "cangs": 9474,
      "dyee": 9475,
      "hnam": 9476,
      "hris": 9477,
      "hyee": 9478,
      "ktha": 9479,
      "klA": 9480,
      "ml": 9481,
      "myin": 9482,
      "oH": 9483,
      "phin": 9484,
      "proo": 9485,
      "sreng": 9486,
      "smal": 9487,
      "bana": 9488,
      "badra": 9489,
      "badha": 9490,
      "ladz": 9491,
      "yate": 9492,
      "hala": 9493,
      "tsva": 9494,
      "bsdog": 9495,
      "bshangs": 9496,
      "tasmee": 9497,
      "poSh": 9498,
      "hung": 9499,
      "gyiis": 9500,
      "yurda": 9501,
      "skobs": 9502,
      "phyira": 9503,
      "ngosa": 9504,
      "pastha": 9505,
      "gardzi": 9506,
      "khardzu": 9507,
      "brnyil": 9508,
      "kaka": 9509,
      "shiR": 9510,
      "sbring": 9511,
      "sabta": 9512,
      "rdzA": 9513,
      "gunydza": 9514,
      "rkye": 9515,
      "spanga": 9516,
      "lendr": 9517,
      "dzai": 9518,
      "shukle": 9519,
      "britte": 9520,
      "lhum": 9521,
      "phela": 9522,
      "drangsa": 9523,
      "karsh": 9524,
      "sita": 9525,
      "bhva": 9526,
      "pispa": 9527,
      "skrags": 9528,
      "artta": 9529,
      "nydzu": 9530,
      "srongs": 9531,
      "thra": 9532,
      "kanth": 9533,
      "trid": 9534,
      "kheg": 9535,
      "pAd": 9536,
      "bshibs": 9537,
      "bsnums": 9538,
      "Shita": 9539,
      "AHsarba": 9540,
      "shyat": 9541,
      "dzaHlas": 9542,
      "aggas": 9543,
      "/...(/": 9544,
      "Shunya": 9545,
      "haHzhes": 9546,
      "DAM": 9547,
      "aeetsa": 9548,
      "zig": 9549,
      "wantoo": 9550,
      "aihh": 9551,
      "529b": 9552,
      "rdabs": 9553,
      "&&&&": 9554,
      "sapt": 9555,
      "530a": 9556,
      "530b": 9557,
      "531a": 9558,
      "ranydzi": 9559,
      "sbyil": 9560,
      "yatna": 9561,
      "Tot": 9562,
      "phuHzhes": 9563,
      "brashtsa": 9564,
      "krinta": 9565,
      "dkyiil": 9566,
      "rdzaugs": 9567,
      "3pa": 9568,
      "66": 9569,
      "68": 9570,
      "69": 9571,
      "72": 9572,
      "80": 9573,
      "98": 9574,
      "Any": 9575,
      "atam": 9576,
      "bgab": 9577,
      "dhum": 9578,
      "gnur": 9579,
      "mbr": 9580,
      "myung": 9581,
      "mgro": 9582,
      "mnyas": 9583,
      "nen": 9584,
      "per": 9585,
      "prog": 9586,
      "pris": 9587,
      "rt": 9588,
      "rbo": 9589,
      "rdud": 9590,
      "rth": 9591,
      "stho": 9592,
      "ssarba": 9593,
      "trab": 9594,
      "trad": 9595,
      "uH": 9596,
      "zlums": 9597,
      "bakta": 9598,
      "bazhin": 9599,
      "namaHsa": 9600,
      "yaska": 9601,
      "gshad": 9602,
      "nit": 9603,
      "matstsha": 9604,
      "bsun": 9605,
      "bsnyed": 9606,
      "posh": 9607,
      "mipa": 9608,
      "thamasa": 9609,
      "sums": 9610,
      "tusa": 9611,
      "gzed": 9612,
      "gzhas": 9613,
      "khrags": 9614,
      "gasta": 9615,
      "monga": 9616,
      "gem": 9617,
      "bzlo": 9618,
      "adra": 9619,
      "grom": 9620,
      "nyeg": 9621,
      "sbir": 9622,
      "tsaSh": 9623,
      "sngal": 9624,
      "smugs": 9625,
      "shyee": 9626,
      "gton": 9627,
      "dbyibsa": 9628,
      "rtsings": 9629,
      "badzdza": 9630,
      "gzhum": 9631,
      "shuSh": 9632,
      "sdem": 9633,
      "tharba": 9634,
      "padmam": 9635,
      "sgrab": 9636,
      "sdos": 9637,
      "badh": 9638,
      "prak": 9639,
      "pratstshi": 9640,
      "gsoda": 9641,
      "auka": 9642,
      "gzungsa": 9643,
      "and": 9644,
      "anni": 9645,
      "gambh": 9646,
      "koom": 9647,
      "lteb": 9648,
      "pits": 9649,
      "tsantu": 9650,
      "aitstsha": 9651,
      "kyam": 9652,
      "kantu": 9653,
      "yAsa": 9654,
      "pantha": 9655,
      "thanga": 9656,
      "kAm": 9657,
      "dhim": 9658,
      "tshan1la": 9659,
      "bantam": 9660,
      "kroshta": 9661,
      "btsar": 9662,
      "shwaH": 9663,
      "sty": 9664,
      "syapa": 9665,
      "rdzim": 9666,
      "mje": 9667,
      "kshli": 9668,
      "rmmi": 9669,
      "bstams": 9670,
      "ghnam": 9671,
      "sarbbe": 9672,
      "shangka": 9673,
      "hrIHdang": 9674,
      "phruM": 9675,
      "zis": 9676,
      "bshungs": 9677,
      "trom": 9678,
      "abba": 9679,
      "nishku": 9680,
      "dzriM": 9681,
      "yahphata": 9682,
      "hinggu": 9683,
      "NauM": 9684,
      "bstegs": 9685,
      "kukku": 9686,
      "sgrun": 9687,
      "thlhim": 9688,
      "65": 9689,
      "9dang": 9690,
      "Ra": 9691,
      "Yau": 9692,
      "[#": 9693,
      "ams": 9694,
      "anu": 9695,
      "aphang": 9696,
      "a21": 9697,
      "bdab": 9698,
      "klang": 9699,
      "mmu": 9700,
      "mches": 9701,
      "mnom": 9702,
      "prig": 9703,
      "ss": 9704,
      "sgas": 9705,
      "sren": 9706,
      "swI": 9707,
      "wU": 9708,
      "}]": 9709,
      "baksh": 9710,
      "banydza": 9711,
      "namas": 9712,
      "mats": 9713,
      "macha": 9714,
      "bsgying": 9715,
      "ratsa": 9716,
      "rashta": 9717,
      "phI": 9718,
      "yangas": 9719,
      "huka": 9720,
      "toshyo": 9721,
      "bardzo": 9722,
      "suSh": 9723,
      "cira": 9724,
      "dzes": 9725,
      "rjas": 9726,
      "tanytsa": 9727,
      "bcwo": 9728,
      "brnang": 9729,
      "gendra": 9730,
      "tshoma": 9731,
      "shish": 9732,
      "phama": 9733,
      "basta": 9734,
      "rdzny": 9735,
      "tipra": 9736,
      "tiksha": 9737,
      "guM": 9738,
      "snyu": 9739,
      "sgogs": 9740,
      "shsha": 9741,
      "theSh": 9742,
      "mandha": 9743,
      "yasra": 9744,
      "mutta": 9745,
      "phuM": 9746,
      "bisht": 9747,
      "mtshung": 9748,
      "mtshamsa": 9749,
      "longsa": 9750,
      "shoH": 9751,
      "lingg": 9752,
      "audga": 9753,
      "ann": 9754,
      "grangas": 9755,
      "tsandri": 9756,
      "ardha": 9757,
      "aryam": 9758,
      "arshva": 9759,
      "kima": 9760,
      "wAk": 9761,
      "kandha": 9762,
      "nAny": 9763,
      "trishn": 9764,
      "stsog": 9765,
      "banna": 9766,
      "ganta": 9767,
      "gannga": 9768,
      "ratnam": 9769,
      "ghata": 9770,
      "att": 9771,
      "shrU": 9772,
      "gree": 9773,
      "sangga": 9774,
      "ghgh": 9775,
      "ShAny": 9776,
      "tsArtsi": 9777,
      "shyata": 9778,
      "hrIHbi": 9779,
      "harmaM": 9780,
      "kaMH": 9781,
      "tsinda": 9782,
      "lindi": 9783,
      "gatsanga": 9784,
      "mandalam": 9785,
      "aangku": 9786,
      "aanggu": 9787,
      "kimpa": 9788,
      "sduga": 9789,
      "532a": 9790,
      "531b": 9791,
      "532b": 9792,
      "533a": 9793,
      "534b": 9794,
      "535a": 9795,
      "534a": 9796,
      "533b": 9797,
      "rtel": 9798,
      "iHla": 9799,
      "pinydza": 9800,
      "apte": 9801,
      "shauN": 9802,
      "markata": 9803,
      "aungga": 9804,
      "tyakta": 9805,
      "bsnyabs": 9806,
      "2pa": 9807,
      "74": 9808,
      "84": 9809,
      "Dud": 9810,
      "Nas": 9811,
      "Tho": 9812,
      "bgrong": 9813,
      "dbas": 9814,
      "htsa": 9815,
      "hwAM": 9816,
      "ikshe": 9817,
      "khes": 9818,
      "lhugs": 9819,
      "mni": 9820,
      "myid": 9821,
      "mgus": 9822,
      "oSh": 9823,
      "pil": 9824,
      "pror": 9825,
      "rr": 9826,
      "rmun": 9827,
      "rtham": 9828,
      "ssu": 9829,
      "ttva": 9830,
      "udz": 9831,
      "桌面": 9832,
      "pappa": 9833,
      "bama": 9834,
      "nara": 9835,
      "yakra": 9836,
      "haspa": 9837,
      "haSh": 9838,
      "tsri": 9839,
      "hon": 9840,
      "maSh": 9841,
[...]
